#version: 0.2
Ġ t
h e
i n
Ġ a
e r
o n
Ġt he
r e
a n
o r
e n
a t
e d
Ġ o
s t
a l
Ġ w
a r
i t
Ġo f
Ġ s
n d
Ġ in
Ġ f
i s
e s
Ġ c
Ġ b
i c
Ġ p
in g
Ġa nd
i on
a s
r o
l e
Ġ S
Ġt o
Ġ m
Ġ C
Ġ d
o u
Ġ A
i l
Ġ 1
Ġ T
Ġ h
en t
a m
Ġ M
e l
o l
o m
Ġ (
Ġ re
Ġ B
a c
Ġ l
a d
Ġ P
u r
e t
e c
er s
Ġ H
Ġ n
i v
at ion
Ġ 2
i g
Ġw as
Ġ I
Ġ e
i r
Ġt h
i d
o t
Ġ R
u s
a y
Ġ1 9
l y
Ġf or
Ġ on
i m
Ġ D
Ġ L
c h
u t
Ġ g
i st
Ġ F
Ġ is
o w
e m
Ġa s
Ġ G
ĠT he
u n
Ġ N
Ġ W
it h
t h
t er
0 0
Ġ st
he r
an d
c t
u l
a g
â Ģ
c e
Ġw ith
Ġ J
Ġ E
Ġb y
Ġa l
u m
o s
' s
Ġb e
ro m
r a
v er
o p
Ġa t
r i
âĢ ĵ
Ġw h
Ġa n
Ġ O
o c
Ġc on
Ġ he
Ġf rom
i an
Ġ "
al l
a in
Ġ v
o d
Ġ K
Ġth at
e st
a v
a b
it y
i es
t s
re s
i a
Ġ U
Ġc om
e w
il l
b er
at e
i f
Ġp ro
u p
ar d
u d
ĠS t
ar t
1 9
Ġ it
Ġp l
ig h
Ġd e
u b
a k
i p
a p
Ġh is
e ar
o re
a st
ic h
or t
Ġ2 00
Ġ r
Ġ or
o v
l d
es s
q u
T he
at ed
is h
Ġ2 0
ĠI n
ar y
m er
Ġa re
ĠC h
on g
u g
ou r
m ent
iv e
Ġ V
Ġc h
ou n
o g
en d
g e
k s
i al
an t
s e
Ġe x
Ġs e
el l
in e
f er
u nd
u st
or d
er e
am e
u c
r an
e p
s o
i re
) ,
u re
ec t
Ġw ere
o st
Ġ le
u e
ion s
Ġ âĢĵ
ic al
ac k
en c
Ġs p
Ġwh ich
Ġal so
ĠH e
i e
t her
Ġpl ay
Ġs h
ĠU n
a re
Ġ y
Ġcom p
ig n
r it
Ġ20 1
r y
as s
f f
p p
Ġ k
r ic
ag e
Ġ Ċ
igh t
ir st
c l
ou s
Ġ un
m an
id e
or k
Ġc l
on d
Ġ Y
l and
ow n
Ġ 3
he d
er v
Ġ1 8
or y
Ġh ad
Ġa r
ter n
Ġn ot
i z
ation s
oun t
Ġ19 9
av e
o k
p er
ic an
ation al
an g
Ġh as
Ġf irst
o ol
or n
em ber
f ter
am p
ic e
e y
Ġ ro
Ġw he
om e
at er
ac h
Ġ us
ac t
Ġcon t
Ġre s
Ġin t
ĠI t
I n
w o
ĠT h
ĠA l
Ġ |
i b
ou t
Ġt e
p h
it ion
u ct
e e
Ġa d
im e
Ġthe ir
Ġit s
ul t
it ed
re e
en s
at es
re n
enc es
Ġwh o
Ġ j
ch ool
en ce
2 0
le ct
a w
ĠA r
at h
mer ican
Ġa b
ou nd
) .
ac e
Ġb ut
Ġ| |
i k
ar k
p ort
p l
R e
ub l
Ġy ear
Ġon e
il m
Ġa pp
ug h
it e
ol l
cl ud
Ġa c
il d
e op
or s
Ġp art
in al
Ġ her
Ġre c
o ver
Ġm an
Ġ -
is s
iv ers
b all
i le
ĠN ew
p t
n g
w n
e g
ent s
u al
Ġa g
eop le
fer ences
ou ld
or m
l es
res s
ad e
Ġ 4
Ġ19 8
Ġh ave
h n
ur ing
Ġp er
o y
o ot
i o
Ġb ec
Ġs c
Ġt wo
Ġth is
ol d
Ġin clud
ĠM ar
as ed
on s
Ġal l
Re ferences
er n
o b
t e
t on
o in
ur n
w ard
a il
v el
g h
h ip
as e
in d
i ed
ing s
Ġo ther
s s
ĠC om
Ġbe en
t ed
Ġa fter
Ġd is
u ch
w e
Ġ19 7
ab le
Ġcom m
Ġd es
w ay
Ġa ct
Ġ 5
el y
o od
2 00
e b
ic s
re d
Ġl in
is hed
ur y
ou th
Ġ up
Ġ im
Ġof f
r al
f t
Ġf ilm
ĠL e
or ld
Ġo ut
Â ł
ĠA merican
Ġ en
an ce
Ġo ver
Ġn ew
Ġp r
on t
p e
on e
Ġthe y
g an
is ion
r am
Ġint o
an c
ou gh
Ġs erv
a h
oc k
an s
e x
E x
Ġ Ġ
am es
Ġt r
ivers ity
or th
Ġe v
ĠS h
Ġ19 6
d uc
ĠA n
Ġg ro
Ġ und
al s
ic k
tern al
Ġl oc
Ġat t
as on
1 8
ic t
ro ugh
al e
ran s
an n
ol og
Ġp re
ak e
ĠUn ited
Ġt ime
oot ball
Ġh im
Ġw ork
c ent
ist s
ĠS p
os e
Ġp eople
Ġs ec
i el
e ver
i ous
Ġk n
i x
Ġs he
Ġlin ks
e v
l l
in s
ri b
a z
c ess
er al
Ġ 6
Ġb u
in n
at t
it ies
il y
ĠJ o
u ary
Ex ternal
f orm
ĠC ol
Ġb et
Ġwhe n
re at
b um
Ġund er
Ġc o
ĠO n
in ce
Ġcon s
Ġre g
ĠI nd
Ġte am
Ġp ubl
if e
e at
c he
Ġplay ers
d er
a j
oll ow
Ġc ent
Ġ Z
ot h
Ġyear s
st r
oc i
Ġre t
we en
Ġe st
Ġin d
us ic
ĠUn iversity
Ã ©
l ish
Ġb o
us e
ĠP ro
Ġm ore
Ġas s
Ġw ould
ire ct
Ġag ain
ul ar
Ġs chool
Ġst ud
Ġon ly
Ġfor m
i er
id ent
en n
ion al
ĠC l
ĠS c
er ies
em b
ĠE ng
Ġc ol
Ġd uring
le y
an y
Ġp ol
Ġwhe re
Ġm ost
Ġ 7
Ġs ub
Ġc an
ag ue
a ir
Ġs up
ra ph
Ġal bum
Ġ19 4
Ġab out
Ġbet ween
Ġ19 5
d uct
ist ory
Ġe ar
ro und
ĠSt ates
Ġre l
Ġs y
Ġre le
em ent
p r
Ġ qu
o ber
ou se
res ent
at ive
in a
Ġth rough
Ġth ree
Ġf l
Ġus ed
f ore
Ġd ec
he n
as h
Ġre m
Ġf ound
ar s
Ġin ter
over n
Ġ ed
iel d
19 9
Ġd ist
Ġp op
Ġl ater
Ġs ing
ĠB r
p or
i am
Ġf ollow
Ġg en
Ġ end
iv er
Ġrec ord
Ġthe re
Ġn um
ĠS chool
t en
Ġthe m
Ġthe n
Ġt ra
ĠTh is
Ġs o
Ġm ov
er m
if ic
Ġse ason
Ġ ra
Ġw rit
Ġ 8
ow er
" .
ĠI s
at ing
ers on
Ġm ade
Ġf ootball
Ġm e
p en
Ġsec ond
Ġsp ec
er man
" ,
Ġt rans
an k
Ġch ar
ĠC ount
s on
c c
ĠJo hn
ep t
Ġkn own
os s
er t
ĠA ust
ĠW orld
og raph
ĠA s
ĠB l
Ġar t
ĠW ar
Ġ1 7
. "
Ġs uch
Ġpro v
it t
le v
Ġest ab
Ġs et
Ġ ent
ĠC ar
Ġbec ame
Ġth an
u res
Ġe lect
vel op
it s
m p
Ġde f
Ġ 9
âĢ Ķ
un e
Ġb ir
iv ed
Ġs ong
ĠF ran
Ġ Q
Ġd irect
in es
Ġs ome
Ġin v
Ġa m
Ġ1 0
iv ing
v e
Ġ &
Ġf am
ric t
is m
Ġbe ing
ik e
Ġb l
ment s
i ew
ĠC on
el s
ot her
us s
Ġc all
ĠP h
Ġex p
t il
ĠC an
le t
ĠCom m
ur ch
ut e
ĠS he
u ro
Ġl ar
Ġw ell
r on
ay s
oun c
st it
Ġf our
Ġm on
th s
Ġp h
ĠB rit
Ġst r
is e
in ist
Ġs eries
ĠY ork
ĠN ational
ul l
Ġd o
Ġm ed
a x
Ċ Ċ
b y
Ġ19 3
e f
t y
ĠO r
Ġgro up
Ġh igh
Ġinclud ing
Ġg r
ĠM ay
ver y
tern ational
st em
Ġ1 5
Ġle ad
Ġg o
ĠJ an
Ġac c
a i
Ġo per
ĠA t
Ġbe fore
ow ever
ur al
Ġin c
Ġor ig
ĠW est
Ġb ro
Ġagain st
at her
Ġwh ile
ĠP l
Ġ1 6
ire d
ĠP r
ĠA d
00 0
ĠCount y
c es
am ed
Ġad d
Ġman y
ian s
Ġs ign
n e
2 1
er ed
20 1
u es
Ġun til
el f
ic ip
Ġo wn
m y
Ġsh ow
Ġs ur
Ġb ack
ar ri
amp ions
ĠS outh
iv es
Ġc ount
19 8
Ġn ame
r ist
are er
Ġg u
k e
g ram
et h
Ġde ath
Ġn o
i um
Ġm ain
Ġm od
b orn
ut ion
y s
Ġ200 6
Ġm ay
Ġplay ed
j ect
Ġm usic
Ġb oth
ĠJ u
ot t
et s
ĠG erman
Ġde velop
Ġnum ber
ĠAust ral
Ġfor mer
Ġc ap
Ġare a
Ġoff ic
Ġ1 2
l ed
ul ation
g er
le ge
ut h
ug ust
ic a
Ġp ar
a id
Ġse ver
olog y
ro ss
ĠF or
Ġre ce
Ġd r
emb ers
y l
ĠW h
aj or
Ġe m
iz ed
ĠC ent
ĠLe ague
ĠN ov
s p
i ent
Ġbu ild
he s
Ġ .
im es
ĠC ity
ual ly
ept ember
Ġc re
duc ed
om an
Ġo pen
Ġs m
ĠD ec
Ġre p
Ġf eat
ĠP ar
ĠG e
overn ment
Ġg ame
Ġrele ased
are d
om en
is c
ĠB ro
Ġr un
i or
S t
ir d
ain ed
Ġd if
v ed
f ess
ov e
str uct
ĠA ugust
ĠN orth
ĠC al
a u
ag es
Ġex t
C h
iss ion
Ġdes ign
s h
ĠBrit ish
ct ober
f or
Ġl ong
er y
v en
Ġw on
os ed
in c
Ġv ar
i et
ĠC o
p le
ĠCan ad
19 7
S ee
ĠB ar
Ġn e
Ġ200 7
ĠB o
ĠS eptember
Ġst ate
r id
ĠE d
lev ision
re t
A merican
a use
Ġsy stem
pr il
h am
ĠMar ch
it al
ĠD e
Ġpol it
Ġret urn
ĠAl l
ĠG u
ward s
r is
Ġan n
Ġ '
ĠJ une
Ġst ation
Ġcl ub
Ġa ir
Ġcall ed
ist or
Ġsever al
Ġ1 3
Ġor gan
Ġ1 4
il t
ĠK ing
l ished
Ġorig inal
ĠA ss
ar m
ĠI I
Ġto wn
ĠJan uary
Ġs ame
ampions hip
v ent
cent ury
1 0
ĠJu ly
Ġl ife
Ġcont in
an ge
ĠE uro
1 7
ĠO ctober
b o
a e
Ġpro gram
ĠM an
ĠG r
Ġm at
Ġs uc
f l
Ġde p
ograph y
ĠB e
on y
Ġpubl ic
ren t
Ġf inal
f ul
ak ing
Ġfam ily
r ing
Ġo b
Ġear ly
t he
il ity
n er
Ġn ear
Ġfollow ing
Ġc areer
a f
ib le
ĠF l
ure d
oin t
ĠA pril
ial ly
Ġw ill
ap an
ĠH igh
eb r
re en
ain s
ĠA m
en g
y n
Ġst art
Ġb and
st er
ĠSt ate
ĠW ill
as k
ĠThe y
O n
Ġp ass
Ġf in
Ġhe ad
al ly
ro p
Ġc ur
al ity
ĠU S
Ġcomm un
es e
Ġch ild
Ġdis c
Ġcl ass
il it
Ġm in
am b
ĠDec ember
u ed
ĠR ep
Ġthe se
id ed
Ġb el
un g
Ġ1 1
an e
at or
ĠNov ember
ĠR e
il le
Ġ âĢĶ
ĠR eg
Ġbir ths
c om
or ks
Ġm en
ang u
Ġt it
Ġs ince
Ġapp ear
ĠR o
an ts
ce pt
Ġg ames
t o
or ts
Ċ Ġ
Ġan y
l ing
ĠH ar
ic es
al es
Ġc ity
ĠT r
Ġal ong
uc k
is ed
end ed
Ġp res
i ence
Ã ¡
ĠCh rist
Ġestab lished
Ġcomp le
Ġus e
ĠEng lish
ĠP ol
Ġm embers
ec hn
ect ion
ĠS w
Ġb ased
ac ed
2 2
Ġn amed
Ġl and
ical ly
c k
ebr uary
Ġv ers
et er
Ġl ist
a ugh
ac ks
ĠA f
Ġres p
Ġbe gan
Ġsm all
ec ts
iv al
ĠA fter
ĠR ec
ĠM c
Ġloc ated
. .
ĠEuro pe
ĠE x
19 6
ord s
Ġe ff
ĠGe or
Ġs im
ro w
on om
Ġw e
f ord
| -
Ġpro duct
in ess
od e
ore d
Ġv ill
Ġd id
ĠH is
Ġfilm s
Ġman ag
Ġp rom
Ġpop ulation
Ġo cc
igh ts
Ġen g
at s
av ing
ren ch
in o
ĠA nd
Ġdes c
ĠE ast
Ġe ach
Ġb us
Ġ200 8
Ġc ar
ard s
u k
ĠS e
t ing
ec h
Ġm ajor
Ġsup port
H e
Ġ200 5
g est
Ġcomp et
ĠJ apan
Ġcent ury
ĠF ebruary
ĠA ir
Ġm et
re w
m e
s ide
ĠCol lege
Ġpl ace
1 6
ad em
Ġh ome
Ġs l
our n
r act
Ġim p
iv ision
Ġl aw
ĠC up
1 5
b le
Ġre v
a ul
it ions
ly mp
ond on
ĠP ark
Ġd own
Ġsing le
un icip
qu e
Ġm ember
ĠN o
Ġp o
Ġp erson
Ġg overnment
Ġn ational
Ġsuc cess
Ġte levision
in ed
1 2
ĠE l
Ġn ow
id es
ĠG en
ac es
re et
ĠCh ar
Ġloc al
Ġt erm
et y
ĠCom p
Ġl ine
at a
os ition
al th
ĠA b
Ġw orld
oci ation
y p
ff ic
ro l
y le
Ġcomp any
ur g
at ic
Ġa round
ar n
Ġl ast
Ġ19 2
id d
ad io
Ġserv ed
ear ch
Ġbu ilt
Ġpubl ished
Ġle g
Ġc ould
T h
Ġdif fer
Ġto ok
ubl ic
m ed
Ġplay er
A l
Ġhe l
Ġ200 4
our t
Ġhe ld
er g
ĠĠ ĠĠ
ĠH owever
Ġ201 0
Ġo ld
Ġre fer
uth or
Ġ200 9
ing ton
an a
Ġe p
at ure
c o
ĠL ondon
Ġle ft
Ġd ue
ĠM ed
che s
ak es
at ely
ĠD av
Ġn orth
ĠWill iam
Ġc r
Ġj oin
Ġre st
Ġ X
ac ter
Ġgen eral
Ġ19 0
ĠP art
ill ion
ow s
ent ly
o ks
un ct
g et
is on
ĠS y
c ast
ĠE n
ĠT e
Ġsh ort
p ed
ĠIt al
ar a
ilit ary
in k
Ġpro fess
Ġed uc
ĠA ng
t t
ie f
u f
Ġ201 1
t al
Ġev ent
if ied
p s
Ġc amp
th ough
a us
ra ft
âĢ Ļ
ĠD ist
ide o
a im
i od
Ġlar ge
19 5
Ġh istory
Ġ200 0
ĠAf ric
d ay
in t
ex t
Ġs ix
ĠC or
H istory
Ġb orn
if orn
al k
iv en
1 4
om in
ĠF rench
r ation
Ġp resent
1 3
ĠR uss
enc y
s c
ĠS up
ĠS ec
Ġbec ause
ĠCh ampionship
ect ed
Ġf ive
Ġt ri
um n
Ġinclud e
iforn ia
ord ing
Ġd ay
ric k
ĠPh il
um mer
Ġde b
ĠD r
um b
Ġre f
ĠH ouse
angu age
Ġor der
l er
od y
Ġ ,
ĠH er
att le
Ġd ied
iz ation
on es
Ġw omen
arri ed
Ġd et
Ġinclud ed
ain t
ounc il
Ġapp ro
Ġs k
v ers
inn ing
Ġrece ived
Ġre qu
ĠR iver
en e
re g
ĠEng land
Ġp ower
ur s
p ar
ĠG l
Ġcons id
o x
g es
ĠĊ ĠĊ
Ġa v
ri end
ĠL a
Ġwith in
al d
Ġ200 3
Ġl o
z e
Ġ2 5
ĠCal ifornia
Ġbo ok
Ġm ark
l ine
um ent
op h
ur ther
ee k
Ġf r
ĠThe re
it er
ĠS an
Ġw ar
t ain
ĠM e
Ġ3 0
Ġs on
iv ely
Ġre pl
Ġs outh
ĠM ich
Ġj ust
ĠInd ian
her n
it ar
Ġth ird
Ġst and
ĠAustral ia
Ġ18 9
Ġs aid
Ġan other
Ġres ult
Ġvill age
19 4
st e
. ,
et t
U n
Ġ200 1
Ġto p
v ious
Ġ200 2
Ġper form
Ġst ill
ĠR es
Ġchild ren
g ed
Ġadd ition
Ġk ill
he m
er ing
n a
os p
ĠA ct
Ġd em
ĠA c
um an
Ġ201 2
Ġcur rent
Ġdist rict
ĠO lymp
Ġdiffer ent
Ġbuild ing
l in
Ġn on
om b
Ġe ast
Ġpro t
Ġ $
Ġn ov
ĠIn ternational
Ġl ike
e al
n ess
o on
our s
Ġf ac
v es
Ġad v
Ġchar acter
Ġl a
Ġ very
as es
ort hern
oc ial
Ġm ale
Ġw ater
Ġserv ice
Ġf ield
land s
Ġper iod
Ġw est
art ment
ĠAr t
Ġst at
= "
Ġad m
2 3
Ġp ost
Ġ if
Ġrep resent
op s
d om
Ġdesc rib
oun g
ad y
al f
Ġtr ad
g in
Ġvers ion
Ġis s
Ġre port
Ġmov ed
al t
A n
Ġc or
re st
Ġh ouse
Ġs old
f ield
Ġof ten
oy al
Ġh and
Ġv is
ĠM on
a ff
a el
Ġe qu
Ã Ń
ĠDist rict
Ġbus iness
Ã ³
in ing
Ġinc re
Ã ¼
Ġbe st
Ġa uthor
Ġt urn
ĠG ro
ĠS ch
ep end
Ġcon c
Ġo pp
ĠA ward
i us
m s
ĠP res
ĠCh urch
Ġcon struct
ĠP er
l o
Ġestab lish
Ġcount ry
ast er
Ġw eb
lect ion
1 1
Ġs ide
ic o
Ġl ed
Ġth ough
Ġstud ents
ir l
Ġm unicip
ec ut
Ġw in
Ġar ch
Ġtit le
use um
ĠCanad a
w ork
19 3
en se
Ġpro duced
u it
ac y
ĠSt reet
ol ic
u el
oci ety
er a
Ġspec ies
r ight
Ġl ate
Ġc over
P eople
he l
Ġf ather
av y
are n
Ġann ounc
Ġ201 3
us h
s k
or ies
Ġ2 4
A r
Ġev en
rib ut
Ġp at
Ġ 0
Ġep is
pl oy
Ġex per
Ġs ite
Ġm ag
ap p
Ġc rit
iv il
om p
Ġwrit ten
ĠA g
Ġa ff
Ġf e
Ġsh ip
Ġh istor
n ey
s ite
il ar
Ġp ort
am a
Ġch ang
Ġ el
and er
ot es
ĠS m
c hed
ĠA mer
ber t
es p
Ġd el
Ġ18 8
Ġ ec
iz e
ĠAr my
Ġth ose
Ġc ame
Ġc ult
Ġf ore
Ġle vel
Ġdeath s
le x
o f
Ġsp e
5 0
Ġm ake
Ġam ong
v ille
Ġ201 4
Ġp oss
ag o
Ġact iv
ĠE m
Ġin ternational
Ġro le
rid ge
Ġv oc
ĠD ep
Ġs w
Ġinv ol
ot e
Ġall ow
ri es
ther n
Ġt echn
re m
form ation
ĠOn e
ĠRo ad
an ia
ĠR oman
ap e
ad u
Ġw ent
Ġb re
B C
Ġex pl
ir c
Ġm uch
Ġeng ine
Ġ199 9
Ġpre vious
c ed
o le
ĠInd ia
o ff
ou thern
ĠP ort
Ġcomm on
Ġv al
ol ution
Ġf act
ĠH ol
Ġra il
ri pt
for man
ĠQ u
t i
Ġwh at
Ġim port
ĠR ed
c ol
ĠR ober
ĠP aul
ad es
Ġg iven
ĠL ou
Ġro ad
n ing
ĠQ ue
Ġv ol
Ġalbum s
ĠV al
ĠB el
' t
Ġbec ome
ĠM or
om et
Ġa ge
Ġre n
d e
an ish
ist er
s elf
L iving
ĠN or
ourn al
Ġf re
por ts
Ġt em
ĠGeor ge
Ġopen ed
Ġoffic ial
itt le
Ġa ward
it or
Ġpop ular
Ġto tal
Ġt w
Ġcommun ity
ĠJ ames
her s
Ġ18 6
ĠRec ords
ĠB y
Ġb r
b or
ĠAss ociation
Ġ201 5
Ġ199 0
ĠPart y
ĠR ich
ĠDav id
Ġw orks
ree k
ur b
ict ion
m ing
anc es
h a
im ent
ot s
iv id
Ġint ro
Ġvar ious
ĠAustral ian
ĠAmer ica
Ġstart ed
Ġ âĢ
ac hed
Ġin it
ab or
Ġs it
ĠFran ce
Ġh ost
Ġ2 1
Ġh aving
Ġst yle
Ġn ext
Ġ2 3
Ġco ach
re am
st on
ip p
es c
Ġ201 6
Ġsong s
ĠH all
ĠP al
i ber
Ġpr im
Ġreturn ed
Ġspec ial
Ġf ew
Ġm illion
om m
ar i
Ġstr uct
Ġ199 8
Ġdeb ut
id a
Ġe very
Ġpro cess
ro te
ĠD ivision
stit ute
w est
er ation
Ġre ad
Ġschool s
Ġv ideo
Ġ2 2
Ġbe g
Ġus ing
am ent
Ġcre ated
Ġproduct ion
Ġt ake
Ġst ar
Ġpro p
e an
Ġpro duc
Ġbro ad
l i
ent ion
Ġcl aim
A s
m en
lect ed
Ġro und
g round
ak en
a ur
Ġw ay
o or
g y
ra w
ĠR ev
Ġ18 7
e h
Ġt imes
Ġdevelop ment
it z
Ġm ar
ra in
Ġ et
om as
Ġst ory
ir on
ĠC ouncil
at ors
Ġgu itar
Ġh owever
Ġg reat
idd le
Ġs ent
Ġp ri
ĠM y
ĠCl ub
og n
ĠM al
i ol
Ã ¶
Ġm ilitary
wo od
le ment
olog ical
ĠW hen
Ġh ig
Ġ198 0
r ack
Ġcon f
A fter
ill s
ic le
se qu
ar ly
umn i
ash ington
Ġf ull
Ġreg ion
ĠSt ud
er b
Ġannounc ed
ĠGen eral
ĠC ath
op e
ask et
in ation
Ġjoin ed
Ġsim ilar
oin ted
m a
Ġm arried
Ġp e
Ġprofess ional
y a
Ġg l
Ġ [
ĠD uring
ĠUn ion
ĠEurope an
inist er
Ġs ol
ĠR oyal
Ġset t
Ġt er
ĠGerman y
Ġ2 6
Ġcon n
Ġp osition
ra b
i ers
ĠP at
our ces
e ared
Ġ201 7
Ġbe h
fl u
il es
v iew
Ġf riend
oc r
Ġch urch
ĠComp any
ri an
Ġm ult
ĠV ir
ivid ual
al ign
Ġbro ther
P l
Ġb ase
Ġpr act
i j
ĠB er
P ro
Ġrecord ed
Ġse e
ĠM usic
ĠBl ack
Ġpolit ic
Ġper forman
ib r
u ff
ĠThe se
Ġpolit ical
n ow
Ġne ed
Ġcom b
3 0
g r
ĠCanad ian
Ġatt em
Ġ2 7
Ġ2 8
Ġwith out
Ġle ague
ĠT ex
stit ut
an ies
l ess
Ġex amp
ĠKing dom
y ear
Ġ199 6
at ch
Ġal ign
Ġw rote
h an
ĠT own
ĠP ress
Ġare as
Ġ201 8
ell s
g o
Ġcont rol
ĠM ary
ĠM art
ĠS en
Ġweb site
Ġ199 7
re land
Ġcontin ued
ĠF ootball
Ġf em
ain ing
u le
ra z
w h
Ġf ind
r ay
Ġwork ed
ĠM ag
augh ter
y pe
on a
u ce
Ġl im
Ġd est
at ter
Ġapp eared
Ġtr ack
Ġre d
le g
fer ence
way s
asket ball
Ġp oint
ĠJ os
Ġeduc ation
Ġin f
Ġ Ã
ock ey
ar l
Ġr ight
Ġgroup s
ic ular
ĠL aw
et work
ĠPres ident
ĠT V
n el
C A
ĠS l
oin ts
ĠW ashington
Ġatt ack
Ġ197 0
ĠT ur
y m
Ġl ost
ag ed
Ġinter est
Ġdescrib ed
Ġconsid ered
pl ay
Ġh on
is ing
Ġnov el
Ġb as
Ġd i
ĠR ail
Ġh alf
Ġind ust
Ġst ations
ĠM o
Ġm id
Ġpro ject
ish ing
it her
Ġdirect or
ĠAng el
v al
il i
ĠGro up
h ib
Ġ ident
Ġro ck
ĠAc adem
ĠIs land
Ġ1 00
us ed
ĠM ont
Ġfound ed
Ġteam s
ĠC ap
ul ts
c y
Ġd ays
I t
ĠD on
Ġre al
Ġcomple ted
Ġelect ion
th let
Ġm iss
Ġev ents
Ġ20 19
ber g
end ing
Ġin s
Ġl ive
r d
Ġmat ch
ĠAr ch
Ġc aus
ĠH en
at ural
ro y
Ġsign ed
Ġt est
Ġr adio
b r
ĠL ist
ĠM ount
ĠG reat
Ġc ross
u z
Ġof fer
ab ly
ĠS k
ĠF irst
ĠB ay
ĠW ith
ar ch
Ġv ict
Ġpro per
ĠC ourt
ĠW e
C l
2 5
b urg
ĠTex as
ĠJ ew
Ġpres ident
us ical
ĠN e
Ġd iv
r ish
ĠRober t
Ġm y
ĠS erv
Ġplay ing
ap er
Ġsp orts
od es
ĠCent er
ĠS ociety
Ġpr iv
Ġ199 5
Ġt yp
F ilm
Ġs qu
ĠP ri
ĠS ing
ĠLou is
Ġt en
ec k
) :
ail ed
Ġh old
ĠY ou
b ack
Ġserv ices
Ġdevelop ed
ro ll
ĠSc ott
Ġsur v
Ġav ail
Ġhim self
x t
Ġec onom
ol it
ĠG reen
at re
Ġtrad ition
ĠS al
id ence
Ġl anguage
Ġ199 4
Ġ enc
Ġf urther
Ġw ife
Ġg ood
em ents
Ġhel p
Ġ2 9
ĠD em
as ons
ĠJapan ese
ac ing
ens ive
a ign
Ġc ast
Ġinv est
Ġpart icip
c raft
cc ording
Ġdo es
an i
Ġform ed
ĠS am
ell ow
ĠM ad
e le
ĠCath olic
ra p
Ġ /
ĠItal ian
ĠB est
ud d
t ime
ĠM ex
Ġind ividual
Ġimport ant
ĠY ear
Ġadm inist
ĠM ac
Ġa ut
Ġrel ations
Ġass ist
l ic
ĠM iss
Ġn ever
ĠS im
m ost
and ed
um p
iam ent
Ġl ess
est ival
k a
c le
all s
Ġg et
Ġ199 2
Ġem ploy
Ġv iew
ol f
Ġgro und
Ġm aking
in i
Ġb ody
Ġrele ase
it ect
Ġcon d
he re
Ġ20 20
ĠI reland
m ar
ert ain
um e
Ġw eek
ĠC r
ĠFran c
p ro
ĠMich ael
Ġin flu
yl v
Ġm ot
it ted
and ing
E ng
ĠT o
ĠP enn
ĠFl or
Ġsh ould
Ġal umni
ĠChrist ian
Ġbec om
ĠU K
2 4
y ing
Ġt ro
ou l
ĠPro v
ĠV ol
ĠT rans
ĠTh omas
u ation
an o
ĠWest ern
b our
Ġar r
ĠG old
y d
Ġc ase
Ġ( )
Ġme et
az ine
Ġother s
ers hip
ak er
ĠCh ina
Ġan im
ĠOlymp ics
Ġpart icular
ap t
Ġc oll
ĠC ong
it ch
ad a
un k
Ġse par
unct ion
Ġex ist
S h
ist ic
ot ed
Ġmod ern
ific ation
Ġs ocial
ĠGr and
Ġgro w
Ġmed al
ep h
he ast
Ġf ire
Ġepis ode
ict or
Ġvoc als
Ġm ater
l iament
Ġp oints
ul a
am ily
Ġr ul
ant ed
ecut ive
ar ies
ĠT ra
Ġh uman
ĠVir gin
im ately
at ri
re y
Ċ ĠĊ
il ities
ĠM et
ĠC he
Ġa ver
Ġh ous
s y
o ice
Ġavail able
ic les
at ives
Ġapp ointed
Ġind epend
Ġ z
N ew
| |
ed eral
Ġm other
b e
ĠComm un
Ġelect ed
ĠA lex
ste ad
Ġexamp le
er ry
ĠChar les
âĢ Ŀ
itt ee
ĠCent ral
duct ion
Ġbel ie
ot a
ish op
ĠW il
ĠAcadem y
ĠB ill
Ġ196 0
Ġeff ect
Ġto get
Ġtoget her
Ġestablish ments
Ġres earch
4 0
Ġbl ack
ĠB en
Ġcont ract
Ġal though
ĠT or
ra el
ĠM ark
Ġd oc
h i
, "
oy s
ĠC ro
ut es
id ing
it ive
Ġrec ogn
ed y
is l
Ġcomp anies
ĠC ont
Ġ #
ĠDep artment
h ood
Ġac ross
Ġ199 3
ines e
Ġc le
S p
Ġwork ing
and s
Ġb ar
e es
it ing
cent er
Ġa way
ĠCar ol
at ory
Ġinclud es
ĠIn ter
Ġon ce
id s
ud e
en a
ac hes
Ġl ow
Ġoff ice
ĠZ eal
Ġbroad cast
Ġdirect ed
ce ed
Ġb i
o res
Ġstr ong
Ġ5 0
e ep
Ġf ree
un t
O r
he ad
k i
Ġbo oks
Ġ199 1
Ġrev iew
Ġconstruct ion
Ġy oung
ĠP et
ic ago
Ġs ug
Ġoriginal ly
eth od
u x
Ġgo al
Ġt aken
ĠZeal and
Ġsuccess ful
Ġperform ed
Ġph ot
av es
v iron
on n
ĠM useum
ĠFran k
ĠF rom
Ġac qu
osp ital
T V
ĠP eter
em or
ĠAfric an
i que
Ġph ys
Ġfootball ers
Ġgr adu
ĠC amp
Ġmunicip ality
ĠD el
Ġd aughter
Ġin formation
ffic ial
u ild
Ġreport ed
Ġl ab
ĠIn stitute
W h
l or
Ġin st
col or
Ġl ight
Ġf und
200 6
ough t
Ġs ound
g ress
ect or
ar ian
er r
re l
if f
ar ter
s hip
F F
J o
al a
ri a
duc ation
ign ed
ut er
w are
Ġfollow ed
ĠAfric a
Ġp ain
Ġkill ed
Ġrel ig
ĠG ames
id ents
ĠM el
Ġmon ths
ĠR ock
Ġc our
Ġr ace
ec e
Ġde v
Ġm ust
Ġe ight
w rit
ĠL ake
S c
j ects
ĠOr der
Ġla un
ĠT om
Ġh ow
Ġpart y
Ġ20 21
g en
ell ing
Ġl iter
Ġd er
ĠFlor ida
ĠRuss ian
ap s
ĠD ay
om s
ann el
ch ie
ĠH ill
Ġm ix
Ġfeat ures
ad ium
Ġass oci
Ġfeat ured
ant a
t ar
act ers
ĠH am
Ġac cess
ent ial
Ġ =
ĠG od
ran ch
ad o
Ġp ut
ĠF ilm
er ous
em s
Ġattem pt
ĠRich ard
F L
ĠS ummer
Ġto ur
Ġreg ular
ur a
a ut
ĠR ob
Ġshow s
ĠD an
Ġf ight
ibr ary
Ġcon duct
ĠB ut
as c
Ġc ost
Ġsc ored
Ġag re
enc ed
Ġse en
ĠWh ite
Ġde g
ate g
2 7
ro ad
Ġthrough out
ylv ania
ĠSm ith
ĠL os
ĠD o
ĠRep ublic
ĠP e
F or
Ġmater ial
Ġmark et
Ġbuild ings
Ġcap t
mer c
i ation
Ġcamp aign
ĠâĢ ľ
ĠL eg
ab ility
Ġevent ually
ĠM er
Ġ ide
ĠPl ay
2 6
I I
Ġ4 0
Ġc irc
ol k
i os
ĠK n
Ġ3 1
t a
ĠC ast
inc ip
r ated
Ġ198 9
ĠG o
Th is
Ġin j
air s
Ġlar gest
Ġent ire
ach ing
ug by
ig an
ĠSp anish
Ġpl an
A t
he st
av al
ific ant
2 8
Ġimp ro
ol a
Ġrem ained
Ġse ven
ĠF ore
Ġ198 8
ĠSc ot
m b
ĠV ictor
Ġg ave
ov iet
Ġfin ished
augh t
s erv
Ġst ri
Ġv iol
200 0
Ġy ou
F A
Ġaver age
viron ment
overn or
Ã ¤
Ġperforman ce
Ġt re
nd er
m on
Ġrepl aced
Ġfr ont
ĠI m
Ġ( "
ĠH istory
o ch
Ġst age
ĠH istor
Ġk ey
Ġ18 5
Ġintro duced
Ġw inn
Ġd am
Ġmod el
ut ch
k m
ĠFor ce
Ġp ast
ĠCh icago
Ġm ount
Ġp ress
ĠK ore
Ġ ill
Ġs il
Ġfor ces
ĠA pp
ĠSec ond
s ylvania
Ġpro ble
ĠW in
c er
Ġtra ining
it es
k n
Ġe ither
ĠI ll
ĠM ass
Ġdesign ed
Ġcons ist
G e
om a
c her
an ks
Ġf oc
uf act
Ġtrans fer
Ġg old
ĠB ur
Ġan al
Ġ20 22
ĠBro wn
Eng lish
Ġch ampionship
Ġ198 7
Ġsub sequ
Ġp ark
ĠHen ry
Ġ :
Ġsign ificant
. )
ĠC ons
L ist
Ġtrans l
2 9
ĠGeor g
Ġair craft
Ġlead ing
o o
ĠIs rael
Ġw id
S A
Ġbir th
ĠVirgin ia
ĠSup er
Ġro ute
Ġsug gest
Ġinvol ved
ist an
Ġc ivil
Ġus ually
y r
ver t
ĠCh inese
Ġwh ite
ord er
Ġ198 6
I nd
ĠAngel es
i ro
un n
ĠS qu
ĠM r
Ġbo ard
at in
im ate
ĠD irect
Ġab ove
Ġs em
ar th
Ġsing er
os ing
g color
ĠS aint
Ġd ou
R ec
Ġadd ed
Ġpriv ate
ĠM us
ĠM inister
Ġab le
Ġcol lege
Ġart ists
Ġh om
Ġr ange
19 0
ĠD es
ut ure
Ġa ud
Ġchar acters
ĠE mp
Ġs en
.. .
Å į
ic y
" )
med i
ĠF r
Ġd ram
ers ey
Ġc ourt
Ġ198 4
raz il
id ge
z a
Ġwrit er
ul ated
Ġj ournal
Ġt reat
Ġne igh
our ce
v ing
6 0
ĠItal y
ĠPenn sylvania
at al
E arly
Ġr ank
as ing
in ct
ĠM il
Ġaward ed
merc ial
Ġstud y
un s
w ell
Ġwrit ers
Ġup on
id ae
Ġcl ose
end er
Ġj ud
Ġn ight
ĠSt ev
l am
ĠPar is
Ġresp ons
Ġhe alth
ian o
N otes
ag on
ic ated
rough t
i Ä
Ġb asketball
ĠW ales
Ġp ur
ĠJ ust
ĠG re
Ġp os
is es
ĠL ove
ĠSw ed
Ġcon v
i res
Ġch ange
Ġa p
Ġpolitic ian
ĠCong ress
e ated
A R
l im
f ic
Ġr ights
Ġle arn
Ġs aw
ĠAt l
Ġ198 5
ĠSt ar
Ġst e
Ġs er
Ġarch itect
Ġcomp os
ri al
s el
ok e
h old
re ad
Ġtra vel
Ġact ress
Ġst aff
ay ing
f ace
Ġc y
Ġc op
ĠO ld
k ed
m in
ĠO h
por ary
it a
ar ily
Ġb gcolor
ĠS ome
l a
ĠWh ile
Ġmed ia
Ġchang ed
ell a
Ġdisc over
ist ics
Ġ195 0
b ur
h ire
ĠM a
ĠE v
ur ity
or ing
Ġm er
Ġpo et
Ġprov ided
Ġre ached
200 7
Ġcurrent ly
Ġmanag er
u ke
Ġme an
bo ard
Ġcent ral
um m
ĠAn n
am s
Ġfem ale
Ġ198 3
Ġle ast
az z
d s
g ent
ĠTur k
atri ate
d en
ov ers
Ġf ig
Ġqu al
Ġgo als
Ġpol ice
erv e
ĠAr ts
out e
Ġh it
Ġr iver
ĠDem ocr
ĠCol umb
Ġcent er
ant ic
p ly
ĠE r
p eople
Ġrail way
Ġs ch
Ġst ates
Ġ18 4
ct or
ent h
ĠN orthern
el t
ĠS ir
st ant
B l
Ġcount ries
ĠComm ission
Ġv ia
ĠM ur
Ġs ection
ed s
Ġl oss
Ġcl osed
p ts
ĠCl ass
Ġm usical
G en
ĠI rish
ong s
Ġpar ts
inal s
Ġf av
18 9
Ġ198 2
D e
ĠP ublic
Ġ197 9
Ġdest roy
Ġm ur
b and
Ġcompet ition
Ġre b
N A
r up
k y
kn own
Ġa chie
Ġexp ress
omet imes
h ab
Ġt ype
Ġc he
Ġse x
Ġact ion
Ġocc up
ven ue
) ;
B A
sy ch
Ġk ing
L e
Ġw ind
Ġg irl
Ġproduc er
ult ural
i ents
sh ire
ian a
Ġin stead
ĠMex ico
Ġfour th
i ences
Ġw inning
Ġsing les
Ġl ower
ĠS oviet
Ġdec l
Ġto urn
r ad
Ġres ults
i qu
Ġocc ur
8 0
et her
end s
A d
l ike
ĠM ill
ĠO ther
eng th
Ġs outhern
ĠW ood
Ġdec ided
Ġout side
ĠI ts
Ġkn ow
Ġcrit ic
Ġsp ace
st ra
Ġf all
ĠCarol ina
et te
pt ion
ĠS ur
ĠJ im
ens us
ĠR h
Ġdoc ument
ĠP re
Ġrun s
ĠK h
Ġd ata
Ġ Â
Ġp urch
Ġprim ary
Ġde al
ĠT wo
Ġpl ant
Ġn orthern
us p
Ġman ufact
b l
Ġresp ect
D uring
Ġn etwork
Ġpl aced
ĠO per
Ġse asons
Ġ198 1
Ġact or
c a
Ġart ist
The re
Ã³ n
Ġ197 6
stit ution
Ġb ass
Ġwh ose
rib ution
Ġb rought
Ġc ut
200 5
ĠN avy
ĠPar liament
P h
er o
Ġm ethod
ĠO ff
Ġpl aces
ĠServ ice
il s
Ġrelations hip
ĠP an
Ġfre qu
Ġprov ide
Ġr ather
ens ion
Ġp aren
ĠC D
w w
or se
ĠM od
Ã ¨
u a
Ġp ot
Ġw ood
y e
Ġf ar
Ġ197 2
Ġn atural
Ġ197 4
Ġm ass
Ġal most
ĠH on
ĠJ ack
Ġappro x
Ġst ated
at o
Ġre ve
ult ure
ĠO ut
Ġ esc
ĠR adio
Ġp red
Ġprevious ly
Ġh ard
Ġac cept
ĠD en
Ġf arm
w ith
Ġun its
at i
ĠP o
b ased
ill a
emb ly
Ġ197 8
ĠVal ley
ollow ing
Ġown ed
ec ially
Ġpl ann
ĠS il
ĠF estival
Ġt ax
ĠJ ersey
Ġar g
ow ers
Ġco ast
isc o
c ient
n ed
ĠF ort
Ġp ers
Ġc reat
ult y
P erson
Ġatt ended
Ġstud io
re me
Ġ esp
Ġmult ip
id er
ĠĠĠĠ ĠĠĠĠ
Ġoper ations
Jo hn
Ġc ou
ĠEmp ire
un ior
en ed
ript ion
Ġim m
ĠS eries
um ents
Ġb ank
Ġme as
est s
ĠT echn
Ġed ition
Ġf if
ĠO l
Ġb all
Ġcont ribut
ĠA rab
ing u
erg y
ĠSc ience
ĠSt r
Ġmag azine
Ġsystem s
in ent
um s
Ġdef eated
3 5
ĠJos eph
ĠR os
Ġc red
Ġst op
Ġcult ure
ell ed
a o
Ġits elf
Ġgr and
or por
M ar
Ġv eh
Ġsy n
Ġpr ison
Ġmin or
r or
ĠChampionship s
g l
Ġbeh ind
Ġfor ce
ĠOh io
i en
Film s
le ments
ch ange
w er
Ġnew sp
Ġposs ible
ĠT imes
all ed
Ġis land
Ġtrans port
e ff
ĠM os
Ġan t
and id
Ġd ivision
cl us
Ġl ik
Ġe ver
ĠB ob
Ġcol lect
ĠH ow
ĠB razil
Ġcap ital
Ġ197 7
Ġc are
Ġter rit
ur t
C C
ĠH ot
m ond
Ġbeg inning
Ġsc ience
ĠT our
C an
ĠF ound
Ġso on
200 4
ino is
Ġallow ed
Ġpre m
ĠA ccording
Ġpr incip
ĠO f
ĠG ar
Ġend ed
Ġdef eat
ĠB attle
Ġh ockey
if t
rick et
im b
ĠMart in
Ġs ummer
ĠT ro
ĠG overnment
Ġorgan iz
Ġreg ard
i ography
Ġcl os
Ġact ive
Ġwh om
Ġdeg ree
Ġ197 5
Ġcol lection
Ġhig her
ĠE ducation
Ġlist ed
al c
ĠM ost
Ġsup er
ĠA v
oun ter
Ġmov ement
aw a
ul ations
ut y
b ury
Ġl iving
Ä ģ
Ġn eg
O ther
Ġread ing
Ġaddition al
Ġ196 8
Ġb attle
ro s
Ġbo x
iet y
anc ed
Ġcom mercial
ĠB us
ly ing
ĠD i
iÄ ĩ
ĠL ine
ĠL ife
Ġc ele
Ġ197 3
Ġcomp let
amp ion
ĠH aw
o ir
Ġlead er
Ġan ti
it iz
ĠA wards
ĠComm ittee
ec ess
C ol
Ġorgan ization
C on
ar ing
Ġappear ance
Ġb en
ĠL ong
ret ary
in ary
pp ed
Ġnew s
Ġle t
ĠU p
ĠS er
is ions
ĠG reek
Ġbre ak
ĠSp ain
7 0
Ġindust ry
l ier
Ġex cept
Ġsh ot
ec ial
ĠK ent
Ġstud ent
ĠB ig
A ll
ro wn
Ġindepend ent
ĠF re
Ġto o
Ġn ames
ĠĊ Ċ
ĠNew s
uf fer
Ġwrit ing
ĠP ac
Ġstruct ure
T e
Ġac adem
Ġf ood
Ġsp ent
ĠL and
w in
Ġ197 1
ĠB ase
Ġrem ov
Ġl ittle
Ġloc ation
al ed
ĠM in
Ġme ans
ĠIn c
Ġ196 9
Ġb ur
anc ial
Ġlo ok
ĠD ou
Ġsch ol
ost on
Ġsc ore
ĠScot land
Ġk eep
al ities
ĠD ev
st ate
Ġc anc
Ġcom e
Ġesp ecially
Ġun it
ĠF red
Ġtradition al
Ġsc ient
ad el
m ark
Ġin sp
ĠS ar
Ġcont ains
Ġqu est
ĠS a
ĠCar l
Ġd raw
ans as
Ġsur round
C areer
ĠS ub
Ġn omin
Ġcomple x
ĠIll inois
ĠS outhern
t rack
Ġs elf
Ġclub s
ĠRuss ia
Ġob serv
ĠBro ad
Ġr an
A m
le ft
it ors
ĠD ef
ĠF in
ĠRail way
Ġinvest ig
Ġf uture
ubl ican
Ġm ission
ard en
w an
o ok
ĠC ross
ĠBo ard
ĠT er
et ts
Ġd en
ĠA p
ad d
Ġto wards
or a
ĠE c
Ġp ay
ĠII I
Ġn ar
Ġacc ording
ri ef
ig ital
ĠThe atre
ĠAl though
ĠA re
Ġt aking
ĠG all
ĠH el
ĠB ul
Ġrun ning
r ative
in ated
Ġd u
Ġs ometimes
ech an
Ġus es
bur gh
al i
Ġhig hest
Ġvict ory
ĠBrit ain
Ġrequ ired
n y
Ġgen er
Ġcent re
ĠL ord
Ġm ention
ĠR oute
ic ro
re ady
and a
o id
as y
ig inal
ĠO x
ĠJ ud
ĠH a
Ġprogram s
ĠAl b
Ġpract ice
ĠProv ince
Ġopen ing
ĠBo ok
Ġmov e
200 3
k ins
Ġex hib
Ġear lier
Ġr ate
Ġ196 7
at form
Ġgeneral ly
Ġsc reen
Ġph il
Ġth us
ĠGeorg ia
ib ility
Ġdis p
Ġoper ated
al le
Ġstand ard
Ġw oman
ir m
Ġmon ey
F C
Ġl ived
g ar
Å ¡
Ġapprox imately
Ġass ociation
ĠJew ish
Ġso ft
b on
Ġdet erm
Ġc ertain
Ġfore st
Ġar ran
Ġtra in
200 2
d own
Ġconc ern
ra v
Ġrel ated
Ġar my
b b
ir it
Ġs usp
Ġ196 4
Ġact ors
Ġtourn ament
ĠCon n
ĠM ain
or al
y an
ĠB ow
3 3
N E
Ġc andid
u an
act ion
Ġtr acks
ĠMich igan
Ġe lev
Ġappear ances
et ic
ect ions
ĠC ivil
ĠS un
ug g
ĠJ ones
k ing
ĠSt e
Ġfam ous
op er
Ġequ ip
Ġ196 6
arri age
ĠSt ep
ĠEng ine
ry ing
Ġl ove
Ġpri or
Ġatt ract
Ġb ig
Ġnum erous
Ġs uffer
ĠM iddle
ac her
ĠL ee
Ġind ic
Ġad op
uc le
ĠT ri
h ouse
Ġ194 5
ĠTh at
4 5
Ġret ired
ach us
Ġiss ues
ĠY oung
or g
ĠS o
9 0
at ers
Ġg e
ĠO ver
att al
ul f
st anding
k en
em porary
il ed
Ġmur der
Ġappear s
if orm
ĠW eb
Ġprom ot
A S
Ġv en
Ġr ad
Ġfootball er
ĠB ank
Ġwest ern
Ġch ief
ab b
Ġcomm ission
ĠPro fess
ear s
ĠB re
ĠBl ue
Ġp en
ĠS ol
ĠP rem
S e
Ġdif fic
if y
Ġinter view
3 7
ĠP ak
Ġmat ches
Ġactiv ities
Ġ194 0
ĠD utch
Ġnot ed
Ġrem ains
Ġmon th
Ġassoci ated
ĠM ah
emor ial
o e
Ġrelig ious
p ing
Ġs at
Ġmost ly
ĠA venue
200 1
Ġd ate
Ġj ob
ĠIn t
i h
Ġin str
Ġab s
velop ment
Ġpro f
A ust
Ġcomple te
Ġ Ð
Ġbecom ing
Ġs af
Ġ196 5
ig a
he t
Ġed itor
Ġ193 0
Ġrecord ing
Ġstud ies
im a
ak a
Ġp i
Ġbase ball
ee ks
Ġfeat ure
ĠC am
Ġd on
Ġen vironment
Ġtr ade
ĠScott ish
um ber
200 8
Ġpur p
Ġstat us
18 8
3 8
Ġt rib
Ġcour se
is her
ir t
ĠCh ief
i as
ĠEd ward
achus etts
ĠSy stem
Ġchang es
ĠC le
ig er
k o
ian t
M ed
3 6
Ġocc as
Ġe mer
Ġ ens
it ation
Ġal ready
ĠMc C
Ġsqu ad
Ġlim ited
ĠM ot
Ġsub ject
Ġte xt
Ġl ength
ol s
ĠM att
air man
Ġt akes
ĠQue en
Ġc ust
Ġproper ty
ip l
Ġtown s
ir a
a res
vent ion
Ġcaus ed
l anguage
ĠM inn
ĠN ot
Ġoffic er
3 4
ĠTe am
ĠJ ul
Ġs ister
ĠB as
ĠG irl
Ġrecord s
ĠG ood
Ġh ot
ĠC amb
Ġar m
ĠColumb ia
Ġpro b
Ġincre ased
urb an
ad ing
w ar
Ġsen ior
ĠT im
Ġthough t
Ã §
ĠW ild
ĠFranc isco
r u
ĠL ittle
Ġal tern
Ġin stitut
Ġrepresent ed
Ġ6 0
ĠT ime
ail s
Ġ er
ect ive
ag n
Ġor d
Ġim medi
Ġapp lic
Ġdis e
Ġmanag ement
Ġiss ue
ph y
ĠM at
R A
Ġbet ter
Ġann ual
Ġfoc us
Ġlin es
Ġlaun ched
Ġle aving
Ġs om
Ġs ize
Ġmajor ity
ay a
ĠM id
ĠS at
201 0
ĠRep resent
Ġk m
" |
Ġh um
ĠPr ince
Ġcount y
I S
Ġex c
enn is
ĠCo ast
ĠIn f
Ġd ed
B rit
Ġcomm and
ĠPort ug
ĠM P
199 0
art ers
el a
oc cer
Ġfor ced
ant ry
Ġd om
3 9
ĠC reek
Ġqu arter
Ġinit ially
Ġterm s
ĠB et
il ly
ĠW omen
ĠAd m
ĠEast ern
Ġleg al
Ġw ord
Ġserv ing
t ained
Ġt ar
ug e
ad ed
ĠL iber
ĠT em
ĠO k
Ġg ive
Ġse qu
M en
Ġhistor ical
Ġse lected
is ation
ĠB oston
ĠS ince
esp ite
Ġs u
erv ation
ĠD ar
ĠM en
ĠG al
Ġ20 23
Ġsh own
C omp
ĠWilliam s
Ġc ases
ĠMass achusetts
Ġ ice
Ġplay s
Ġn ine
Ġstruct ures
i y
Ġent ered
Ġb ridge
ic ation
Ġdec ision
Ġun iversity
ail y
Ġlong er
e en
Ġw ide
ĠW ind
j a
S ports
Ġf ederal
Un ited
on se
Ġperson al
Ġbel ow
er em
ĠC ard
adel ph
Ġl ic
Ġrem ain
n es
Ġl ack
ra f
w a
is k
B S
Ġp il
ĠIs lam
ĠSt ation
ĠRes earch
v a
ort un
M usic
ran ts
Ġmultip le
Ġcol on
Ġrefer red
Ġgo ing
ian ce
p ress
Ġ19 20
ys is
ĠL ab
ĠH ung
ĠL uc
Ch ar
ĠAs ia
Ġpass ed
ĠCon ference
Ġto day
T rans
in em
Ġdes p
r ich
199 9
ess ion
i i
adelph ia
ir ing
r ac
ĠE ll
Ġro om
7 5
ĠW ay
Ġsubsequ ently
200 9
ed d
ĠCent re
ĠB ern
ple ment
A A
ĠN ight
ĠU nder
Ġc ell
m m
ĠJ r
ĠW al
Ġ196 3
ĠD ie
r im
t own
Ġqu ick
ĠThe ir
Ġun ion
ĠL ibrary
d is
ĠOx ford
ĠD et
un c
Ġev idence
ĠPac ific
ut s
ĠE lect
por ation
ap ers
Ġsepar ate
ĠT w
ĠO fficial
Ġw eeks
Ġth reat
ur ies
ob al
ĠB C
Ġlar ger
ill ed
tar io
Ġf le
b ers
Ġeast ern
ĠS ocial
ĠSh ow
uck y
ĠT re
Ġb rief
Ġfore ign
N ot
ay er
Ġch art
Ġacqu ired
struct ion
Ġoffer ed
Ġm iddle
u is
Ġn orm
ag er
ri z
Ġform at
ĠAl bert
ic ations
Ġpl atform
ĠB BC
ont o
Ġoffic ers
Ġacc ount
enc ies
f ect
Ġmov ie
ĠM ore
che stra
ĠSt an
ĠHigh way
Ġb ound
u ated
ĠM ajor
Ġship s
ut en
ĠAss embly
av en
ip s
ĠAr gent
ĠD is
g ing
ĠT op
os oph
S he
Brit ish
ĠSy d
ĠOlymp ic
Ġperson nel
in et
Ġ196 2
n am
ĠB oy
ric ts
ĠDirect or
Ġepis odes
angu ages
Ġeconom ic
re ct
Ġcre ate
ĠB and
ĠF ar
Ġcom edy
W ith
ĠB or
per or
Ġ3 5
Ġdram a
ĠN Y
ĠHe alth
ĠB h
ab eth
ĠPhil ipp
/ /
ĠSp orts
Ġhel ped
Ġlab el
em et
out heast
ĠU r
ĠI ran
ĠUS A
d uce
3 1
ĠH ome
Ġmain ly
Ġst ep
sel ves
N ational
he ster
Ġm ach
Ġthem selves
ent y
Ġdisc uss
ste in
h ol
Ġ194 4
acks on
ic ks
oc al
gy pt
Ġb omb
Ġh ours
ĠR am
ĠW ater
on ic
il a
Ġbelie ved
ran ce
Ġclaim ed
ing er
il ies
a ult
Ġm useum
Ġhe re
Ġc itiz
Ġpresent ed
Ġmed ical
Ġo p
c el
Ġparticular ly
H L
Ġo pt
ĠL atin
Ġ )
3 2
ĠF ield
I s
iz ing
Ġg ot
ĠE nd
ĠV er
F rom
che n
Ġhous es
Ġf oot
Ġar rest
itz er
ĠJohn son
Ġdes cent
ĠT am
Ġmin utes
ĠS und
Ã ±
ĠS and
ĠJ ournal
av a
itt ing
Ġse at
Ġrem aining
ĠV en
Ġvar iety
res p
Ġper cent
Ġtro ops
ĠL i
ĠCh ild
o z
C omm
ĠE arth
r as
Ġparen ts
os es
ad ian
Ġfor t
ĠJ ac
Ġmean ing
Ġform s
ĠV an
Ġal ways
Ġsp l
ur rent
te en
ĠL ater
ĠO pen
ĠK ar
ĠK ong
Ġstart ing
Ġen ergy
Ġassist ant
ĠSe a
ĠOn tario
Ġc ouncil
ĠP eople
ric e
Ġcre w
ak ers
A T
ĠCor ps
os a
Ġmiss ing
ad or
im um
ent al
ĠSyd ney
Ġstud ied
Ġf ailed
he w
Ġl atter
ort heast
Ġturn ed
v ement
am m
ĠSp ecial
Ġthe ory
led ge
Ġhe avy
T rack
og rap
ĠC at
Ġtechn ology
Ġh ospital
Ġmeet ing
Ġm akes
Ġl og
m ore
Ġspec ific
Ġp it
ĠO b
Ġorganiz ations
attal ion
W hen
U S
st one
th ur
Ġover all
Ġy oun
Ġprov ides
Ġcommun ities
Ġc ities
Ġd ro
Ġad j
Ġp ath
Ġ ver
ĠC orn
Ð °
= #
Ġfinal ly
: //
Ġc ann
Ġcom ment
Ġnear by
Ġear ned
Ġse a
at ively
201 1
n o
ĠG ame
ĠM u
ĠFound ation
ran ge
ĠK enn
Ġp aint
ĠEn ter
Ġsur face
ĠM any
ĠW all
W est
Ġc arried
% )
ĠF our
ĠO s
199 8
ĠPol ish
on ia
Ġ ess
y ric
Ġdist inct
g u
Ġcoll abor
ol is
ĠP ost
Ġpr in
b re
y t
stit u
Ġbl ock
est ab
it age
Ġg overn
Ġsupport ed
ĠI f
Ġf unction
Ġneigh bor
Ġra ised
al m
ĠRep ublican
el d
Ġexp atriate
Ġcover ed
Ġ196 1
ĠF C
ĠR ay
Ġprov ince
Ġint ers
ed er
Ġm em
Ġart icle
ĠJo e
Ġrequ ire
Ġfin ancial
Ġren amed
ĠHistor ic
Ġint eg
ag ing
b ec
ron ic
ĠMus lim
Ġext ended
Ġleg isl
ĠK e
ro vers
ag ement
in us
ĠAnd rew
Ġcomp osed
Ġmusic ians
Ġincre ase
Ġp age
og ue
4 8
Ġs ource
4 7
Ġpe ak
Ġm arriage
Ġst ories
bour ne
t ies
F urther
Ġin n
o h
Ġsh oot
us band
Ġc at
m as
Ġ i
ĠU l
M embers
ab les
Ġdep art
Ġlist ing
Ġoper ation
ĠÂ £
ĠVictor ia
ĠP op
S w
Ġan cient
Ġp sych
Ġ194 8
ous ly
ri ed
es ota
5 5
Ġ195 9
Ġres idents
ĠA z
ĠG ra
and on
ad s
oc ks
Ġcele br
Ġn ative
Ġrec ent
O lymp
orn ing
ĠB ab
ĠB ir
A C
Ġd one
Ġob ject
199 7
im ated
0 7
z ech
Ġcons ists
ed eration
Ġdou ble
Ġfeat uring
Ġ Å
ĠM ax
ul ly
ĠG overnor
ib li
Ġcap ac
ĠPro t
um ed
ĠU k
Ġnear ly
Ġresp onse
Ġpre vent
Ġsecond ary
is hes
ie uten
Ġprop osed
Ġ195 6
Ġsuc ceed
y th
Ġpol icy
Ġem b
Ġp ick
Ġch all
Ġpl ans
ĠO tt
Ġproble ms
0 6
Ġdiffic ult
ĠBr ig
Ġorig in
cl ass
Ġpo or
Ġdesp ite
Ġhigh way
Ġnewsp aper
ĠJ eff
man n
ĠAlex ander
Ġf ail
ĠReg iment
Ġb ring
Ġle ave
Ġd iss
ĠPhil adelphia
u ing
ĠBel g
ĠAr m
ĠG h
ĠB a
s en
Ġ ĠĊ
F amily
oun ts
Ġst ay
Ġw ords
Ġ195 8
inist ry
M an
it ude
ion e
v is
at us
y er
ĠOff ice
ĠUn ivers
im s
ĠM ike
ell ig
un a
Ġm ight
Ġcond itions
Ġtem per
ĠBr idge
4 9
D on
us c
en ger
ĠAir port
Ġsil ver
ĠS ong
Ġo il
l av
w ide
ĠL ight
anc y
ri f
Ġv oice
ĠB ell
ĠF inal
ĠR el
ĠC ub
emet ery
ic ted
Ġmanag ed
ĠD own
ĠWin ter
Aust ral
Ġa wards
ĠMed al
olog ist
Ġbecom es
Ã¡ n
ul pt
Ġde ad
Ġspe ed
l ight
Ġnov els
ĠJ ackson
Ġ194 2
igh ter
I D
Ġb order
0 8
ĠH ind
ĠAn ton
Ġm echan
Ġprim arily
18 6
D em
rup t
Ġmention ed
Ġa thlet
ĠBar on
ak h
198 0
Ġ195 7
Ġc hem
ĠC oll
Ġto ld
Ġindividual s
Ġserv e
ĠR aj
Ġrespons ible
Ġun ivers
Ġpar ish
ĠM ov
iz abeth
ĠBer lin
Ġin hab
ou ri
199 6
Ġd yn
ĠE gypt
ob ile
Ġtransfer red
Ġelect ric
hen s
ĠR od
ĠAs h
Ġde ep
Ġsold iers
k er
ris on
ĠT od
ĠL ew
orpor ated
Ġcomp uter
ĠR og
em an
Ġdirect ly
Ġ194 6
a is
Ġexper ience
Ġen ough
est ed
il ton
Ġg un
w orth
g ers
ĠS erb
ĠSqu ad
uild ing
te xt
Ġ195 5
Ġinflu ence
Ġs ociety
Ġsc hed
ound s
Ġconstruct ed
9 9
ĠP ubl
ĠPri ze
e z
ĠTh ree
Ġreg ional
b a
os h
0 5
Ð ¾
ĠP ass
Ġch annel
enn ess
ĠS ant
4 6
Ġfac ilities
Ġnum bers
Ġaff ili
amb ig
Ġc ensus
form ed
ieuten ant
Ġcamp us
j i
ĠA thlet
m ission
Ġn ature
Ġup per
Ġprofess or
ĠWil son
Ġdel iver
ĠDemocr atic
Ġmot or
ĠB udd
ĠA k
Ġag ric
H is
Ġcon ver
Ġy outh
Ġ194 7
writ er
ĠCor poration
ĠV ill
ĠAn t
ĠB al
Ġas ked
ĠS om
ĠGu ard
Ġc ause
Ġr ugby
Ġsol o
201 2
Ġcon cept
Ġc orn
il ation
Ġl anguages
Ġ194 3
ĠPro gram
Ġhon or
ĠFore st
Ġiss ued
or ado
ay lor
Ġc ard
Ġdr ug
Ġdiscover ed
olit an
P olit
V D
ĠJ ean
ĠChar l
und red
ĠF I
ĠTor onto
r in
Ġd omin
ĠE p
ĠB ra
Ġconsid er
Ġe lements
ict ional
Ġcon fl
Ġh usband
Ġproduct s
ether lands
ĠP en
er c
Ġk ind
ic ed
Ġ194 1
Ġun c
ĠK en
Ġtit les
ĠQue ens
Ġwe ap
Ġc ateg
Ġmount ain
ĠC y
Ġl ives
Ġmedal ists
w ick
Ġbel ong
ĠKore a
ĠStev e
Ġ195 2
ĠCast le
Ġsc ene
ĠS anta
ambig uation
ĠSt adium
onom y
he im
ĠBe ach
ĠL im
ĠV iet
Ġbir ds
Ġwho le
ce an
Olymp ic
Ġback ground
ĠCh ap
ĠIs lands
Ġn ecess
ĠHe ad
4 4
Ġben ef
Ġf ace
ĠJust ice
Ġwork ers
qu arters
Ġnot able
Ġlevel s
Ġam b
Ġprogram ming
18 7
Ġ193 9
ri e
ors hip
a ith
Ġfriend s
Ġlik ely
Ġdiv ided
Ġth r
ren g
ĠR ome
A c
Ġon line
ĠS ev
Ġarr ived
Ġfam ilies
Ġ ult
G erman
ist ance
199 5
Ġan g
Ġex ecutive
ar ry
am in
ub e
E d
Ġ era
Ġcom es
Ġcult ural
ĠMount ain
Ġco aches
ĠB ishop
ast ic
ins on
0 9
ĠBase ball
Ġc ars
ĠF air
re c
ĠH ospital
roll ed
yd ro
an th
oc ated
Ġn ucle
ĠMinn esota
Ġdep artment
Ġincre asing
Ġr ule
ĠAn th
ĠC op
Ġg reen
Ġhe art
Person al
B e
Ġapp l
Ġmanag ers
Ġw anted
ĠM ir
Ġinit ial
Ġpro gress
Can adian
Ġcontin ues
W orld
ĠH ong
Ġch ap
Ġpolitic ians
ĠComm on
m ad
Ġdem on
dis ambiguation
ul es
N ov
ĠPol and
Ġalong side
Ġ â
ra q
cl es
Ġaut om
Ġwinn er
G r
ĠC as
Ġremov ed
ĠSup reme
ĠPak istan
ĠPrem ier
or ation
Ġcontin ue
Ġp p
Ġre ason
Ġs n
Ġs ources
S P
N e
Ġfif th
Ġ5 00
Ġcapac ity
ĠL ady
Ġf ell
ĠAs ian
ak s
ĠC a
ĠS pe
Ġ195 4
Ġst adium
Ġpart n
Ġf unct
ĠHar v
Ġn ation
Ġv on
ĠDan iel
Ġwinn ers
% .
ĠB oth
it led
ĠF ire
ly n
Ġdr ums
oc ese
u v
ĠB ang
Ġwhe ther
y o
Ġadminist ration
9 5
Ġs ector
ĠP ower
Ġdis play
Ġmet al
ĠDe velopment
Ġl if
ap ed
P op
ĠD uke
O ne
re al
w ing
am ber
Ġprom oted
Ġval ue
Ġoffic ially
Ġded icated
Ġ195 3
Ġlet ter
ĠCh ris
Ġequip ment
Ġhigh ly
th ing
ut t
resp ond
lement ary
ang a
ore n
Ġ8 0
per ial
Ġpurch ased
ot o
Ġb ranch
Ġdestroy ed
Ġs al
ĠInd epend
Ġrul es
Ġst ore
Ġgradu ated
ĠIndian a
ath an
ĠD er
S C
ĠEl izabeth
om er
Ġacadem ic
201 3
ic ine
ed om
Ġr at
Ġquick ly
ĠJ es
199 4
r ig
Ġin side
Un iversity
Ġeff ects
ĠAd d
Ġ195 1
ĠReg ion
Ġo ur
Ġun s
ĠW ork
Ġconduct ed
it ter
Ġliter ature
ar p
W ill
ĠA ut
a ud
Ġatt end
ect ing
ĠL o
Ġbeg ins
ask a
Ġsmall er
ĠSec retary
Ġg re
ĠN etherlands
ress ed
Ġsh are
Ġdirect ion
ĠS her
v in
Ġ ut
al o
Ġ194 9
Ġreve aled
201 4
ĠPol ice
5 00
iz es
ĠB ad
Ġsp ort
Ġsem i
Ġbas is
Ġ +
enness ee
ĠBro ther
B y
ĠRev olution
Ġimmedi ately
Ġf iction
Ġab ility
en ge
if ying
Ġen em
Y ear
ag a
Ġfollow s
d a
ov ak
Ġper man
Ã ¸
Ġhost ed
E C
in ity
ro g
Ġcont rovers
Ġold er
Ġlaw s
reg on
B iography
Ġc ricket
Ä ±
Ġbe at
ribut ed
Ġpro duce
ĠH ay
Ġinstitut ions
rop olitan
A ccording
ĠN etwork
ĠB u
w ater
igh th
Ġtyp es
5 8
Ġst reet
Ġplann ed
ĠR et
In ternational
ĠCamb ridge
Ġl yric
ound ed
ĠL es
Ġquest ion
en es
Ġvers ions
Ġw alk
Ġint ended
and y
Ġill ust
0 1
ĠF ederal
Ġass igned
ĠSen ate
Ġsy mb
ĠF ame
Ã £
Ġo vers
ĠAt t
Ġbl ood
p art
Ġengine er
ĠCl ark
ag h
Ġide a
Ġoper ating
ow a
ĠF ox
Ġp an
Ġpro jects
hem at
Ġpart ies
Ġcitiz ens
im al
Ġserv es
ibli ography
ĠN ations
Ġ3 6
tern et
Ġsett lement
ĠCommun ity
5 6
n s
ograph ic
Ġres ident
Ġlead ers
ĠH uman
ĠMed ia
bo ok
Ġsc oring
Ġam ount
Ġd ance
Ġcommon ly
Ġdist ricts
ĠL ive
ĠBo oks
Ġra p
Ġs aying
we ight
ĠF e
Ġg as
Ġy et
A nd
Ġp ra
M S
Ġterrit ory
ĠR em
Ġv an
ĠC irc
ĠGold en
Ġsit es
g ely
ons in
i ary
b s
Ð ¸
' ,
ĠCon f
Ġgrow th
Ġt able
Ġfl ight
ĠK ir
od ies
Ġto uch
isc onsin
Ġprom inent
Ġle aves
ĠBar b
Ġtyp ically
Ġtreat ment
ig en
Ġoff ers
ress ion
Ġg rew
for mer
ans ion
199 2
ĠB all
ĊĊ Ġ
Ġt al
r ical
Ġcle ar
Ġd ark
i ated
op her
Ġopp ortun
P r
ist ed
Ġv ote
ĠT ok
g reg
Ġbl ue
Ġre pe
Ġsec urity
ĠL t
Ġcomb ined
Ġrec over
Ġre ach
ĠT ony
p ut
es h
ĠH ockey
ition al
ĠJew s
Ġelect ions
Not able
ĠN FL
197 0
Ġp iano
Ġpro te
Ġp urs
Ġl ay
ĠJ unior
ĠF ollowing
O S
ĠR om
Ġst ra
Ġh ab
itzer land
ĠF le
ov a
Ġown er
ĠP ers
ad er
Ġsoft ware
ĠH un
M A
Ġch ampion
ĠD espite
ĠC E
ĠTechn ology
Ġun known
ell o
ĠH al
Ċ ĠĊĠĊ
ou d
Ġmov ing
Ġmod els
w eg
port ation
aren t
l ers
ce st
ĠSwed ish
Ġschol ars
ĠJ on
Ġchar ge
Ġcompet ed
Ġb oy
ren ce
Ġsc ulpt
201 5
ol n
Ġcol or
ĠH y
ĠA ff
ĠRepresent atives
res h
y ard
ĠK el
Ġ urban
Ġp aper
Ġorder ed
or i
ens is
199 3
ron ze
ol es
ĠE arl
Ġw a
Ġret ire
Ġfe el
it ness
ĠB at
u i
ĠKent ucky
ĠSwed en
Ġ4 5
Ġtra ffic
Ġtra ins
Ġactiv ity
Ġrec ently
Ġm erg
0 4
ĠAb b
ol i
b ro
Ġest ate
ĠBro ok
Ġp et
ĠSim on
ĠMar c
Ġpl ants
ast y
ĠT aylor
v est
Ġphys ical
wh ich
Ġst reng
g n
Ġsuffer ed
og s
ĠL y
ĠM emorial
ĠP it
E l
L A
ac hel
Ġc ounter
Ġbeh av
p resent
N o
ĠM un
ĠSp ring
9 8
ĠE st
Ġcon stitu
Ġim plement
y al
ĠMar ine
ĠE s
Ġt ells
ĠAr thur
Ġdise ase
m et
Ġf irm
Ġh op
ĠCount ry
b it
am i
b ed
ĠI raq
Ġmix ed
Ġwith d
ĠPr im
Ġb ad
ĠG reg
Ġneed ed
Ġm ax
ĠT ennessee
ix ed
ĠStud ies
ĠS us
Ã º
or ph
t ra
riz ona
Ġagre ed
Ġ3 2
W e
ĠC zech
Ġg iving
Ġinter p
S R
pp er
0 3
ĠM aster
Ġproble m
ĠAl so
Ġeff orts
ĠKore an
ĠAr men
l ah
F ootball
ĠF orm
enn a
Ġconc ert
ak i
Ġfig ure
ĠOr gan
Ġd igital
iv ity
Ġtar get
ĠStep hen
Ġdist ribution
ĠSquad ron
Ġt ree
ol id
Ġthe atre
4 1
Ġfav or
ann a
ĠRev iew
Ġinstr ument
Ġdemon str
eth ing
ĠCol orado
Ġadop ted
ain ts
S outh
Ġl ies
Ġdis estab
5 7
Ġcompos er
Ġet hn
Ġpot ential
are t
Ġas p
4 2
Ġpres ence
en ing
ĠA h
Ġfor ward
Ġsit uated
Ġindust rial
Ġdist ance
Ġ193 6
Ġth ink
st ic
S ources
Ġra re
ĠO regon
Ġf ish
ig rants
ĠW isconsin
eat her
Ġcom ing
De ath
ĠMar sh
199 1
k in
ro om
ĠSw iss
9 6
Ġent er
Ġh or
Ġlar gely
Ġpre c
ĠInd ust
z o
ĠS ab
Ġcont emporary
C o
ony m
Ġexp anded
Ġprob ably
ul s
ĠPro ject
Ġrespect ively
Ġrec on
ain e
Ġcapt ured
Ġact ually
ĠMel bourne
ĠLew is
Ġw ins
Ġcor respond
ĠPr ime
Ä į
ĠK ansas
Te levision
Ġwid ely
Ġformer ly
inn er
ĠW alk
Ġro les
ĠCap tain
se x
ell er
hed ral
ĠD am
Ġ7 0
Ġc ode
ac ement
ĠI v
g a
erv ative
C D
ĠAl f
Ġ193 8
Ġs ens
Ġqu ality
ib ly
uct ion
on ents
inc ial
ac c
B ack
l aw
Ġar ts
Ġinj ury
ĠSw itzerland
Ġport ion
Ġcol le
Ġcr ime
Ġc erem
Ġpe ace
Ġgen us
Ð µ
Ġtri al
Ġn ortheast
Ġab andon
ar o
Ġsp irit
clud ing
Å Ĥ
ed ia
Ġex ecut
ĠProfess or
Ġtw ice
bum s
Ar t
Ġcon cent
Ġpre p
ĠDav is
Ġcandid ate
k es
ĠR ang
orn ey
Ġt aught
l ar
ĠR oss
Ġfound er
ĠN az
Ġsh op
c hers
us ion
ĠU t
or ge
8 8
Ġvoc al
al so
ĠF amily
ol ved
Ġf ellow
ĠW ars
ĠB ol
ĠBus iness
Ġsec ret
Ġh undred
ĠReg ister
id ers
Ġclass es
1 00
201 6
Ġthere fore
i ate
Ge ography
ĠT a
ĠE P
Ġfac ulty
ĠCol on
Ġs ales
Ġnew ly
Ġengine ering
ĠI d
Ġd ra
ant e
Ġagre ement
Ġp ict
Ġg ives
Ġfl oor
Ġar ms
Ġsurround ing
Ġm iles
Ġclass ical
Ġtem ple
D isc
Ġsp ons
un te
ro it
T A
Ġperforman ces
Ġaccept ed
ant on
Ġresult ed
ap ore
ĠS av
Ġgo es
Ġj oint
ĠMary land
it o
ur d
ĠMar ia
ional ly
Ġspl it
ĠChrist mas
4 3
a ug
os is
Ġsp ring
Ġemploy ed
Ġreg ist
se y
os en
Ġ9 0
ĠSc iences
Ġg ained
9 7
Ġappro ach
Ġvill ages
Ġb ronze
ir al
Ġgr anted
ing ham
ĠMiss ouri
anc ing
Ġdecl ared
ik a
ĠH ou
Ġs earch
Ġr acing
Ġtit led
osoph y
rest ling
ĠAre a
ĠL ind
ellig ence
est er
Ġy ards
Ġc oin
iv als
Ġanal ysis
Ġest imated
Ã£ o
est ic
o is
Ġte acher
ĠB alt
Ġf ast
ut her
Ġhouse hold
Ġm aster
om ot
ĠBr ad
ĠEm peror
ĠB i
Ġsub s
Ġfac ility
Ġw ild
Ġst one
ĠNor way
Ġg raph
G u
Ġs ays
ĠD iv
Ġcomp ared
anc hester
ĠH art
Ġc ells
w orks
ur ches
Ġatt ention
F rench
Ġparticip ated
Ġdesign ated
ĠM unicip
ĠAn other
Austral ian
sk y
ĠH amp
ord ers
re ll
b ell
Ġtr ue
ĠAtl antic
Ġarchitect ure
ed ing
6 6
Ġrecogn ized
em ic
Ġt alk
m es
ĠTown ship
Ġw ing
ĠT al
il ing
tain ment
0 2
ĠHol y
m itted
Ġsex ual
Ġp al
lah oma
Ġre duced
Ã ¢
Ġpress ure
p ool
Ġresult ing
ĠAdm inist
g s
E n
Ġcol umn
Ġconn ected
ĠGre ece
Ġsp read
Ġet c
Ġrest aur
m ph
Ġveh icles
Ġcap tain
ĠC ur
ĠD un
d ied
ost er
198 9
er ick
ĠĠ Ġ
Ġacc omp
inc oln
à ¤
ur er
ĠH o
Ġro ll
ĠW at
Ġk ept
Ã© e
ou ts
Ġsw im
ĠTurk ey
ĠB attalion
Ġst ars
A F
ĠS R
Ġair port
m outh
ĠMar g
J apan
l an
Ġ Î
ues e
Ġcann ot
D ef
R es
Ġn et
Ġp ack
ect ic
oot h
Ġ193 7
Ã¼ r
Ġoccur red
5 2
Ġpat tern
) "
S ongs
Ġpos itive
ades h
ĠM ilitary
Gen eral
ol ished
y es
al ing
ĠY our
Ġl osing
H on
ert o
Ġc arri
E R
um es
L a
ĠH an
Ġb ott
Ġm ess
Ġd ial
ĠCon c
A wards
ate ur
c ow
Ġch airman
ĠSt ock
Ġcont ent
Ġpos itions
Ġh ar
Ġchar ts
Ġdocument ary
ĠPr in
el le
el ine
M ay
Ġact ing
z y
Ġs uit
und er
ar ia
Ġfl ag
ĠFranc is
7 6
on ent
ec ause
Ġb att
Ġpass es
5 9
Ġl abor
Ġc am
Ġorgan ized
Ġm inister
Ġ19 18
weg ian
S S
U K
Ġacc ident
I A
ĠLe on
Ġcast le
Ġeduc ated
Ġneighbor hood
F ran
Ġdam age
Ġr ural
ĠLe v
im inal
Ġad apt
ir med
Ġsup pl
l ife
Ġw all
Ġhe av
Ġprov iding
8 6
ian ts
Ġofficial s
Ġyoun ger
p ur
t r
198 8
Ġrec omm
Ġl ake
ord in
uild ings
ĠC O
C om
Ġenc our
Ġstr ugg
P ar
ĠB rian
Ġb urn
Ġknow ledge
Ġr ac
Ġser ious
ill er
u ous
Ġthem e
ĠW rit
Ġs umm
Ġcou ple
Ġident ified
201 7
Ġclaim s
Ġmunicip alities
ĠG il
ĠS em
I C
ĠE th
ĠCh ampions
Ġfe et
Ġall ows
Ġback ing
Ġhand s
ĠTr ust
ĠEngine ering
ĠM inistry
ĠTem ple
Ġatt acks
Ġl ibrary
ĠCh annel
ĠA rizona
Ġse vent
ĠR ad
iqu es
Ġjournal ist
Ġgre ater
ĠU s
Ġh all
ash ion
B ibliography
ĠD VD
Ġcre ation
ĠPhil ip
Ġhistor ic
ĠComm and
Ġcont est
Ġf air
els h
Ġel im
ag an
ĠW eek
ĠT ar
Ġrank ed
ec es
ĠM ic
198 7
Ġth ous
ill ery
ĠBill board
ĠR oy
cl aim
5 1
Ġ rom
Ġg overnor
Ġnorth west
' .
c an
Ġ x
Ġh ap
ord on
eral d
m un
ĠK im
c on
ĠMal ays
hip s
k h
Ġf ully
ke ep
ĠB urn
Ġnot es
Ġoper a
5 4
Ġreg ions
Ġadminist rative
ubl in
ann ing
ĠHar ry
Ġs amp
ific ations
Ġmark ed
Ġsl ight
Ġ193 5
Ġ ir
Ġold est
enn y
Ġsl ow
ĠQue bec
Ġcomplet ely
Ġwe ight
ic ian
k ey
ĠH or
ast ers
ĠAust ria
p et
5 3
w ich
ĠP u
ĠS ix
se e
as ion
Ġlyric s
ar on
R ail
in ch
ĠG i
7 7
ĠC emetery
Ġv ess
ig ration
ĠP ier
Ġbur ied
ĠH u
Ġf estival
Ġs outheast
ym n
i at
ĠH ur
ĠT urn
198 6
ectic ut
ap h
an es
Ġte le
Ġrefer ence
Ġconfl ict
ĠF ederation
Ġlead ership
Ġst re
198 4
Ġlo an
Ġhous ing
Ġcanc er
Ġimp act
ĠR en
Ġ3 8
ĠV i
ib b
Ġdou b
Ġcond ition
Ġ. ..
ĠB os
ĠH ard
ĠS ound
Ġv s
ĠJ er
Ġgirl s
Ġm ut
Ġsim ply
Ġcont act
Ġf ans
Ġg ra
ĠPol it
Ġprincip al
Ġf elt
ã ĥ
Ġauthor ities
ĠInf antry
Ġport ray
Ġp aid
rop ical
a ver
ĠN ic
Ġsaf ety
ly wood
Ġre ports
Ġpurp ose
ĠMill er
Ġd raft
Ġth ings
Ġplay off
Ġto wer
Ġinhab it
ĠF M
Ġj ourn
ra ine
ac ts
Ġe as
r ator
Ġc e
Ġtri ed
ĠK al
ĠT en
Ġmain tain
m iss
ĠPhilipp ines
Ġcomb at
F M
ĠT est
Ġform ation
Ġh y
Ġexp ected
Ġrece ive
Ġgrow ing
ĠEnter tainment
Ġveh icle
D av
in y
we alth
Ġsett led
Ġcrit ical
ĠB ack
Ġend s
E uro
Ġh orse
Ġallow ing
ec ond
Ġsucceed ed
ĠHe art
Ġbrother s
Ġtw enty
198 3
Ġ3 3
Ġfin ish
Ġre form
Ġexper iment
ĠK han
Ġen j
ĠMed ical
I tal
ĠM anchester
Ġc overs
Ġun ique
A ct
20 18
Ġb ow
Ġsp ot
d ale
r ate
Ġfight ing
un ch
ĠSh ort
red ited
P S
ev in
Ġf olk
tt ers
Ġc art
ĠF ree
Ġpolit ics
Ġanim als
Ġb ought
ĠAnd erson
Ġ192 8
in th
Ġp oll
7 8
ĠN ap
od ox
ĠViet nam
Ġsuggest ed
ĠSt ory
r um
ab ama
Ġeff ort
le ased
f rom
Ex p
ro up
ĠHam ilton
b ra
ĠDie go
ĠPl aces
u j
ĠF ord
Ġexist ing
" ),
ap olis
Ġcy cl
Ġm ap
Will iam
Bl ack
ĠHon or
o en
198 5
Ġvol ume
ĠB on
ul ed
ast e
b an
ĠTe levision
Ġ19 19
Ġhead quarters
Ġim age
Ġrec ip
ul ate
Ġtre es
Ġp air
Ġsup ply
clud ed
ÃŃ a
ot ic
or gan
ĠA cc
ĠI r
i Ã³n
Ġmusic ian
le ep
ou red
Ġa ired
ĠMex ican
ĠL I
all ery
Ġ192 9
ĠEc onom
Ġon to
Ġag ent
Ä ĥ
Ġexp ansion
qu es
ĠSing apore
Ġreview s
ĠBow l
Ġte aching
Ġ193 3
ĠR on
ĠOr chestra
erv ed
ĠMos cow
Ġw ear
Ġart icles
iam i
C ast
Ġreturn ing
Ġvis it
Ġt im
or f
ial s
Ġshow ed
ac hers
Ð ½
Ġhe ro
ĠS oc
ĠOk lahoma
Å «
Ġm ill
Ġpromot ion
ĠF er
Ġsing ers
G B
Ġattem pts
ĠConn ecticut
D ec
B o
ov en
tt p
ĠSund ay
iv a
ww w
ĠL incoln
Ġ19 14
197 9
ĠSp ace
ĠSt and
196 0
Ġcon ference
Ġadd ress
Ġauthor ity
ipl om
Ch rist
Ġm om
ra st
Ġs ons
Ġex change
ĠB oys
ĠDes ign
ag u
Ġfig ures
sk i
20 19
ĠD ream
ĠI V
ever al
Ġval ley
ĠA M
uc cess
ĠInd ones
u h
ir ty
Ġ19 12
Ġs ides
ĠO d
Ġro b
Â °
o es
Ġro yal
ĠP oint
Ġsports people
Ġst ream
ĠN ev
ĠE ric
ik h
Ġgu est
ĠI owa
Ġ193 4
el ve
Ġhab it
c ont
198 2
Ġme ant
Ġfrequ ently
ĠHow ard
S ince
Ġg od
ĠD isc
Ġ3 7
ĠO t
Ġm orning
ind er
us es
Ġc ab
Ġretire ment
ĠA ud
I T
ĠT s
Ġl ot
Ġc ert
Ġs urn
C ont
ts burgh
ĠZ h
ĠMod ern
Ġ193 2
ĠN ick
A M
Ġse em
Ġr aces
Ġcomp ilation
n et
Ġad vert
Ġoccup ied
end ment
Ġst ock
ird s
Ġnomin ated
ĠArgent ina
b ar
gl as
ĠDo ctor
Ġmaterial s
Ġcont ain
Ġy ellow
Ġmeas ure
vel and
Ġpublic ation
ĠA D
Ġtr ust
og en
ĠAmerican s
ĠCro at
ĠSt one
Ġco al
Ġset s
ĠM oon
ĠD ark
Ġcust om
ĠD or
ĠM as
Or der
ĠSen ior
ie val
Ġpower ful
Ġstar ring
ĠW olf
Ġbe aut
Ġent ry
Ġsqu are
se ason
N orth
im ore
c ar
Ġrel atively
Ġend ing
am ing
Ġse g
Ġsit uation
Ġdro pped
198 1
Ġ192 4
R ep
Ġsubsequ ent
ĠPl an
Ġcomm ander
Ġd aily
ĠAd vent
Ġbr and
is a
ĠT ai
Ġappl ied
rel ated
ur ance
al y
FF FF
ĠH and
og y
Ġarrest ed
Ġv ot
ĠT it
Ġhold s
Ġfl ow
ĠL ike
ĠBrig ade
Ġref used
ĠL abor
B orn
ĠE ach
Ġdr ive
ĠQueens land
ĠO p
ĠBr on
Ġcomp l
Ġconver ted
Ġfind s
Ġpart ner
ĠWh it
9 2
Ġle tters
ĠR oll
Ñ Ģ
ĠTurk ish
Ġ( ),
i able
Ġres c
P ublic
re es
Ġs ac
we et
ĠR ose
Ġro t
Ġinsp ired
ĠServ ices
Ġch osen
ĠO ak
Ġjud ge
ĠGall ery
Ġachie ved
ĠSt at
aw n
ĠM ember
Ġext ra
ĠMag azine
ograp her
th odox
ĠJan e
Ġmunicip al
ĠAl abama
Ġad ult
Ġl it
B r
ĠC ape
ĠL ow
Ġal le
Ġsouth west
Ġ192 7
Ġro w
Ġrap id
ĠD ave
Ġ19 00
Ġmach ine
Ġmerg ed
ĠO ffic
ĠReg ional
Ġdef ined
Ġpass ing
Ġmet res
F ollowing
Ġmult i
Ġcon vers
A f
Ġfl ood
Ġ193 1
ĠMan agement
Ġpro ceed
ĠP ict
ingu ished
im ens
O fficial
ol as
ĠA uthor
j e
Ġw ant
For mer
Ġun able
ut ies
9 4
Ġ19 17
Ġwin ter
P A
ĠHou ston
S ing
ent ed
ept ion
ĠWh o
ĠSil ver
all as
d i
z en
Ġlaun ch
Ġm el
ĠFr ont
Ġpain ter
p a
ĠFor ces
Ġdef in
Ġven ues
ag ues
j an
Wh ile
Ġethn ic
Ġnorm al
9 3
Ġre ject
Ġperform ing
ile y
Ġcomm ittee
Ġex am
Ġj azz
ĠAll en
Ġap art
it i
Ġaltern ative
Ġeffect ive
C ar
ĠLeg isl
Ġcompet itions
Ġsix th
Ġcop ies
b urn
Ġpil ot
w ise
Ġm is
ĠDet roit
ĠRec ord
es ign
ant asy
ĠC re
bo x
Ġres ources
Ġb ul
ĠD ublin
Ġm icro
u ly
Ġv otes
ĠCh ile
Ġarran g
Ġr ang
Ġbro ke
Ġnecess ary
Ġadv anced
eg a
ĠWal ter
Ġse ats
Ġfield s
ĠT y
Ġcont aining
Ġnar row
Ġstra ight
ĠR un
Ġaud ience
l ines
ĠAd am
d ie
d on
Ġdef end
Ġ3 4
T o
6 4
ĠT rib
st yle
Ġext ensive
Ġs um
ĠPat rick
ĠN ow
ĠAl an
Ġob tained
ivers ary
Ġa im
Ġcent uries
ian g
ĠE ag
Ġra in
le ts
h ar
Ġad ap
ol y
Ġappro ved
Ġpar liament
Ġscient ific
f it
Ġr h
V ideo
eng ers
Pl ot
ĠL at
ch ar
8 5
Ġf ought
Ġent itled
os lav
Ġact ions
Ġenem y
ĠCom ics
Ġsim ple
ĠK ey
Ġattempt ed
Ġsp ect
ĠB eng
Ġactress es
ard o
at ab
ad ow
Ġprot ection
Ġmethod s
Ġ19 22
ug u
ill ing
Ġcom ic
ĠS ri
ist ers
ok ing
Ġear th
Ġmem ory
Ġhistor ian
or ro
Ġr ival
ĠJac ob
197 8
Ġ19 10
M ilitary
Ġsom ething
r ant
ĠA ge
Ġc al
S ome
Ġh arm
ĠR a
if ically
S T
Ġrecord ings
ic ians
Ġcall s
Ġex clus
S ub
Ġ192 6
Ġgu ard
ip e
u ilt
st ream
ab y
Ġn ob
Ġs ay
Ġconf irmed
Ġinhabit ants
Ġ Ä
Ġk il
Ġb al
Ġhap pen
Ġloc ations
Ġsurv ey
Ġdr iver
ĠChild ren
ew ay
ĠD ick
if ul
Q u
Ġunder st
Ġb at
ist ry
inem a
iam ond
ĠLt d
Ġhot el
n ight
A ss
ĠPortug uese
ĠT ig
' '
Ph il
ĠL eb
Ġpi ece
ĠM it
ĠB ou
ĠAff airs
Ġcons um
Ġcreat ing
t hes
Ġinc ident
ĠIslam ic
ĠR eb
ĠG ard
20 20
Ġopp osition
Ġapp arent
H ar
or ter
8 9
Ġpre par
ĠMP s
l ow
ĠB ah
Ġnucle ar
Ġfound ing
ĠS on
Ã© s
ol o
Ġ19 21
Ġim pr
Ġj ur
ĠLouis iana
Ġperman ent
ad i
pr ise
ĠBudd h
bo ards
j o
ĠC ow
ĠK at
Ġshort ly
ene z
Ġs occer
ĠC ab
Ġ192 3
Ġdirect ors
ĠH ills
S up
av ed
Ġ4 9
rop ri
f ort
Ġch o
Ġc alc
ĠD omin
Ġland s
Ġlearn ing
ĠJes us
ell i
Ġcons ecutive
Ġdo ctor
ĠC ost
Ġr ing
197 4
ĠN ar
Ġs and
ĠFore ign
ac ent
Ġdef ense
Ġp le
ĠD u
ist a
Ġrelig ion
ĠAb d
Ġenj oy
Ġpro s
Ġv irt
ĠS u
ond er
az ines
ĠSt aff
ole c
ĠN ich
ĠR ugby
lect ions
ik i
ĠSchool s
ĠStud ios
Ġsh ared
Ġconsist ed
ffic ient
Ġattack ed
e k
Ġult imately
Ġ192 5
Ġact s
ĠRe al
ĠAnth ony
app y
Ġref ers
T C
L ife
Ġv ent
Ġcomp ris
ham mad
J an
ĠP ope
o a
as er
ĠB an
E ast
f all
iss ance
Ġopp osed
ipp i
Ġbe gin
Ġproper ties
ĠM ach
ĠG ordon
197 6
Ġf uel
ĠTok yo
Ġpoet ry
h ing
ours es
ĠJ am
st an
ĠMo ore
Ġm ind
or ough
ĠA C
uss ian
Ġh yp
ĠL iter
ĠSt ew
op ter
p osed
ĠG ram
gh an
Ġoffic es
om ing
por ter
Ġv ac
ĠB uilding
oy d
ĠLab our
ĠV ar
Ġbe y
au x
ry st
Ġl iber
ĠL u
Ġ190 8
8 7
Ġim pl
ph as
Ġpain ting
er ts
Ġp un
ĠBroad cast
" ).
alle l
Ñ ģ
Ġset ting
W omen
Ġb oys
ĠD ur
Ġg ar
bor ough
Ġder ived
Ġroad s
Ġs ense
ri ff
Ġch ampions
ĠS el
ĠPh ill
w en
Ġr isk
Ġeduc ational
Ġweap ons
h at
ag en
197 7
pl ace
Ġt un
Ġstat istics
ĠS in
Ġst orm
Ġprof ile
ar ks
struct ure
E ducation
Ġvis ited
ĠAr k
ord an
M ajor
ĠW ell
Ġbey ond
Ġ( ;
Re g
Ġsign al
Exp atriate
Ġsc ript
uss ion
Back ground
Ġhom es
Ġcommission ed
Ġ3 00
ĠK am
Ġde ploy
ĠH ans
Ġapplic ation
Ġabandon ed
ut ed
ĠĊĠĊ ĠĊĠĊ
ĠF inn
Ġhe ard
Ġb ishop
im ents
or age
m it
ang er
Ġneed s
Ġkill ing
ĠN ag
back ground
t ic
Ġin struct
Ġh ydro
Ġesc ape
ĠDou glas
r ont
Ġh am
Ġcrit ics
ĠDe ad
Ġre ar
iv ate
M on
S chool
ĠT el
Ġfunct ions
Ġbusiness es
Ġident ity
ĠT an
Ġste el
Ġo x
Ġpass enger
Ġhe ight
Ġband s
ig ation
Ġmed ium
Ġro ugh
ĠSec urity
f riend
Ġh ired
Ġin ternal
Ġresp ond
Ġn ick
Ġtechn ical
Ġeconom y
ĠP ot
O R
ĠSqu are
Ġcor rect
ĠB uck
ĠM iami
ĠF riend
Ġy our
H igh
CA A
Ġgl ass
or us
197 5
Ġa uth
Ġag ed
ĠAl i
Ġ4 8
ch a
ĠE lementary
Ġcont rast
Ġagric ultural
ic i
um a
Al though
Ġplann ing
6 7
Ġbas ic
Ġprogram me
act ions
' m
Ġt ry
ĠM and
iform es
act ive
ograph ical
d am
wh ile
Ġp owers
ĠTod ay
ist ol
ĠEx press
m ith
Ġconn ection
rid ges
S I
Ġ19 15
ĠN aval
ĠNor wegian
g ency
ĠG arden
ol ph
ram a
s et
Ġac id
Ġslight ly
i ot
ĠK a
ang el
F irst
Ġ iron
Ġcomp ar
G A
emb le
Ġher self
Ġheav ily
Ġrece iving
Ġchall eng
Ġk ick
P er
stitut ional
p ass
ĠO cean
Ġmat ter
Ġav oid
M y
197 2
le m
ĠP A
197 3
Ġf un
ig ious
6 5
9 1
E A
Ġp up
ec ution
Ġstar ts
on i
ĠN ik
Euro pe
E FA
Sports people
Ġtouch down
iss ippi
Ġpri est
Ġent rance
S te
Ġsp ok
ĠL yn
ĠMr s
h o
ĠCommon wealth
ur i
ĠGirl s
pl es
iginal ly
ĠW elsh
ĠV is
ĠJo h
T r
ĠAm ong
Ġturn s
Ġren ov
Ind ian
Ġh its
D r
Al bums
ĠBelg ium
n old
Ġt end
Ġf ly
oth ing
Ġneg ot
Ġrecogn ition
6 8
i ations
ĠL ast
ĠDe ath
Ġmax imum
ĠC our
w here
Ġord ers
ĠAd v
ĠF arm
ĠBrother s
f e
ĠV in
ĠBe fore
ĠSp r
: #
Ac adem
Ġv o
Ġp ages
ann y
ĠIn formation
Dav id
ra it
el son
Ġhold ing
Ġgl obal
re p
ĠFI FA
ens ity
ĠMont real
Ġc as
oc ation
Ġposs ess
Ġdeterm ined
ĠSoc orro
ud get
R oman
Ġto ward
Ġ( ,
ri ev
s er
rom e
ĠK ings
Ġs ail
Ġfail ure
ĠK l
Ġcontribut ed
ĠAnton io
az a
Ġm art
ot te
ret t
Ġspe ech
g al
Ġliter ary
B uildings
A b
L eg
olog ists
Ġbrief ly
ĠVill age
st ar
en h
ĠB eat
Ġ4 2
in er
ĠOr thodox
Ġw ays
H S
ĠPortug al
ĠI mp
ĠS port
ock ed
sc ape
Ġdec ades
Ġcon stant
ris is
Ġ7 5
ĠW orks
Ġlic ens
ic ide
ĠTh ird
Ġre in
v ements
ĠRober ts
ac he
195 0
Ġan th
Ġalle ged
g or
p o
ovak ia
Ġexist ence
Ġref lect
Ġwrit e
Ġinst all
Å Ł
ĠLI NE
Sc ott
idd en
Ġ19 16
Ġad vent
Ġprot ect
Ġcont ained
ĠD a
amp ton
Ġadap ted
M ost
ĠOn ly
ĠTh rough
Ġpl ot
ĠHar ris
ous es
ival ent
Ġprop os
Ġs an
ud a
ran e
Ġro utes
Ġre asons
ish ops
Ġext rem
Ġadv ant
Ġpi eces
Ġgr ade
Ġcaus ing
v o
ĠB ry
ov iÄĩ
r ine
Ġw alls
igen ous
Ġenvironment al
li est
ĠIndepend ent
ĠP ap
el and
Ġstand ards
Ġb odies
Ġst ores
Ġdec or
inn ers
c ome
ĠLINE AR
uc ks
Ġdo ing
Ġgen eration
ism s
ĠPri x
ĠSing h
ĠEr n
Ġh ill
ĠPit tsburgh
196 8
Ġdec re
Ġc row
B est
f ound
Ġ4 00
Ġb illion
Ġre aching
Ġpol ic
Ġext ension
Pl ay
ĠG ab
ĠC all
ĠL ang
Ġmain tained
ĠR ick
in burgh
ĠJ ay
ful ly
Ġindepend ence
Ġdis app
Ġs ought
gr ade
ĠâĢ ĺ
Ġcol lected
Ġprem ier
Ġan s
ars h
ĠIsrael i
Ġb ill
ig e
Ġcons ult
M ich
ĠIn n
ĠGu ide
che ll
D A
Japan ese
am o
Ġdom estic
ic ts
ĠBalt imore
Ġg uns
le ase
ĠCol omb
Rail way
l ad
Ġmay or
ĠAn ne
Ġtemper ature
Ġintro duction
Ġph ase
s ch
Ġ19 11
achel or
Ġsh ape
ĠB ecause
ak ed
ur ation
Ġloc omot
ÃŃ n
R ober
in cluding
197 1
Ġsol id
for c
Ġle ct
Ġf ashion
ĠD C
own ed
Ġcorn er
ĠL anc
Ġt rying
Ġ19 13
or ia
ay an
en z
ur day
Ġcar ry
ĠRail road
Ġsub urb
ter m
p oint
p an
ann ed
os ite
f ather
Ġre ign
Ġoper ate
Ġp ull
Ġdyn asty
Ġfin ishing
ĠHot el
ou ver
Ġch urches
Ġinv asion
Med al
Ġd iplom
Ġcl imate
Ġsupport ing
ĠA st
O ver
adu ate
Ġanim al
og an
ĠTam il
L C
Ġcon ce
St ar
ĠReg ulations
ĠI l
ol ly
W rit
Ġwe alth
ter y
Cl ub
and o
n i
E c
Ġtransl ation
Ġs ale
Ġdef ensive
ap es
ĠMatt hew
Ġpat ients
s pe
ĠW y
Ġv ice
ĠWh at
Ġm and
b ound
Ġh air
a fter
ĠV o
r un
olog ies
Ġocc urs
ĠIm perial
Ġin aug
ĠCle veland
ĠPubl ishing
ĠB uff
Ġsc enes
I N
Ġapp oint
R el
ink ing
Ġth row
h aps
Ġqu ite
Ġrepresent ing
h ard
us al
ĠF all
Ġeng aged
Ġinst alled
Ġanim ated
Ġem phas
Ġj unior
Ġh un
Y ou
ĠKn ight
Ġf ranch
Ġworld wide
ug oslav
Ġconsist ing
Ġregard ing
ĠU N
i op
Ġlaw yer
ĠE arly
ĠAdminist ration
ĠI ron
7 2
Ġestablish ment
ĠRog er
omp son
Ġgr ad
Ġsuccessful ly
s ong
i ac
Ġbelie ve
Ġequ al
Ġrepresent ative
ĠS n
Ġa id
Ġtra v
ĠJu an
Ġr ise
Ġhead s
ĠSk y
ĠL in
Ġbo at
Ġstri ke
ĠK evin
a ire
ĠL ieutenant
Ġtw elve
et ry
as ure
ĠPh ys
ĠB illy
Ġres igned
Ġe g
yth m
ut ation
Ġsc ale
ĊĊ ĠĊ
196 9
S an
ĠA BC
ĠThe n
ĠAf ghan
y st
Ġb an
re te
ĠH ug
em en
Ġentire ly
l ong
ĠMc K
y ers
Ġres erv
Rec eption
Ġal one
Ġcaus es
hemat ics
Ġ err
Ġprov ed
Ġinvol ving
ĠK az
Ġinc orporated
Ġclos ely
ĠIn ternet
ĠN a
ĠG er
ĠL ar
ob e
ust er
Ġ6 4
ĠK y
Ġinters ection
Ġmag n
ĠMet ropolitan
Ġis lands
Ġapp eal
ming ham
Ġgreat est
B ar
rain ian
Ġpartn ership
Ġobserv ed
6 2
ĠStew art
Ġcomm it
C ent
Ġdr ivers
Ġchampionship s
Person nel
b ishop
ĠAthlet ic
ĠF ac
II I
ĠR ain
ĠUk raine
is f
Ġinvestig ation
Ġe mp
R ed
Ġneigh bour
Ġinj ured
Gen us
ĠM icro
Ġl aid
ĠH op
Ġtransl ated
ĠK arl
ĠB ull
Ġsubs id
ob a
Ġsh all
ist ant
H istor
eg et
ĠM em
r Ã©
Ġcr iminal
Ġd ates
Ġstreng th
ĠHol lywood
Ġadj acent
7 4
ĠBroad way
ition ally
ĠMiss issippi
ĠMc G
Ġrequ est
ĠOtt oman
ĠD eb
os m
Ġinc ome
ner gy
8 3
Ñ Ĥ
Ġun cle
om y
ĠFred erick
ĠR ey
Ġse lection
Ġres istance
ĠS ac
orks hire
ĠHistor ical
ĠD ance
ĠBr uce
it als
ĠPal ace
ĠOper a
Ġdevelop ing
ĠPlay er
z i
ĠMalays ia
ĠL as
ĠT un
Ġlead s
Ġpass engers
ĠR oc
Ġw atch
Ġfoc used
ĠE ven
Ġs ust
ĠWeb site
Ġse ems
ger y
ro c
Ġfle et
ĠLaw rence
ĠP ear
Ġmer ch
; "
8 4
Ġdesc ription
Ġc atal
ĠW ing
ult an
he el
Ġcross ing
ĠAtl anta
ast ery
20 21
ĠHung ary
ĠM ission
Ġm ent
w all
Ġf aith
ĠP ed
Ġcompos ers
Ġf aced
Ġw arn
ĠAm b
c ussion
ĠEd inburgh
Ġch ain
Ġed ited
Ġexpress ed
ĠTer rit
Ġform al
ol t
ĠSam uel
I V
Ġ3 9
Ġv oted
Ġfem ales
anc ouver
Ġrail road
e qu
ĠL iver
Ġch oice
Ġfund ing
Ġrul ed
ã ģ
cl op
Ġt or
ĠH orn
Ġsy nd
fer red
ĠH ig
g ow
Ġexper i
Pop ulated
Ã ¥
Ġinflu enced
Ġregard ed
196 7
Ġsymb ol
iformes Family
Ġtechn iques
ĠP ir
Ġfact ory
l iving
ĠD ak
Ġtra il
ĠLa ure
8 1
Ġf resh
ĠA le
Ġal t
Ġget ting
Ġp ione
Ġresident ial
Ġnick n
ĠCro wn
Ġm ist
Ġjoin ing
ri k
ell ows
Ã© t
r ons
ĠPl ace
Ġvol unte
Ġres ear
6 1
Ġcop y
Ġp ed
ĠH ere
int end
ra structure
atab ase
ĠR abb
Ġvis ual
Ġcerem ony
duc ational
Ġcon vent
n ia
Ġf ictional
ĠY outh
u y
u its
ĠR ound
Ð¾ Ð
ĠE ver
B I
Ġs ections
Ġ4 4
b ridge
Ġw aters
Ġbro wn
ĠO ri
Ġleg end
196 4
Ġsched uled
ĠF A
ĠP ur
Ġbel ief
ĠBrazil ian
Ar ch
Ġqu ant
ĠHaw ai
ĠPu erto
inist ers
Ġass ess
È Ļ
Ġc ourses
Ġinv ited
Ġrele g
ĠRes erve
Ġdiv isions
Ġh our
Ġreturn s
t hen
k ee
Ġexp ed
le ton
ĠAg ain
ĠD allas
Ġprom ote
Ġfund s
omm od
ĠHarv ard
os aur
Ġdescrib es
ĠR ights
Ġro of
ĠS ee
Ġed ge
ĠRuss ell
P ol
J ames
aval ry
ou stic
le ans
e ast
ĠB eck
Ġf ram
ra k
Ġtri es
Ġspec ifically
ĠB asketball
ĠHer itage
od ge
us hed
196 6
Ġsom ew
ĠP a
M arch
C ities
ĠCh ampion
H er
sp an
7 9
Ġposs ibly
7 1
ĠHamp shire
Ġbro ken
ĠHung arian
Ġt ask
% ,
Ġd ivers
an ch
ĠF ern
Ġs ession
ĠG ran
h r
Ġro oms
ĠRep ort
8 2
id el
ĠDis ney
Ġact ual
Ġent ertain
ograph ics
ĠD anish
ĠBl ues
Ġimpro ve
ĠDen mark
Ġp rice
ĠH om
Ġg ets
Ġproduc ing
c ount
P art
ĠDe an
Ġear liest
P C
Ġimpro ved
B ur
ĠN ob
ĠEx ecutive
n ot
ĠMor gan
is d
ĠP as
Ġcompet e
Ġsing ing
6 3
d r
Ġs ell
Ġsequ ence
Ġg ang
ĠCl in
Ġground s
uk i
ter ed
ĠMarg aret
r at
Ġv ir
ĠSur v
ĠYear s
ĠPrin cess
z h
Ġlim it
Ġse lect
ĠR yan
Ġimport ance
Ġl at
Ġop in
ĠF und
f inal
ĠY orkshire
Ġstand s
clus ion
am ic
h op
y g
ĠBo x
Ġsup erv
Ġcont rolled
Ġim ages
ann els
ĠL et
Ġpar allel
Ġg arden
Ġd a
ent ially
Ġguitar ist
Ġopportun ity
ĠT reat
Ġex erc
Ġj ump
ĠMount ains
att an
Ġdo or
Ġbehav ior
Ġfound ation
P ort
; "|
ĠM aur
ĠV ic
ĠAnd re
Ġt ack
ĠH ell
ĠG ill
as a
Ġeng ines
R ich
ĠW ard
Ġemploy ees
A ugust
ĠB omb
Ġ ille
ĠC ra
R C
Ġ189 0
Ġviol ence
r ong
Ġpurp oses
ex ual
ather ine
ĠPet ers
ĠNor man
Ġchem ical
Ġ ;
ĠL ank
ant ly
ĠF urther
Ġf lying
ĠDef ense
duc ing
Ġeas ily
Ġprote in
Ġtra ined
ĠF il
ĠLiber al
ĠD ue
n ers
Ġan cest
P aul
ĠOr leans
ĠJ ordan
ĠRoman ia
à ¸
ĠG a
h ost
ĠN A
r m
Ġex act
ort on
ĠGl as
Ġret ail
ĠGr ant
196 5
ĠG ib
ec ies
Ġoper ates
Ġres erve
ĠL ov
Ġa x
ĠTai wan
ĠV ik
Ġpers ons
Ġte en
Ġadv ance
d y
ĠJohn ny
il k
Ġc ore
Ġtyp ical
Ġview s
ĠRang ers
am an
ten ance
se ud
ĠPro duct
GB T
Ġg ain
ĠFin land
Ġob jects
Ġexhib ition
ĠB erg
Ġelect ronic
ĠAg ency
on ian
ĠWalk er
ĠAlex and
ocr atic
Ġso le
Ġgood s
ĠL ith
ĠB art
Ġcl imb
aught ers
Ġcateg ory
ã Ĥ
Ġrepe ated
ĠB ush
ot hes
' re
Ġn om
Ġd uty
Ġ190 6
Ġbott om
ud i
ĠÃ ī
or row
ĠR ow
Ġneg ative
ĠKenn edy
ash i
in ter
Ġsk ills
Ġcon qu
B el
ĠLeb an
A thlet
Ġar med
Ġaccomp an
or er
z er
ĠAlf red
Ġc rown
Ġnot ably
Ġcle an
7 3
Ġt ail
Ġcon cluded
ĠKel ly
Ġlin k
c i
edd ing
W orks
ĠL l
rop s
aw ay
P res
Ġsurn ame
ell ite
Ġ ri
Ġ4 1
Ġdet ails
ĠTra il
Ġarg ued
ĠK o
Ġhum ans
Ġin form
ors es
enez uel
ĠC are
ĠN atural
Ġter ror
ĠB ed
Ġproduc ers
u ins
ĠAb out
ĠV ers
Ġchar ges
Ġrepl ace
b ach
Ġk id
Ġapplic ations
Ġw itness
Ġs oci
act or
Ġacc ommod
Ġsub stant
G l
Ġw eather
ĠPe ace
Ġterm inus
f ile
Ġsurv ived
Ġd ie
Ġthe ater
Ġfl at
Ġown ers
ĠOffic er
ins ula
Ġinterp ret
Ġs ave
aw are
J ew
ĠAust in
ag g
um in
In ter
ĠC her
ĠMor ris
os ure
ĠG on
I f
m ont
ĠN ord
ĠEn vironment
S ch
m illion
Ġind uct
E p
ĠF ive
ĠO m
Ġ190 9
Ġre ally
ĠW oman
Ġa er
Ġdoc uments
Ġrev olution
Ġstr ateg
M c
Ġit ems
l on
ĠH end
og ether
ĠCent ury
ĠAust rian
f inals
Ġsepar ated
et ime
Ġcomb ination
T S
d o
Ġz one
ĠJim my
ĠM es
le vel
ĠD al
ĠR ub
Ġag ency
ail and
Ġme ets
Af ric
Ġred uce
Ġpro ced
Ġcomp osition
ĠCamp bell
ĠChrist opher
Ã ´
go ing
ĠJ ess
Ġste am
Ġmom ent
Ġide as
Ġpurch ase
ĠP C
Ġon es
Ġregular ly
Ġopp osite
ĠTh ompson
ĠR and
ure au
Ġpaint ings
Ġval ues
Ġ4 3
ann e
ĠVol ume
Ġreg iment
Def unct
Ġd ies
ĠSe attle
Ġadv is
Ġun iform
20 22
Ġv ide
ĠBir mingham
Ġm us
ĠL ocal
Ġadv oc
ĠBrook lyn
Ġcon sequ
Ġcor por
Pro duction
ĠComm ander
Ġphil osophy
Ġpen al
wh o
Ġc aught
Ġe ye
Ġadm itted
Ġcred ited
ĠO ur
Ġclass ic
raf ted
Ġgradu ate
ĠPal est
se a
ĠMil an
le te
ĠN CAA
ĠV erm
ĠC hen
cept ion
Ġarch ae
ĠSh ah
et on
ĠV ice
Ġt ennis
ĠBar ry
ĠL ane
E S
ĠLiver pool
Ġinterest s
ĠG ary
Ġst ating
M P
Ġrest ored
ĠTro phy
in ian
Ġstar red
ĠEv ans
el ess
V ill
oc a
ĠF ather
is hers
ĠS i
ac le
6 9
Ġ190 4
ĠBet ween
Ġ5 1
Ġre ality
inc inn
Ġ190 5
Ġunivers ities
ĠTh ough
=" #
Ġd ry
ic it
ĠSat urday
ĠW ol
ĠN iger
Ġ5 2
Ġinit i
ĠN BA
Ġcall ing
T wo
Ġb ond
- -
y les
mph ony
D P
Ġuns uccess
Ġdev ice
Ġf an
ĠS ax
ĠTig ers
c at
Ġimpr ison
ĠN av
ĠBroadcast ing
p i
p ower
Ġf ine
ĠM ethod
ĠU pper
Ġa str
Ġ15 0
Ġr ich
ace ae
ĠJos Ã©
Ġequ ivalent
incinn ati
ĠD yn
Rober t
ĠDon ald
e as
Ġfav our
ĠInd ians
Ġre action
Å ¾
ĠCh all
Ġ190 7
et a
ĠE very
ĠOper ation
Ġshow ing
Ġacc used
ĠIndones ia
ĠR ap
Ġa f
ĠSt ars
Ġfl u
Ġcl in
c ell
ĠUt ah
ia h
Ġup d
Ġm ine
Ġann iversary
Ġsk i
Ġres idence
Ġdec ade
ĠFrank lin
Ġnot hing
Ġexamp les
Ġdist ributed
ĠL ower
Ġ5 5
ĠN elson
Ġcolle ges
Ġdam aged
if er
ĠV ancouver
L ater
ĠMet ro
f are
Ġm olec
Ġob tain
Ġdisestab lished
ĠDer by
Ġw orth
194 5
Ġcour ts
ĠC rit
Ital ian
Ġaff ected
ĠC atal
Ġhe at
ate gy
ĠColon el
ĠStan ley
Ġpr int
Ġstand ing
194 0
Ġcost s
h t
Ġsecond s
ĠAss oci
ir i
ch i
Ġcom ed
Ġp ool
ĠCar ter
ĠCol lection
Ġt ank
Ġwh y
ĠRob inson
C rit
Ġfe ed
Ġv eter
ĠG et
ĠCh art
writ ers
Ġadvant age
ĠCo oper
Ġcolon ial
ĠV ideo
Ġ *
Ġr ivers
Ġoff ensive
ĠCon stitution
ĠTh us
Ġte achers
Ġint elligence
Ġret ained
Dem ographics
Ġm ilit
l ie
Ġcomp ut
ĠL am
Ġ6 5
ĠS ud
ĠF el
ab ad
c ious
Ġd og
Ġrev ers
Ð º
l ig
Ġm ort
196 2
Ġut il
Ġconstitu ency
Ġpublic ations
Ġst ret
Ġrece ption
Ġdiv or
Ġsevent h
O N
ĠM ess
ro v
Ġsound track
ĠM ans
Ġdesign s
at ures
ĠW right
ren e
Trans portation
P re
ĠS af
Ġdid n
f ish
196 3
Ġch ose
esc ription
ran ean
Ġfact ors
Ġb orders
Ġde leg
Ġun f
ĠC ass
Ġd uties
Ġstat ement
Ġdown town
anc er
Ġphot ograph
ĠY ank
Ġmag azines
Ġt ick
ĠTr ade
ĠAuthor ity
ĠBor ough
Ġmot ion
ĠGl obal
op al
m i
Ġdis miss
ĠUp on
ĠSup port
Ġlook ing
Ġass ass
ran g
Ġdis pl
Ġst orage
Ġn or
ĠW a
Ġmy th
ĠY ugoslav
Ġb ran
ac on
Ġatt ached
Ġreject ed
Ġkil omet
Ġchar ged
Ġcomm itted
fess ional
Ġbr ig
I P
Ġper cussion
Ġinstr uments
ĠN ash
Ġcover age
ĠAnd y
ĠS aints
ĠOn ce
Disc ography
ĠBern ard
Ġpra ised
St ate
Ġdra wn
Ġw ings
Ġtri p
Ġre ferences
Ge orge
ĠR acing
Ġinter ior
ĠD aily
D ist
ĠM ix
S im
ess ions
ib l
? "
od a
ĠS everal
Ġstop ped
J une
Ġb ra
ĠG ulf
St ation
ĠAd ams
Ġcoach ing
Ġ4 7
ĠD om
Ġsec retary
T reat
Ġprov incial
ĠJ azz
ĠCo le
ĠMark et
Ġrestaur ant
Ġev olution
Ġcol our
Ġb udget
Ġappear ing
Ġcapt ure
ph a
ĠVi enna
E P
M C
ĠB ible
ĠH old
ĠMot or
uz z
ine a
ĠP sych
E v
Ġown ership
ĠS hip
Ġcirc um
e lection
Ġb ed
Ġb atter
Don ald
Ġfinal s
Ġb it
ĠConf eder
Ġfl o
ro t
ĠI an
ĠN ative
ind ing
Ġc ous
Ġch ance
Ġhost s
h attan
Ġth ick
ĠBl ood
ĠGlas gow
Ġgr ass
ple te
Ġnewsp apers
ass ador
ĠWay ne
ĠS occer
Ġpubl ishing
Ġdo ct
Ġdr iving
it able
ĠT ak
Ġprison ers
A ir
ĠM all
Ġass umed
Europe an
M al
ĠD J
ĠAll iance
he me
Ġ190 3
Ġbig gest
ol ia
Medal ists
ĠC ulture
f iction
S U
Ġf ired
om pl
Ġcar bon
ill o
ĠTh ailand
ĠJ erry
Hon ours
Ġdeg rees
ĠF ood
ĠCE O
i ors
ĠCommun ications
ĠM ond
A pril
Ġch annels
Ġsuggest s
ip h
N orthern
eg as
Ġv ary
iv an
al ia
ĠM ap
ĠS C
Ġd oll
O C
Ġparticip ate
ĠK u
ic us
ĠN HL
Ġextrem ely
ro ke
Ġarran ged
ĠJ un
Ġem ot
Ġ188 0
Ġe lement
196 1
Ġdesc end
ĠT ower
Ġliter acy
Ġf est
ĠMunicip ality
Ġs elling
Ġcy cle
ĠR y
Ġp itch
ĠPrim ary
Ġmed ieval
Ġfre edom
Ġpict ure
ĠJ ose
Ġarr ival
Ġis ol
Ġ190 2
Ġch air
ĠA qu
Ġdep end
Ġsyn thes
Ġ4 6
Ġking dom
Ġfranch ise
) )
C al
il st
Ġres ign
Ġw ounded
ĠAlbert a
Ġ190 1
ling ton
A N
Ã ł
Ġcap able
ur ers
M usical
Ġb rain
ibb ean
ob by
ĠSec ret
Ī Ĵ
ĠL uther
Ġs un
F l
Ġweek ly
ĠTra ining
ro ck
ĠGr ay
Ġjur isd
Ġun us
b i
Ġlin ked
Ġpresident ial
Ġkey boards
Ġv eget
Ġrepl acement
pro fit
Ġm outh
Ġcontribut ions
ĠSar ah
m aster
as hed
ĠF ried
ĠMarsh all
Ġpeak ed
Ã¶ r
Ġpopular ity
h u
O ctober
ri x
Ġd ig
Ġrece pt
ĠMur ray
ĠCar n
Ġor chestra
Ġcar rying
t op
Ġaud io
R o
Ġother wise
Ġe yes
ĠG iants
ĠJ ason
Ġregist ered
b at
Ġadapt ation
Ġst ood
ĠGra ham
ĠCon vention
ĠCh amber
ĠM ind
Ġjourn ey
ov o
Ġcandid ates
Ġt ur
ĠP un
ĠGu y
ic ial
ĠArmen ian
ĠLegisl ative
Ġb anks
ĠN ever
ty pe
Ġmanufact uring
A pp
ĠE mer
Ġhead ed
ĠSe ason
195 9
Ġt all
ĠC ricket
att ers
Ġprot est
Ġassist ance
Ġexperi enced
ĠL ad
ĠU EFA
Ġprep ared
Ġcoast al
Ġjob s
res ents
re leased
ĠL ib
enc ing
Ġst ages
v ant
ĠCh and
av an
Ġin her
J uly
Ġg olf
193 0
Ġpri ze
Ġf alls
Ġdel ay
ĠHind u
Ġdeliver ed
is b
ĠCat hedral
A ng
are st
ĠMay or
Football ers
Ġpo em
Ġdesign er
ag ar
ĠP ad
Ġqual ified
iss ue
in ces
Ġmed icine
Ġbelong ed
h ill
Ã© n
Ġa head
Ġm ales
ĠJoh ann
ĠPat ri
S eptember
C urrent
Ġc ards
Ġsignificant ly
Ġl ov
Ġgr ant
Ġlearn ed
ic ate
ul us
Ġexecut ed
j amin
ater n
Ġexpress ion
ĠT ob
Ġsuccess or
Ġland ing
Ġan ch
Ġin stitution
Ġmount ains
Ġexpl os
M od
Ġaccompan ied
ĠP age
ĠD ub
Ġlegisl ation
Ġstre ets
Ġclass ified
Ġent ering
Ġcollabor ation
D F
b al
Ġmembers hip
Ġass ault
t ure
it ars
is ode
Ġus ers
ĠH as
Ġtransport ation
d oor
Ġ5 9
195 8
ĠEn t
forman ce
amp s
ĠE nergy
ĠAng l
Ã «
Ġt ied
! "
Ġshoot ing
iv ated
ĠThe ater
Ġco ordin
ĠM ack
Ġsc heme
Ġl iqu
ĠS ongs
Ġrun ner
Ġcommun ication
ĠG riff
Ġdi agn
Ġacc ur
ĠColl ins
Ġfilm ed
Ġprot ected
Ġa ware
ĠK now
ĠMed icine
ph one
ok ed
T ax
os ph
oen ix
ct ic
ĠPar ish
Ġjust ice
ĠV enezuel
ĠR ena
ĠK an
ot ten
apt ist
iel der
ĠC BS
ĠB eg
ĠF ight
e enth
Ġp hen
ĠF alls
Ġapp ropri
Ġacc ompl
ĠIn vest
Ġrep resents
Ġshe l
Ġdiffer ence
pp ing
est yle
ĠSev en
Ġsever e
E m
an ian
Ġn aval
ĠM eg
iter ranean
y ll
ab led
ela ide
O M
duc er
Ġorgan isation
Ġspirit ual
ri el
ĠUn it
Ġstr ing
D C
ĠAn na
ĠA R
Ġoffer ing
ip er
Ġfact or
Ġpre ced
ĠAg ric
Ġrequire ments
Ġm anga
com mun
Ġpo ets
Ġcover ing
usal em
Ġhousehold s
ĠSerb ia
ĠH it
ĠCommun ist
Ġren ew
Mich ael
ĠL ost
ur u
ĠCarl os
ĠSc ient
Ġmin ing
Ġseg ment
Ġw ine
ĠA P
B M
Ġswim ming
d ers
Ġ vert
Ġcollect ions
Ġal leg
Ġstay ed
ant ine
w inning
u in
ĠArk ansas
Ġw ave
B us
ĠE ss
Ġpl us
Ġc up
ĠIn s
O per
Ġmiss ions
Ġspe ak
re hens
udd en
ĠM L
ĠRob in
a ired
ĠT ol
oph one
Ġrest rict
Ġus er
d in
Ġterrit ories
h us
ik o
ĠS ite
ĠDak ota
aj a
Ġbroadcast ing
ĠBuff alo
ĠR est
ĠBr istol
Ġso il
Ġc ited
ch ang
oth y
h aw
oc ol
St ud
im m
ĠProt est
ul um
Ġs now
ĠMit chell
Al umni
Ġtechn ique
Ġl ists
ub b
Ġd ating
ĠD og
Ġbusiness man
ĠS oul
ĠB ud
Ġchap ter
ĠR ud
Ġin sc
ĠRich mond
Ġper haps
ĠNaz i
Ġdem and
ĠClass ic
ĠMu hammad
Ġportray ed
Ġsub jects
Ġf ishing
ĠR io
Ġc old
Ġinv ent
195 7
Ġh ur
Ġen h
Ġam ateur
Ġh ang
Ġcelebr ated
am ents
m osp
Ġrepl acing
f olk
l ater
Ġ ign
ĠJud ge
N or
R adio
b oy
Ġc atch
ĠMar ie
Ġmed als
Ġb on
v i
ĠNov a
Ġtest ing
195 6
Ġpract ices
l ock
as m
ĠM other
Ġdif ferences
ĠCo ok
ĠSte el
Polit ical
ĠN on
ĠC hem
Ġte x
Ġatt orney
ĠB aker
Ġlic ense
Ġsub d
Ġfr uit
Ġsh ut
ag s
ot an
ĠAthlet ics
el lect
ĠRoman ian
ĠMan hattan
f eld
Ġcont ext
Ġf iled
E D
ĠO range
ĠHun ter
Ġdem olished
Ġinj uries
ĠB ranch
st ances
195 5
ĠWind ows
m ate
ĠCont rol
ĠV el
Ġinf rastructure
ot ype
Ġoccup ation
Ġenc ounter
á »
Ġdeterm ine
ĠMad rid
Ġpenal ty
W ar
ĠP rom
ĠĠĠĠĠĠĠĠ ĠĠĠĠĠĠĠĠ
Ġrequ ires
Dec ember
N C
Ġwe ak
Ġs ed
ĠB enn
. âĢĿ
ir ation
ĠE qu
Ġcritic ized
ĠCam er
Jan uary
Ġtrans ition
Ġeven ing
is ations
ad ers
r ations
e ed
Ġfr ag
Ġse ed
h and
th a
ĠN i
app ing
Ġpl ane
F ictional
ĠA y
ĠH um
U p
Ġjud ges
a un
Ġconcern s
ĠHe b
Ġw or
ebr aska
ĠCharl ie
Ġpl ate
cy clop
Ġin fl
ict ions
Jew ish
Ġmin ute
ĠA ld
ĠSy mphony
Ġrough ly
ĠUk rainian
ĠS ign
ĠPre fect
Ġabs or
h um
or ous
ĠK r
ĠH ud
Ġscient ists
Wh ite
Ġens ure
Ġsign ing
Ġag o
Ġsup posed
ĠD NA
Ġre un
Ġhor ror
as p
ĠGl en
st ery
l en
st ers
ri p
Ġbir d
ĠSing les
ĠSp irit
Ġj unction
A P
c ia
Ġmod ified
Ġbe ach
Ġdefeat ing
Ġrom antic
ĠAl aska
l isted
Ġunder standing
tt ps
m und
ĠArch itect
at che
Ġleg s
ĠCh airman
Ġ5 4
ĠJ enn
ss on
ub le
R ussian
Ġd im
ĠN ation
P ost
ĠCub a
M ark
Ã Ł
mar ine
Ġche ck
cast le
at ically
Ġag encies
so ft
ath y
Ġcred its
ĠEd ition
Ġrespons ibility
Ġmain tenance
ĠZ one
Ġinterest ed
Ġ189 8
Ġcrow d
ar us
Ġtem porary
Ġasp ects
Ġcr ash
Sp anish
ĠL ions
ĠDr ive
ĠB ureau
Ġr ating
Ġexist ed
ach t
M I
Ġbran ches
Ġag greg
claim ed
ĠL anguage
L P
ĠSpe ed
Ġplan et
Ġpain ted
S W
op es
ĠM aj
Ġvide os
ĠS id
Ġnot e
ĠP ant
Ġauth ors
ann er
Ġadd ing
is ition
Ġrel ative
Ġindic ate
ĠL ud
Ġjournal ists
ĠLim ited
eop les
E T
ĠN eg
Ġd aughters
ĠCons ervative
Ġfrequ ency
h arm
n ce
ĠD ays
Ġstr uck
Ġal co
h ai
D escription
ĠN BC
Ġinc orpor
ren a
ar io
Ġp ian
Ġcontrovers y
ĠNev ada
ĠAfghan istan
Ġm ir
ress es
Ġcomp onents
p re
orn e
inc orporated
ĠC art
as i
Afric an
Ġschol ar
Ġf illed
ĠK on
Ġpr ime
Ġexper t
Ġmeas ures
Ġf ixed
Scott ish
Ġpolic ies
Ġsan ct
ens on
Ġquest ions
ore t
we b
ĠF rid
ef ef
Ġdest r
Ġentertain ment
C ount
ĠP av
ĠJer usalem
ĠDi ocese
ah a
Ġthous ands
ĠG un
uk a
Ġmon arch
Ġsur re
ĠNorth west
id o
ĠBang l
R et
amp a
Ġvict ims
l s
st own
ry pt
Ġdev ices
in ate
S O
ĠM i
Ġpo ems
ĠMic hel
ĠPict ures
ĠA T
ĠC incinnati
re ation
Ġm ac
er i
C ons
ourn ament
ĠPort land
ĠCh ang
ĠElect ric
ĠCar ibbean
ĠR ef
rib ed
Ġcritic ism
Ġv ic
ĠF ab
ĠEx t
ĠF itz
Ġconv icted
ĠP ack
Ġn one
ĠU C
Ġs uff
keep er
Ġan ime
k now
S econd
Ġl ap
ĠAn ti
Ġt ropical
ĠArab ic
ac re
Ġher itage
ĠF ull
Ġ187 0
ĠS ox
ĠAd elaide
Ġsquad ron
Ġvol umes
Ġsomew hat
em ale
ĠTe le
Ġcred it
Ġwhe el
Ġ5 3
Ġhelp ing
ĠDef ence
ĠC row
ĠA er
lo ad
ĠS ultan
op eration
ĠTrans port
it ime
am er
ĠN ep
if ican
ug s
Ġcomm emor
Ġre nd
ush ing
ĠMe an
g ate
Ġfl ows
Ġchall enge
ĠL P
ĠN et
mer ce
Ġsurround ed
Ġs ax
ĠDep uty
Ġexped ition
f amily
Ġm emorial
Ġ189 9
ut ions
Ġsh ore
ĠO bl
Ġmov ements
ĠR av
ĠL ock
Ġpro hib
Ġman ner
Ġpaint ers
ĠK it
al ph
m ates
Ġven ue
Nov ember
ĠB ass
Ġinter change
Ġm ile
ĠMain e
our g
Ġsk in
ifican ce
Ġr ates
Ġoccas ionally
er k
ul u
at ar
ĠHar rison
ĠMod el
Ġspok en
let t
for ce
Ġcom ics
gar ia
p ent
or ial
ĠLe eds
ĠMov ement
ri or
195 3
Ġro se
Ġgro wn
Ã¨ re
Ġwood en
M ale
Ġ rif
Ġo ption
Ġm ob
ĠT erry
Ġdebut ed
Ġinn ov
ĠM ak
G allery
Ġcon gress
ĠA ber
Ġth in
Ġs oul
Ġg a
og le
ish ment
Ġr ide
Ġform ally
ĠMuslim s
ot al
ĠSt ra
ĠSal v
ĠFle et
Ġsent enced
ur as
Ġsold ier
Ġpr on
Ġcomplet ion
ens es
Ġar c
Ġlong est
ĠD igital
wh ite
u art
ab ilities
or o
ĠU nd
Ġprocess es
com ing
Ġvis itors
forc ement
ĠĊ Ġ
ang erous
Ġ189 7
B et
Ġm obile
iv ation
Ġf ear
M L
i ere
ark ed
ĠAbb ey
Ġforest s
ĠW W
Ġman usc
us ing
Ġclass ification
ows ki
ĠPri or
Ġsome one
Ġrele ases
Q ue
Cl ass
Char ts
ĠPh ot
ĠL arry
ĠSen ator
ĠCap ital
ig o
ett a
Ġinstrument al
Ġc risis
ie ge
Ġ189 5
Or gan
z z
Ġ1 20
Ġac oustic
Ġs ort
og a
iction ary
id ad
Ġinst ance
unc redited
Ġplatform s
Ġhel ic
ĠAdd itionally
un es
Ġaff airs
Ġcous in
ĠGre ater
ast s
v an
Ġpar ks
ĠW restling
193 9
195 4
ch ing
ĠE sp
Ġvess els
ac o
ĠI ce
Ġathlet es
Ġinvest ment
al se
Ġagric ulture
Ġbe ar
Ġshe ll
ounc ed
Ġp apers
Ġachie ve
Ġann ually
Ġlicens ed
Ġser ial
F lor
ĠR ico
à ¦
ĠWar ren
Ġsh if
m od
ĠS r
c m
I m
Ġh uge
ĠS S
Ġd ream
ĠKe ith
Ġ189 6
f efef
Ġdep os
fefef e
ĠV as
ir k
enn e
ĠColomb ia
Ġbatt les
ament al
st ad
Ġph r
ow ell
ĠK um
E lect
Ġt ell
Ġim ag
Ġbound ary
Ġremain der
ĠDr agon
m usic
195 2
Ġpol y
Ġchild hood
unn y
Ġdecl ined
ig s
Ġstr ategy
Ġsh ares
Ġmess age
ĠOrgan ization
and al
ĠK ap
ĠAl bum
ĠProfess ional
ic on
ig rated
ke ley
Ġdise ases
P R
Ġm ental
Ġform ing
ĠSpr ings
Ġrep utation
ont in
ĠAm az
Ġperson ality
Ġs leep
Ġint ent
Ġel der
ĠY e
ĠPolit ical
Ġext ens
D S
Ġcount ies
Ġprofess ion
ĠSt orm
r uit
Ġwithd raw
Ġturn ing
Ġloss es
Ġmiss ed
h ttp
p m
he red
Ġinvol vement
il ty
Ġsp r
Ġpremier ed
i ya
Ã¡ s
ak u
Ġopin ion
ĠL iving
H z
Ġdec line
ase ball
ĠCan al
Ġn ations
ĠJ ama
enc er
ĠT ype
Ġfind ing
Ġmod e
Ġelev ation
ff ield
ra ham
J os
erb ai
Ġstri p
ew ork
u ber
ĠBarb ara
ĠEn cyclop
ryst al
ĠFinn ish
Ġmet ers
A g
Ġconsider able
Ġactiv ist
Ġs olution
194 8
ĠN ebraska
en eg
Ġlast ed
Ġsu icide
ĠC ensus
Ġcirc uit
Ġwind ow
gress ive
Ġart illery
ĠSecond ary
Ġto w
com p
ĠM aced
o ft
v ision
Ġplayoff s
C ap
Ġp ip
19 20
che ster
Ġinflu ential
rick eter
ri pts
ĠPark er
Vill ages
Ġgu itars
ĠDel hi
Ġsur gery
g arian
K ing
Wh at
E N
ud es
. '
ann i
ach i
Ġra ise
Ġf ile
ef ul
ĠFl oren
Ġg ay
Ġ( ).
ĠW or
m o
Ġmon ument
ro ph
ĠS ask
T our
O ut
te enth
c ut
ĠP il
Ġpubl isher
ĠD raft
ĠS yn
ĠL an
ĠEth iop
D an
T op
ĠF isher
Ġhistor ians
Ġchang ing
Ġte ach
Ġcent ers
Ġbi ography
b rid
ĠCh ron
Ġequip ped
Ġdepart ure
ĠC ultural
Ġd ub
Ġcontin uing
194 2
Ä «
" ;
t rans
former ly
ĠB rew
iv ia
ĠPr adesh
Ġsw itch
Ġhabit at
b ody
f oot
Ġc ool
Ġtrans m
Ġex ternal
Ġhappen ed
rac ts
ley ball
ĠPer u
Ġw rest
Ġt act
Ġrel ief
ij i
R ock
ĠL GBT
Ġh ip
Ġsec ure
Ġthe at
ge on
k ov
Ġsw it
rib ute
ĠAv iation
195 1
Ġor ient
Ġse es
b ow
ag ers
medi ate
ĠM D
art ing
Ġelev en
ĠSerb ian
ĠIs a
Ġexpl ained
ĠVictor ian
194 9
Ġsusp ended
ric ane
ot ton
Ġany thing
Ġd ated
Ġ188 5
Ġpropos al
Ġ5 6
Ġemer gency
Ġ1 000
Ġbring ing
Ġresc ue
ina e
ĠTr inity
' ve
ĠS ic
ĠCon stant
Ġrem ember
ĠD iamond
Ġmark ets
ĠT as
Ġunder ground
ĠP ra
ok a
Ġphil os
Ġadop t
ann on
Ġm ines
il ia
od ore
Ġart istic
L ou
ĠTurn er
ĠWar ner
ĠPl ant
b oys
Ġ eth
ul ating
Ġev al
ĠD od
ĠBob by
al is
ĠFran ces
Ġden ied
ĠUr ban
O ld
p op
ing ly
M art
Th omas
ĠStud io
ĠHawai i
ĠFre edom
Ġdeb ate
ĠIran ian
c alled
ĠP ast
Ġw arm
3 00
ĠBelg ian
it is
Ġg ather
ĠN orm
os hi
T om
S l
Ġag ents
G old
Ġexc ell
ro duction
ĠL uis
Ġg ender
L ive
ĠC hel
ĠVerm ont
iz ations
ĠP i
W A
Ġpop ulations
Ġsur f
R oyal
ew here
born e
Î ±
ier ra
ĠE ug
ĠL ear
The y
ĠAt hens
Ġfr ame
f ly
ĠAl t
Ġcam era
B ig
Ġfl ed
ĠSystem s
ĠH ab
ul i
ĠR ace
Ã ª
ĠM ong
T ur
ĠVin cent
ĠAl ice
ĠKir k
ia st
ĠBen jamin
Ġincreasing ly
Ġn urs
Ġprom pt
et e
Ġcontrovers ial
ĠG round
Ġ186 0
om on
Ã¼ n
ĠNich olas
ĠCra ig
ĠY am
ĠE le
Ġreb uilt
In t
ster dam
ĠB uch
Ġweap on
Ġne ut
ĠC R
ip ients
194 6
ĠMar s
ĠPier re
Ġb es
Ġre pr
Ġacc ounts
ĠSl ovakia
p ine
bre ak
Ġelim inated
ol ar
Ġoccas ions
ĠB ey
ĠR AF
Ġphot ography
Ġd ensity
C y
Ġbu y
ip per
Ġval id
Ġf antasy
ĠC A
ĠM ult
ĠBy z
Ġnet works
F ebruary
Ġn av
ĠGu inea
is er
ĠMon te
Ġconc rete
az e
au kee
Ġw at
ellect ual
a uc
Ġdist inguished
194 7
ull ivan
ĠP ay
ĠMed iterranean
V P
W eek
Ġf ighter
Ġl es
ĠEconom ic
o om
b ut
re z
ĠH unt
ĠJon athan
ĠIv an
M any
Ġres emb
ĠPr incip
Ġw orship
ĠC ork
ob b
Ġ25 0
ro se
Ġass ign
ĠJos h
ĠArch bishop
Ġdisestab lish
Ġille gal
i est
ĠStand ard
Ġro ut
ĠBar n
ĠNor folk
Ġdisc ip
Pro fessional
ĠHud son
Ġprin ted
Ġmin imum
Ġtem por
Ġviol in
Ġsu fficient
ĠSt re
anc ell
Ġrel ocated
Ġten ure
M ount
Ġc able
Ġeffect ively
ĠBuddh ist
H owever
ĠC old
Ġqual ifying
ĠCroat ia
Ġcross es
al g
l ane
Ġpres erved
oun sel
ĠEgypt ian
Ġap artment
J ust
n ik
Ġt ie
Ġp od
ĠS now
C onn
ar at
Ġ189 4
Ġres id
H ung
Ġas ks
ĠChristian ity
ter ior
en berg
Ġind icated
ĠPh oenix
ĠAct ion
ĠL ate
ĠM ann
Ġstrong ly
ĠSt age
ĠStev en
ĠCl ay
ĠHol land
ĠSm all
ĠG ot
Ġpercent age
ĠS ide
Ġdom ain
ĠH orse
ĠS ad
ĠCharl otte
ĠG rey
m at
ur ring
Ġat mosp
er ted
ĠShe l
Ġtest s
c ano
Ġhon our
ĠS um
Ġsurv iving
Ġpit cher
Ġdep ending
Ġass embly
Film ography
Se ason
ĠSer ge
Ġhe ar
inent al
Ġper fect
Ġent ers
Ġoper ational
Ġ189 2
Ġmov ies
Ġpre gn
on na
ĠBr isb
iz er
ĠPrefect ure
Ġcr imes
194 4
Ġf old
Ġex ists
á ¹
Ġg one
ach ment
ĠMag n
ĠUl t
Ġtun nel
ust ed
Ġrep air
Ġbenef it
it ects
Ġl ieutenant
Ġtrad ed
rupt ion
in ations
d est
Ġout put
Ġexper iences
or p
ig ion
ĠTr ack
Ġ6 6
ĠB ird
c ks
Ã ¦
Ġd rop
193 6
Ġtre ated
ect ors
Ġarrang ement
count ry
w aukee
Ġchap el
ok o
194 1
f ire
P at
ap ped
Ġtrib es
Un ivers
ĠBrisb ane
Ġo d
ĠT ech
ĠN am
Ġatt ributed
ĠB urg
Ġh orses
ĠEx per
ĠDen ver
ĠF ace
ĠChrist ians
Ġparticip ation
on ies
ell ion
H en
er ia
ĠJ oy
An other
vers e
ĠCard inals
o ons
en os
Ġg all
Treat ies
Ġassoci ate
Ġattract ions
ĠSo ft
n ic
Ġsign ificance
it ual
Ġappoint ment
s uch
um i
lev ard
Ġn eck
ĠV iew
Ġmarket ing
Ġcharacter istics
Ġg ymn
Ġterm inal
ĠEag les
ĠL ux
ĠTreat y
Ġb ridges
ĠOl iver
Ġs udden
Ġyoun gest
ĠF ine
ĠD oc
ig g
Ġdisestablish ments
Ġgreat ly
Char les
ue z
ĠL C
Ġbl ocks
p ir
er ate
Ġcons ervation
Ġinf antry
ĠEd die
Rich ard
Ġw rong
Ġjurisd iction
ich i
ĠChall enge
Ġadvert ising
Ġsched ule
Ġfest ivals
ĠV egas
Å Ħ
Ġmass ive
Ġsaf e
onym ous
ĠFl ight
Ġmix ing
Ġ ib
ĠFriend s
Ġtex ts
Ġ189 3
Ġcompet itive
p ers
Ġdon ated
Ġkn ew
Ġbeaut iful
Ġcl an
Ġsat ellite
ĠBaron et
Ġvis ible
193 7
Ġem igrants
hol m
ĠM ick
ĠEx p
E L
m pt
ĠT ib
Ġpal ace
Ġp ric
Ġh al
Ġthreat ened
Ġto ured
Ġ188 9
Death s
ĠG or
Ġexcept ion
H A
Ġf urn
w yn
Ð »
ĠS che
ĠT on
The se
ĠC ode
ĠLank a
Ġround s
ĠMov ie
Ġst yles
Rec ipients
Ġle agues
and om
ĠG oth
Ġperiod s
Ġdep uty
Ġto ols
ĠLl oyd
o i
ĠP in
rehens ive
osp itals
ĠA way
Ġcricket ers
ĠN ature
Ġv ision
Ġabs ence
ĠBer keley
Ġunus ual
ĠS P
m aker
Ġ5 8
ĠT ournament
et ition
ric ted
ĠD ennis
Ġaffili ated
ĠP erson
Ġth irty
Ġapparent ly
oc c
M ont
ĠR ic
ĠLiter ature
Ġsp aces
Ġthem es
Ġrelationship s
Ġattract ed
Ġ189 1
Ġmov es
Ġgen e
Ġsat isf
ĠH av
Ġevery thing
Ġce ased
P eter
Ġm amm
isc opal
ĠBul garia
ĠBr ight
ĠL og
pe are
ĠAdm iral
Ġ5 7
p read
ol ition
ĠL ion
ĠB ath
Ġappro val
b acks
G reen
Ġra bb
E ducational
ĠH ope
ail ing
Ġext inct
ript ions
ĠC ou
Ġpred omin
ĠCost a
Ġsett lements
g ets
Ġdr ummer
Ġcele b
ol en
Ġad ults
S D
Ġelect ron
S am
Ġfriend ly
' ll
p at
Ġ7 2
Ġv e
ĠApp le
Ġw edding
ab et
re ck
Ġsee k
ides pread
ĠR idge
Ġph one
Ġrecomm ended
ath a
ĠS outheast
akes peare
Ġpred ecess
Ġw ants
Ġc inema
h al
ĠY u
Ġmon astery
Ġac know
ĠS ay
ĠR overs
Ġpat rol
V ol
U C
d ef
L ittle
Ġs essions
ur st
Ġvess el
I L
j ab
Ġch amber
ĠW ang
ĠMar vel
194 3
ĠF u
Ġrat io
ĠHe avy
s a
ĠTerrit ory
h our
w ig
ĠE vent
our se
Ġne uro
ev a
ĠPers ian
B O
Ġsuppl ies
on ly
Ġrh ythm
M e
ĠH em
Ġwh ilst
w right
ĠP att
port ed
Ġconc erts
ĠS ection
Ġtrib e
G o
ĠB und
h igh
Ġe asy
ĠMag ic
Ġt ribut
ĠV I
Ġin ner
ĠJ e
iss ions
ĠOn line
193 8
r ise
G ame
Ġh olid
Ġdefin ition
Ġ id
Ġd rafted
Ġgrad ually
m el
Ġe at
ĠA rena
Ġdescrib e
ĠMin or
ĠBangl adesh
ond uct
Ġcompet ing
Ġvis iting
Ġd rew
Ad d
ĠPro p
Ġd ual
it ations
at ra
Ġs end
ĠN C
Ġprocess ing
ĠAz erbai
Ġinduct ed
over y
oss ible
Ġear n
ĠRog ers
ĠS ah
Ġl oyal
h y
ĠM end
Ġthous and
Ġlaw yers
Ġbo ats
ĠT ang
Ġindic ates
Ġrec ru
ab el
g ary
b ird
ed a
ĠH ugh
Ġwhere as
Ġas c
Ġcol ony
Ġgr ades
Ġ @
ĠF if
S ong
ist ical
ro d
Ġpat ient
M et
ĠS ig
ĠT err
s is
Ġe ighth
op t
ĠC elt
Ġwrit es
Ġmurder ed
Christ ian
Ġrepresent atives
g ame
ond a
Ġtrad ing
b ul
l og
ĠC ad
ĠB aptist
Ġthe rap
Ġdec ides
Ġd ress
ĠGerman s
Ġland scape
ip ped
ĠO il
l ik
Ġtrans c
Ĩ Ĵ
Ġsign s
cel ona
Ġamong st
Ġmart ial
the less
Ġreve als
Ġsuffer ing
Ġpick ed
Ġmer ger
ĠG ay
Comp anies
H ow
Ġtrans mission
ĠObl ast
Ġed itions
ĠGil bert
Ġm all
Ġhon ors
ĠM A
ĠJ a
ĠDe ep
ring ton
Ġact ed
ĠJeff erson
ĠH ad
as ant
Ġm ast
uck land
Ġrepresent ation
193 5
os l
Ġclaim ing
ĠClin ton
ĠIn stead
Ġtr uth
ĠH ann
Ġcon st
ĠAtt orney
Ġp ap
Ġunsuccess ful
ĠHeb rew
ĠC urt
Ġunder t
Ġdestr uction
p in
Ġdep th
vious ly
Ġatt ending
ĠS alt
I M
ĠNe il
Ġer ected
Ġunderst and
Ġpan el
Ġ186 1
Ġ188 8
ĠB og
Ġmeet ings
ĠB achelor
ass y
sc ar
is ch
ok ie
ĠCont emporary
ĠM ason
L and
ĠB uc
ĠF alc
Ġdiscover y
o j
ff ee
ash a
Ġup gr
ĠLeban on
f ielder
Ġw ars
ĠComm ons
U nder
ĠG ang
Ġh at
Le ague
ĠB ert
ĠArgent ine
ĠBab y
Ġth ing
Ġpass age
Ġt ort
ĠMun ich
ow ed
ed ed
Ġnorm ally
atche wan
Ġgu ide
ĠM asters
am ics
Ġstat ue
ap se
Ġrem ix
Ġemploy ment
Ġg iant
Ġ186 5
Ġimmedi ate
r us
min ute
ch t
Ġwind ows
Ġopportun ities
Ġpat ron
ĠPhilipp ine
ĠPol icy
Ġsp oke
% ),
hel m
R S
R T
Ġcomp lic
Ġdet ailed
os c
enn ial
Ġext ent
ĠSus an
Ġcap s
m ill
ĠEx pl
Ġf ix
Ġdrug s
it ially
ix on
Ġ6 3
Ġnomin ation
ubl ished
ĠBr un
ĠM ul
ĠP le
Ġdeploy ed
ĠR ac
Ġconn ecting
Ġexperiment al
19 18
ĠÃ Ĺ
Ġdu o
ĠB ears
Ġfl owers
Ġrul ing
ĠW onder
ag re
Ġenc l
ĠEd wards
ĠComp uter
Ġmar ry
Ġrapid ly
Ġfrequ ent
o ard
em pt
ĠR ing
Ġshop ping
w as
Ġw restling
b us
el i
Ġsent ence
Ġcas ual
Ġ186 2
O T
ĠH ear
S port
ĠS eb
Ġcateg ories
ĠFac ulty
ĠHer bert
er ie
ĠB ond
Ġarchitect ural
al us
ĠMc L
Ġsuper ior
s or
Ġgen re
gr aduate
ract ion
c ing
ĠE g
Ġdef ence
S ir
Ġus eful
Ġmuseum s
ĠShe ffield
Ġbeg un
ath on
ut ton
c ase
Ġh orn
ĠBr and
Ġb anned
Writ ers
Ġf ur
ok er
Ġtravel ed
at on
Ġref ug
n ew
Ġdraw ing
Ġhundred s
Ġcont ribution
ĠBeng al
Ġlocomot ives
ar c
ey er
ple x
ĠCr ime
ĠCommission er
Ġf ee
ro oms
ĠAm sterdam
Ġgen era
ĠAngl ican
form ing
ĠProduct ions
N ote
Ġb attalion
Ġgradu ating
Ġafter wards
ĠDel aware
Ġcont roll
Ġspons ored
Ġenjoy ed
Ġind igenous
ĠA round
if ies
Ġill ness
Ġpro port
ĠM embers
Ġevery one
l ia
ult ane
Ġrest oration
Ã¶ n
D espite
ĠWall ace
Ġpost ed
Ġcon vention
sh aped
row s
w ent
l ist
FFFF FF
osp el
am ous
g om
ĠR alph
w orld
ĠSurv ey
ar an
ĠR ams
Ġtown ship
Ġrecover ed
ĠW alt
Ġsubsid iary
n an
Ġdis b
Ġinn ings
L ong
Ġb id
ĠMor oc
Ġd iam
Ġcho ose
Ġr anks
Ġc ricketer
Ġconcern ed
Academ ic
Ġproduct ions
em ed
Ġf il
Ġre porter
ĠV lad
Ġelect oral
S m
ĠP ic
iz z
ĠP ont
Ġel se
Ġcivil ian
I rish
D ou
Ġw idespread
Ġc ul
L ove
F inal
f ers
im ir
ĠIn v
E E
Ġmanufact urers
Ġposs ession
Ġpar am
Ġcustom ers
Ġ186 4
ĠTrans portation
ĠM alt
I reland
Ġparen t
Ġtrad itions
ĠProtest ant
Ġsup ports
ĠBr id
Ġst rict
ĠHer z
Ġparticip ants
p erson
ber ry
Ġkeep ing
ĠW inn
ran o
Ġexc av
ĠUnivers al
Ġdisc ontin
hem atic
er ic
Ġm inisters
L aw
Ġoper ator
M ag
ĠIn sp
qu ir
Ġcontin u
al am
193 2
cel and
ĠF ighter
or iginal
leg iate
Fran k
ĠL is
Ġsy mpt
Ġpart ially
Ġab use
Ġcol ors
Ġemer ged
ĠB ald
ĠL iga
Ġconcent ration
Ġmat hematics
ĠN at
Ġbon us
ant i
ĠHar old
ĠBut ler
ĠS et
Ġsub stitute
anc he
Ġreg ime
ĠZ e
Ġcanc elled
ĠR ight
str ong
ĠBou levard
Ġw et
Ġsupport ers
Ġconvers ion
Ġ186 3
Ġf oss
oll o
min ster
M iss
ĠM ig
ent o
ĠSh akespeare
ĠAss istant
Ġv ast
ĠW es
au er
V ID
ĠMur phy
ĠHel en
Ġb aby
ub a
op y
Ġloc ally
j u
b ie
193 3
Ġl akes
ĠP el
het ic
D ep
ĠSh aw
ĠT u
A lex
Ġ188 6
ĠF ellow
i u
Ġ6 9
Ġ9 5
Ġgu ilty
ĠPen insula
ĠC urrent
Bo oks
Ġ8 5
Ġinteg rated
ĠFrid ay
Ġsp in
Ġco at
Ġencour aged
Ġcomp onent
ĠP ul
ĠEx change
ĠIndian apolis
Ġscient ist
u able
ĠC er
Ġ18 50
Ġrank ing
m ath
Ġminor ity
4 00
Ġre aches
Ġ7 6
ĠSh ang
ĠFor mer
Ġre ady
Comm on
ĠM orning
ag ons
Ġl ose
f ilm
Ġhe aring
ab il
ĠOper ations
gor ith
Ġathlet ics
S k
ĠC atherine
ĠPer ry
Ġy ield
Ġident ify
ĠF err
Ġro ots
ĠMer c
Ġcon j
Ġ188 7
Ġcharacter ized
ĠOtt awa
Ġp ure
Ġcorpor ate
C amp
ĠF a
end ar
il er
ab a
et ies
ig ible
ie g
Ġfall ing
ĠGh ost
' d
M unicip
ĠNew castle
om ic
ĠCons ervation
ĠGr ade
ent e
Nov els
ĠGon z
ĠK os
193 1
Ġpers p
ĠT ed
Ġaffili ate
ĠRo om
ag i
Ġacc ord
Ġgrand father
Ġex cess
Ġre ven
Ġsp ell
E nd
ĠCo ach
Ã³ w
M r
ex p
Ġb ases
C he
Ġ188 4
N T
iven ess
ĠRepresent ative
Ġmanufact urer
Ġstud ying
uns wick
ĠVenezuel a
Ġsub t
. ),
ĠCon struction
cy cle
ames e
Ġgovern ments
ĠK le
ĠPe ak
we ep
ĠJ ar
Ġstud ios
Ġliqu id
Ġm atters
ĠF ly
Ġbenef its
r ag
193 4
Ġf a
Ġphen omen
Ġimm igrants
Ġprov ision
Ġthr one
Ġb rick
ard ens
Ġ6 8
Ġmon itor
Ġorgan isations
Ġp eoples
ĠW as
Ġorig ins
ot yp
Ġab road
Ġp seud
ĠR ot
Ġvar iant
ou ch
ĠT ag
ĠI C
Ġinc idents
ĠAng lo
ĠColumb us
ĠStud ents
ĠGro ve
ĠJ unction
Ġcl othing
Ġpart ly
Ġ9 9
K n
Ġm asc
At l
ĠPeters burg
ĠAr c
ah o
Ġr ub
Ġlim its
Ġh a
Ġpattern s
Ġtw in
ĠTom my
ĠSt uart
Ġbeh alf
Ġb right
c are
p age
ry s
ĠBar celona
Ġany one
Ġbound aries
ĠT erm
Ġsurv iv
ij ing
Ġdr iven
ĠHug hes
ild ren
Ġfl ower
Ġw ire
ri er
ĠB od
ĠR ivers
ĠG olf
riev ed
re ts
Ġl ingu
ĠK ur
Ġâ Ĥ
Ġ6 7
Ġconv inc
im o
Ġathlet ic
ist ani
Ġ6 1
it ure
r ub
Ġalco hol
Ġhigh light
Sw ed
Ġch oir
Ġsc ope
Ġem pt
ĠGr ace
ĠBe aut
el ia
esign ated
Ġmanufact ured
Ġnovel ists
ĠScot ia
Ġass ets
ĠChap el
Be fore
v et
ĠK id
Ġoccas ion
Ġf it
ĠYank ees
Pro t
ĠL en
ific ial
19 29
ĠY ale
itar ian
T or
ĠChe ster
Ġstep s
en burg
Ġconn ections
Ġ6 2
M ad
Ġfac ilit
Ġsubstant ial
ĠL em
ĠD anny
b es
Ġview ed
Ġa qu
ĠS ak
art et
Ġem peror
Ġins urance
agon ist
Ġt orn
Ġkid n
ĠB ear
Ġh ttp
Ġreported ly
19 22
Ġsee king
ĠM S
Ġrecomm end
Ġdr um
h l
Ġsamp le
f our
Ġk it
Ġconn ect
ĠSask atchewan
ĠA uckland
Ġcomm anded
ĠH erman
Ġb ishops
ĠS oon
19 28
ĠKn ights
Ġinaug ural
Ġb oss
ĠAr nold
up t
k ar
ers et
iz a
ĠIndust ry
ĠMunicip al
ĠIndust rial
L ondon
ĠT oy
Ġl ock
ĠBul garian
Ġdivers e
SP N
Ġcl osing
ĠGo ogle
raf ts
Ġto uring
ĠK ay
ĠMach ine
ĠE ston
ĠArt ist
ĠD est
Ġdomin ated
Ġo cean
ĠS or
Ġc ash
Am endment
Ġspe aking
ĠRet urn
v ar
im ation
West ern
M ass
Ġso ap
Ġclos er
ĠLe o
Ã© r
Ġeff ic
ht m
Ġprov inces
ur an
Ġprincip les
Ġrel ation
Ġinvol ves
Ã± a
ĠConfeder ate
ograp hers
B L
J im
Ġf alse
Ġne ither
Ġn inth
sequ ently
Ġcou p
Ġst able
Ġnob le
Ġsp ending
Ġdesign ation
Ġ urg
al ysis
Bl ue
ĠHarv ey
Ġpublic ly
Ġhun ting
ep hew
19 27
l u
Ġappropri ate
h aus
Sh ort
Ġmount ed
Ġsequ el
w ald
Ġstrugg le
d isc
Ġfac ing
Ġtal ent
Ġelect rical
anth rop
U s
Ġres olution
s ub
ĠBr unswick
et ers
Ġans wer
ĠSa udi
ĠD in
act ory
z es
Ġext reme
ĠAll ied
ri ke
ro at
Ġab b
Ġexclus ively
Athlet es
ĠO g
Ġnomin ations
Ġrem ove
ĠMethod ist
ĠI ss
Ġsee ing
G overnment
ĠS Ã£o
Ġf itted
Ġqual ify
Ġparliament ary
et o
qu arter
ack ed
Ġaim ed
Ġl ibr
eral ly
ĠL ac
ent le
Ġapp ly
c ons
U SA
Ġproduc es
b one
Ġwear ing
ĠV illa
Ġimp ress
ĠQu arter
ĠVen ice
ĠBen ed
ĠFloren ce
ĠR aid
ot ion
Ġfunct ional
Trans port
ĠF ellows
ĠÅ ł
Ġres umed
ĠEncyclop edia
R I
Ġw el
id al
Ġdoes n
ĠM ust
Ġlab our
Ġs alt
hib ition
gom ery
ĠSw an
Ġadv ice
ĠAl ong
Ġweek end
Ġprote ins
Ġ7 7
Ġ188 1
ĠSc out
ab ric
Ġconduct or
ounc ill
ĠL amb
Ġdes ire
ĠB M
19 14
es is
alle st
Ġex ceed
Ġgen etic
ĠPed ro
Ġt ons
Sup er
Ġb acter
t ailed
ĠAct or
i ology
Ġmar ine
ĠM ol
ĠH amb
it ol
Ġreg ulations
ĠR ou
ĠL ag
Ġexpl o
ĠPo etry
ili ar
Ġsurv ive
S aint
Ġr itual
iv ic
ĠK ill
Ġpict ures
B aseball
ren cy
over e
19 25
ici ency
P al
inc eton
ĠM usical
any on
Ġphotograph s
g i
Ġbe ating
l iga
r ating
sc ale
ĠMean while
onom ous
ĠN E
Ġbre aking
hemat ical
play ing
ĠQ ual
c os
Ġcon stitution
onn ie
ĠP rice
ĠPet e
Ġt anks
ĠPal mer
av or
pr ing
m ers
u ations
ĠDev il
ĠIndepend ence
i our
ĠD ame
Ġg rav
Ġsec ured
Ġout er
Ġimplement ed
Ġform ations
ĠOr iginally
ĠS F
Ġ188 2
Ġhonor ary
O L
Ġhe ir
ĠSh a
ĠI b
ĠS uch
ĠP oll
ĠTechn ical
ĠGreg ory
or ious
st ance
Ġposs ibility
ĠAng els
ĠCons erv
ĠL omb
Ġle af
T im
ĠSer ie
B en
Ġdisp ute
ĠCirc le
Ġs isters
Ġexp osed
19 19
Ġarrang ements
p ose
Ġnovel ist
Ġmerch ant
ĠMont eneg
Ġtri als
ĠMad ison
iss a
eth yl
ĠTas man
ĠC P
ĠUn like
Ġco ached
Ġcar go
Ġresear chers
ĠRabb i
ĠLe ad
D o
h m
19 24
Ġcl ock
Ġtr uck
Ġint ellectual
ing en
Ġess ential
rep rene
Ġman age
uss ia
Ġdiam eter
Ġs ang
Ġcontin uous
ĠW el
ĠK un
T own
Ġg at
Ġbus es
B razil
Ġass emb
Ġconf ig
Gr and
ĠAn cient
m aking
ĠB anks
Ġd angerous
Ġorig inated
Ġrestaur ants
ĠF eat
Ã© l
ĠAb raham
Ad m
an ion
ĠP ick
ĠM ik
ĠD rama
Ġ7 8
ett i
S al
Col lege
ĠR uth
ĠN y
Ġ6 00
Crit ical
Ġnickn ame
ut ter
Ġf ill
mon ton
ĠYugoslav ia
ĠS z
Ġestablish ing
ĠS uz
Ġchar ity
tr acks
ĠN umber
Ġw aste
Ġacqu isition
ĠPer formance
Ġsim ultane
Ġbelie ves
Ġw ick
ra wn
Ġswit ched
et ing
ĠArt illery
Ġcommun ications
ern e
ĠMicro soft
m other
Col umb
Ġm o
ra ud
Ġhous ed
ĠY ang
Ġpr ince
ĠCo x
Ġto mb
oot s
ĠS ug
ĠT ong
D utch
Ġcl ar
Ġaltern ate
ĠP and
ĠE U
Ġev ac
Ġcamp s
Ġassist ed
ĠF uture
Ġth ir
H C
ric ks
Ã ī
Ġg allery
ĠClark e
Ġag ree
ĠK ath
ĠM TV
Ġper mission
ro st
Ġvot ing
Ġmechan ism
h istor
ĠPhill ips
Is rael
Ġcle arly
ĠRena issance
G reat
ort ion
Ġactiv ists
Ġquarter back
ind a
ĠCO VID
Ġd atabase
Ġg rey
ĠMah ar
d irect
Ġp and
ĠL uke
ĠW ed
M ain
20 23
ro e
Ġim perial
Ġopp onent
t ains
Ġnot ice
end ers
ri en
Ġvict im
Ġst ress
Ġr ated
ĠMan uel
c over
s he
Ġclos ure
ĠR at
ĠMil waukee
b el
s econd
Ä Ł
ĠCal gary
Ġpers u
Ġtrib ute
Ġga uge
Ġp ointed
Ġg ram
Ġorgan ised
Ġ187 6
Ġtre nd
Ġcircum stances
et ch
ĠSh in
p res
ric ulum
Ġmechan ical
elf are
Ġeg gs
ĠF oster
Ġlab els
emb ourg
Ġpri ests
Ġt ale
Ġst im
Ġt urb
Ġm or
ok u
ars on
v ol
H F
ott ingham
av ia
Ġear ning
Ġdomin ant
Ġsuit able
g un
ĠT ogether
E M
ĠArch ive
Ġident ical
ĠMont ana
Ġ9 6
ĠSt ories
Ġsc en
f irst
ĠF lying
ĠStud y
Ġlow est
S il
ĠG T
Ġcreat ive
af e
Ġcon greg
Ġphys ician
ĠT ree
K O
19 26
Ġgener ated
Ġsett lers
Ġc attle
Ġmar ks
ĠCroat ian
M ac
ĠW ald
] ,
Ġreleg ated
ov an
Ġcon stitut
Ġconcern ing
ap ur
ĠP y
ĠO ber
ĠP rest
Ġal gorith
overe ign
Ġcons ervative
Ġel dest
Ġh app
Ġbroadcast s
Ġfarm ers
Ġd iver
att a
th lete
ĠHe in
ĠSc ar
ir th
B ill
ĠE ight
i w
Ġphot o
ĠN ext
ĠA aron
an j
ĠP ep
ĠI celand
le e
ĠHen ri
Ġbank rupt
Ġphys ics
Ġhel ps
ĠProt ection
d ist
Ġt ram
ce ster
ĠP ut
Ġen roll
ĠA ires
over ty
Ġcomp ens
on ed
ers hire
eral a
Ġgold en
Ar gent
Ġc emetery
ĠAl ger
ĠPr ivate
Ġdisplay ed
ĠA S
ĠSocial ist
qu er
Ġcab inet
ir ts
ip ino
ĠN ear
ĠCar r
ang le
Ġliber al
ap pe
ĠBat man
Ġs ung
Ġsl ave
Ġp ul
19 21
Ġout standing
ĠTod d
ĠS A
Ġtreat y
Ġpark ing
Ġsumm ary
ĠL or
Ġsl aves
Ġlat est
off s
ar u
ĠS T
ĠN athan
ĠHar bor
ov anni
Ġrare ly
ĠByz antine
Ġrecip ient
ed o
ancell or
ĠRay mond
e als
writ ten
Ġess ay
Ġdisc rim
ĠSe an
Ġsup press
ah l
Ġrun ners
Ġfund ed
ĠS eg
ent ry
ĠB av
Ġ7 9
st ed
19 23
Ġaccess ible
art en
ĠA x
ĠM ort
ĠH us
Ġre duction
ĠA ges
ĠC reat
ĠM C
Ġdiscuss ion
R ugby
Ġexp ect
Polit icians
ĠLeon ard
Ġthe rm
Ġtradition ally
Ġ7 1
ĠPer th
Ġdec isions
od ay
Ġab olished
Ġmat hematic
if fer
ĠGu ild
Ġapart ments
Ġillust rated
Ġacknow led
ĠV iol
ĠOut standing
Ġ rib
Ġpo le
ĠCr uz
mon th
ĠB elf
He ad
Comm un
Ġcomment ed
Ġrev ised
e lected
f ront
h all
Ġcomm enced
Ġ186 7
Ġon going
ĠErn est
k g
ĠC C
un ning
ĠInt elligence
on ial
Ġc a
Ġp unk
Ġcross ed
Ġunc ertain
Ġovers eas
Ġrest ricted
Ġg ardens
Ġdo ors
Ġprincip le
Ġc od
ĠB iography
Ġor n
Sw iss
ĠSte in
an im
H ol
ov ina
Ġdiscuss ed
el in
ĠRh odes
Ġdi ocese
Ġwalk ing
Ġdeb t
Ã© d
ĠCirc uit
ear ing
Ġcat hedral
Ġs aved
Ġcon stitutional
Ġsil ent
Ġ187 5
op ened
Ġman if
ĠS ierra
L et
Ġbi ological
Ġbal ance
ar r
ĠD ig
B E
CA R
Ġb ull
ock et
ĠBos nia
C ath
R ound
Ġind ex
ĠPro duction
Ġsumm it
Ġconn ects
as ia
Ġor che
Ġr ising
ĠBe ijing
Ġm aps
Ġs ight
onom ic
Ġvert ical
ĠM uch
Ġsympt oms
il ian
Ġal ive
v ia
ĠD ata
Ġn ephew
ploy ment
ĠK rist
Ġ7 4
Ġf at
Ġcarri es
d ess
Ä ĩ
id ency
ĠEag le
t wo
Ġfl ights
ĠL az
ĠGu itar
Ġ8 8
ĠD ictionary
ĠK rish
Ġ187 8
Ġpartn ers
ĠM ills
uck er
Ġr andom
os exual
ĠU g
ah an
Play ers
ĠS umm
ra h
Ġ187 2
ĠW ag
Ġall ies
Ġanim ation
Ġviol ent
Ġ els
ac a
Ġal ter
St r
ĠM idd
Ġland ed
Ġgu ests
ĠBro s
Ġvocal ist
ĠE sc
Ġc rops
ĠF olk
ic as
ĠChap ter
ri ft
ocr acy
Ġtr ump
Ġav iation
Ġpre t
ĠCamp aign
Ġattempt ing
ans k
Ġopp onents
f urt
ĠG ust
Ġrequ ested
Music ians
Ġret reat
Ġdist ribut
Ġrec ruit
Ġsong writer
Ġv ul
bor o
ĠWith in
ĠSt ill
ĠS ullivan
ad ows
em a
Ġb orough
ĠP eng
ĠPun jab
Ġe lementary
ĠR us
ern ess
Ġdismiss ed
S oviet
Ġto t
Ġre venue
Ġl ayer
ĠG ate
Ġincre ases
ĠF ish
Ġlist en
Ġprop ag
Ġtourn aments
Th ree
Ġreport ing
Ġus age
song writer
ĠHe ights
Ġmin i
om o
Ġbelong ing
ĠNash ville
19 10
ĠWell ington
Ġsc ores
I ce
y gen
Ġ187 9
Ġm eat
Ġwealth y
Ġw ard
Ġ7 3
st ory
he ro
ĠNiger ia
ĠM ath
e lect
Ġto urs
ĠS ang
Ġels ewhere
em e
Ġr iding
ĠH ob
Ġjourn als
ĠMan ager
ie u
te am
ĠAnn ual
Ġhy brid
Ġchar ter
Ġdep icted
ĠArchitect ure
ops is
Ġarg ument
Ġrang ing
Ġ1 10
Ġdist ingu
Ġcon clusion
duc es
Ġview ers
ion ed
ĠB our
c ore
ĠY ellow
ĠSp encer
ĠA FL
ĠIm m
Ġscholars hip
Ġelectric ity
Ġrespond ed
i ens
ĠC ov
ĠPear l
Ġthere after
re a
ucle ar
ĠAd vis
bro ok
Res ults
Ġper ce
ĠMont gomery
Ġpart ial
ĠTib et
S ur
T ube
ut a
Ec onomy
Ġexp ensive
Ġt ight
Ġ187 4
Ġmach ines
ĠGard ens
Ġinterview s
ĠV ict
Ġbr ands
ĠArab ia
% ).
s ized
Ġaggreg ate
ĠDiv is
ĠS old
Ġ186 8
f ree
ĠWork ers
ĠB orn
Ġbeaut y
ĠD ol
ĠâĤ ¬
g ie
ĠSom erset
is p
ig in
Ġpurs ue
ĠBe h
st and
ĠC ant
ĠK il
ov ich
Ġ188 3
Ġtop ics
ĠPass er
Ġmag ic
Ġimplement ation
Ġto ol
ĠBro oks
Ġmet ropolitan
amp les
arm a
Ġcomp iled
l ive
Ġprem iere
ĠPlan et
Ġpre ferred
yl er
om es
Ġrecogn ised
Ġinit iated
19 17
Ġfif teen
uan ian
Ġhy per
Ġre organ
re f
Ġcent res
ĠBu enos
Ġ18 40
Ġaff air
Ġm os
ĠLeg ion
Ġtour ist
ol ics
Ġun like
ĠThere fore
ĠV e
ĠWat son
ĠOak land
Ġadvent ure
Ġengine ers
ĠCorn wall
ĠOr iginal
ĠCo al
tern oon
Ġ8 2
Ġex ecution
Ġvers e
ag le
p ost
ĠM ang
und a
Ġsub sp
Ġcan al
Ġmanag ing
Ġsp end
Ġb one
Ġcomplet ing
Ġbrig ade
as ks
ĠR ange
Ġsh ift
. :
ĠC ase
ĠJ ava
R O
Ġev il
Ġtravel s
Ġdoub les
ĠW ells
Ġ187 1
Se lected
ĠRe ed
Bur ials
ĠN AS
V al
ĠG az
est one
Ġinterpret ation
Ġt ape
Ġrece ives
Ġg ate
Ġide al
Ġexp and
Ġsound s
Ġwithd rew
ĠÃ ģ
er as
ĠIs le
ad ier
Ġcon fess
Ġc anton
Ġtem ples
Ġcr uc
ĠB ach
ĠMar qu
Ġav o
ĠO ct
ĠW als
Re lease
art a
Ġpre st
osoph ical
ĠM ut
ab e
Ġint ention
arri er
oc ene
Ġrespect ive
Ġstrateg ic
Ġm al
ĠR u
J ack
N Y
ĠW heel
B ob
N S
umber land
ph is
ĠX I
pi ece
e ing
l it
Ġ8 00
ĠS weet
Ġarr ives
Ġprepar ation
Ġman s
Ġvis its
Ġcorrespond ing
om i
ĠMond ay
ael ic
ph ib
ĠE ld
ĠFran Ã§
ĠStan ford
Ġalt itude
ĠCl are
Ġphot os
ĠDemocr at
Ġlog o
est e
Ġwrit ings
Ġdepart ments
Ġb io
Ġun ions
ĠPl at
m id
ĠJ en
Ġdescrib ing
ĠArmen ia
Ġanth rop
Ġextens ively
ia o
An n
ĠBenn ett
M el
ĠC ele
ĠGe off
pr us
Ġbl ues
Ġearth qu
ĠW u
ĠTh ai
Ġdr ink
Ġ186 6
P an
ĠGuard ian
Ġcirc le
Ġsynd rome
apt ers
ĠEnvironment al
ĠS ul
Ã ½
p son
ĠS ter
ĠK ate
el er
ĠVers ion
Ġsport ing
Ġb ath
ĠT ax
est y
er als
om orph
vel t
Ġsur pr
ĠAct ress
Ġerr or
ĠV oice
Ġclin ical
R ivers
d al
k an
ur se
ĠStud ent
o fficial
ĠCelt ic
ĠAp ost
Bus iness
S E
um ps
Ġf ib
Ġsub mitted
S erv
s ur
Î ¿
ĠWil helm
U r
Ġab oard
Ġdev oted
R L
Ġinternational ly
ĠEs sex
ĠSh ir
ĠDes ert
Ġdistinct ive
Ġb in
Ġesc aped
Ġper mitted
ib ilities
Ġpit ched
ĠPan ama
Ġcert ified
ĠIsa ac
l ain
Ġlin ear
Ġexerc ise
str ument
Bet ween
Ġex it
ro us
om ber
Ġsol ar
Ġcomp rehensive
Ġpract ical
ast ed
Ġus ual
Ġstruct ural
Ġcampaign s
l ights
ĠO wen
19 15
ĠFin ance
ĠB es
t z
ĠRh ode
Ġsim pl
Ġcomment ary
Ø §
ĠPro file
Ġhor iz
ĠArt icle
D et
Ġdepart ed
Ġdeliver y
Ġconvent ional
ĠH az
ĠMal ay
ĠPir ates
Ġab ilities
Ġen forcement
F ore
Ġf asc
ĠOver all
Ġtemper atures
ĠAdvent ures
ĠC raw
ec a
ĠB eth
ric a
ili ary
ĠTre as
Ġr id
rup ted
Ġsh ops
Ġlook ed
Ġlo op
Ġ187 3
ĠForm ula
Ġperman ently
Ġret iring
Ġext end
ĠE SPN
Ġres ort
ĠPar ks
Ġib n
Ġst ops
ill es
19 16
f in
S yn
Ch inese
Ġsust ain
Ġt y
ĠBel grade
ĠWeek ly
Ġindust ries
h is
ĠD ra
ĠAb u
Ġb ay
ĠL ess
Ġr is
ĠSy ria
ĠJo an
ent i
Ġattend ance
Ġneighbour hood
ĠC ob
Ġ9 2
ĠDav ies
Ġisol ated
Ġst eep
Ġj u
Ġsy mp
Ġrem ote
Ġtempor arily
ev en
ĠSt ef
ter bury
ĠS oph
ĠCub an
ĠKen ya
w eek
ĠT ales
ĠTrans it
Ġdisb anded
Ġ187 7
ĠK erala
á º
Ñ ĥ
Ġfun eral
ĠP od
ĠA j
ĠD aw
ĠProv incial
ic ing
ĠH erald
Ġ8 1
Ġh ills
Ġinflu ences
ĠDemocr ats
Ġspecial ized
all ing
it ic
ĠAndrew s
V A
ĠO wn
r h
ĠHig her
Ġnegot iations
ere k
ym ph
Ġopt ions
if ier
Ġiniti ative
ar ians
ĠArch ives
ĠLe x
il o
ĠT rain
ĠPlay ers
ent on
west ern
intend o
l ength
ĠT alk
om ed
ĠR if
Ġpro l
ess ed
Ġt ies
ert iary
bo at
ut o
ĠF aith
ĠB att
Ġpand emic
a ude
ĠJ oint
á ¸
Ġh idden
Ġwid er
Ġexcell ent
ĠTr ump
Ġgu ar
ag ram
Ġre act
ill on
Ġbut ter
n amed
Ġcart oon
Ġr um
Ġsculpt ure
Jos eph
ĠSh op
ott o
Ð ²
ĠOr d
Ġappro ached
ĠAzerbai jan
Ġf ulf
ĠPar ad
Ġrul er
r n
Ġpower ed
ĠD h
School s
end a
Ġburn ed
Ġexpl ains
ĠL akes
Ġun less
ĠB ak
ĠHind i
ar is
ab out
Ġrep ro
u ania
Ġrecover y
Ġvir us
op us
ish i
Ġann ex
ol in
B ro
Ġch ron
Ġvict ories
um er
Ġtrav elled
Ġneut ral
writ ing
ĠSh ar
n otes
mar ks
Ġo w
ĠO cc
Ġass ists
ac les
ip eg
az i
re ated
ĠEconom ics
ac co
ĠD uc
Ġinher ited
Ġcons olid
Ġmar gin
Ġcont ested
Ġ10 1
ĠMan it
h orn
ĠNew ton
Ġr ig
ĠIn g
Ġform ula
Ġstreng then
ĠT ampa
Ġall iance
Ġcompar ison
ĠC hes
Ġkey board
Ġvent ure
Ġdis char
Ġphr ase
ĠP ath
ĠK ab
Ġde emed
it us
ĠH at
ra ve
Ġesc ort
Ġev olved
Ġco oper
ĠDel ta
Ġbox ing
19 12
Ġpromot ing
Ġw orn
M or
ord ed
Ġpup ils
ĠCh air
Hen ry
E st
Ġn am
Ġn ut
ĠTr ad
in yl
Sing les
g ins
ĠH D
Ġc avalry
ĠF ig
Ġeconom ics
ch o
Ġpredecess or
ĠHe aven
Ġcl ergy
ĠArt ists
Ġte eth
ĠMo z
Ġbirth day
Ġelev ated
s m
qu est
Ġfarm ing
Polit ics
ĠGab riel
t urn
Cent ral
Ġst em
â ĪĴ
ĠV ern
em pl
ĠO pp
ov sky
ĠC ec
av ier
ĠWood s
ĠS aw
Ġpil ots
ic he
ĠTh om
oir s
F I
ĠHar per
Ġcontrol s
Ġenem ies
v or
ĠNep al
Ġsm ooth
Ġdemonstr ated
Ġsamp les
Ġfocus es
Ġexp osure
ĠNap ole
ose velt
Ġh ope
Ġgraph ics
Ġtrans form
Ġtack les
ĠL ot
ac ional
o que
Ġn inet
ĠJ ur
appe ared
y stem
on ica
Ġhe nce
ĠCh a
M a
Ġro ot
W ashington
N D
ĠFried rich
ull ah
c or
ĠL ak
Ġsusp ension
C ity
ĠL oc
E very
F orm
on so
ĠScient ific
ĠK er
unc an
Ġfle w
A cc
ĠSch ol
Ġpl ain
F rance
Ġge omet
ĠF iction
Ġlist ings
P o
ĠVal ent
Ġ9 3
Ġslow ly
ĠT ab
ĠLux embourg
Ġdescend ants
Ġrel ay
ĠRe ading
Ġrad ical
ĠFin ancial
ĠLa ura
Ġcond em
Ġre ct
Ġtherap y
Ġm ig
C oll
D el
ĠK in
ĠAr g
Ġdec ide
H am
G roup
Ġkn ock
Ġ9 8
ĠCh an
Ġcharacter istic
Ġhyp othes
Ġkilomet ers
Ġspe akers
Ġdiss olved
h in
Ġcompet itors
ĠCamp us
f r
ĠS isters
ĠL ie
F our
Ġinter cept
th rough
Ġdifficult ies
Ġleg acy
ĠWild life
Ġpull ed
i ability
by ter
Ġcoll aps
le w
Ġc ave
ĠN ine
ĠAm endment
ĠR ice
Ġt ub
ĠR aw
Ġprot ests
Ġfeel ings
sen al
Ã© m
Ġprom in
Ġdes ert
19 00
Ġout door
Ġdiffic ulty
ĠLiber ty
n ut
Ġcoll apse
Lou is
ĠT ir
ĠPr act
im mer
os er
ĠTra vel
ins ky
ĠSp ider
Ġm oral
Ġpro sp
Ġn a
ific ate
Ġinsp iration
ar ius
it ary
ĠR oth
Ġeffic ient
ĠN ancy
Ġprov e
Ġham let
ĠN ottingham
Ġrev ival
| }
19 13
ĠLeg end
Ġexclus ive
Ġpro x
Ġbre eding
e a
Ġt elling
m ir
ĠH aven
and ra
ĠL ook
Ġterm in
Ġspe aker
Ġconstitu encies
j oin
Ġpric es
eg al
M ary
ĠRel ations
add y
ĠM az
ĠP ink
ĠSim ilar
ai ro
ĠYou Tube
Ġv ow
ĠK ra
Ġcomm une
Ġfoot age
Leg acy
Ġa st
ir ms
G C
Ġpet ition
ĠIraq i
ĠLe ader
ĠInter state
ĠL ig
im en
ĠTh ose
Ġ9 7
Ġcarri er
Ġresign ation
Ġwa iting
Ġb ills
Ġ8 9
ĠStev ens
id i
d es
Ġdisc overs
ĠR ah
Ġacadem y
Ġrang es
Ġover l
ĠK arn
Ġdiscontin ued
ett ers
ĠO scar
R oute
Ġexpl an
Ġhistor ically
iers hip
B re
ec ific
Ġare na
g ence
ĠMar io
O s
ens ions
ĠCzech osl
ĠC avalry
head ed
G M
ĠT iger
N on
ĠT all
Ġbl og
Ġaccommod ate
Ġk ings
Ġcomp ound
Ġph arm
ĠRes ources
ĠQu est
Ġcop per
Ġdial ect
ĠMaur ice
ust rated
ĠFurther more
Ġcitiz en
B asketball
Ġabs ol
ĠCy prus
D en
ĠCy cl
Ġro cks
ĠBelf ast
ĠDomin ican
Ġrec alled
Ġqu ad
ĠComp etition
r ators
ĠCard inal
Ġrem ark
Ġent hus
ae us
Ġappro aches
Ġrecip ients
ĠRon ald
Ġvar iation
R ob
Ġa w
th at
Ġg al
ĠW atch
ĠAc cess
b en
im ates
ane ous
ĠCol in
iv o
ĠCa uc
ĠBl ock
Ġlegisl ative
omp ass
c ock
Ġlo oks
Ġdebut s
ĠO w
Ġvot ers
Ġsub marine
Ġmid field
ĠPlay Station
s i
ĠPaul o
il is
ĠAll an
ie ve
Ġtick et
6 00
T ra
Ġfl ash
Ġprogram mes
spe ed
ĠDev on
Ġrat ings
ĠStock holm
O h
Ġwor st
Ġcom fort
spe aking
Ġarr iving
Ġthink ing
Ġcongress ional
G ood
S mith
D irect
Ġin formed
ow der
Ġcom une
Ġnar rative
Ass ociation
ĠP iet
ĠH ir
ĠLe ic
ĠEvent ually
ĠO val
ĠWars aw
id en
ĠL A
ĠAl tern
Ġf abric
atin um
in os
Ġpo ison
Ġveter an
ĠG as
Ġac res
D ay
M ur
Ġlay out
ok es
oy age
el ed
ĠPhil osophy
ij a
Ġrif le
ĠM ull
ick en
ess e
ĠRevolution ary
ĠHend erson
el ly
Ġs ailed
b et
ĠLi u
Ġunivers e
ĠBa iley
Ġob lig
ĠW he
ĠFilm s
ĠOb serv
o il
ĠM ade
ats u
it ro
Ġv el
Ġsub sc
ish a
Ġgro ss
ĠW ings
Ġfavor ite
" :
Ġin ternet
ĠS ylv
ĠConc ert
Ġwind s
as hes
ang ered
Ġremov al
ĠCh i
Ġport rait
Ġin hib
ĠInter view
M ult
Ġdis aster
Ġhelic opter
ĠTh under
Ġfilm ing
Ġby pass
ĠPr ison
ĠK ash
Ġdistinct ion
Ġdelay ed
Ġaff ect
ĠW orth
Ġthan ks
Ġguitar ists
Ġimprison ed
Ġc odes
ĠMar ines
Ġans w
Tax a
Ġpar ishes
atter ed
ster ious
Ġupd ated
Ġph osph
Ġsh ield
iat ric
I R
Ġel igible
Ġrecru ited
ĠW here
ul ates
Ġcon ven
Ġparticip ating
ĠRem ix
ĠEll is
Ġout break
Ġbatter y
Ġvar iable
ĠS ex
Ġrefer ring
Ġdis order
Ġh ospitals
Ġdem ands
Ġess entially
O P
Th rough
ĠJama ica
Ġfight ers
Ġg ear
r age
ĠK itt
oy le
ĠSh ield
ĠKaz akh
Ġpl astic
it an
ĠPr inceton
Ġdefend ers
ĠM ine
c ott
ĠG amb
yl an
ĠF oot
Ġinterp re
ol and
ĠAr med
Ġrele vant
Sc ot
i ott
Ġlo ad
A v
Ġins ects
iz ard
ĠBrad ford
ĠHigh land
Ġimpro vements
ĠF at
Ġbl ind
ĠSch w
Ġgl ac
p y
ĠC ome
Ġtar gets
Ġfin ance
Ġchem istry
Ġal ien
ond e
ĠShang hai
Ġdep ict
og ical
Ġs iege
Ġanch or
ĠJ erem
Ġpre y
ĠMot ors
up s
M in
ul atory
uch i
Ġbreak s
ĠMig uel
ĠAbd ul
Ġrev ol
Ġmeas ured
Ġm it
Ġpersp ective
ine e
Ġpione er
Ġt um
Ġart work
ĠCath olics
n amese
Ġra ising
ec raft
u ador
Ġch rom
am ation
Ġbre ast
te es
Ġchalleng es
ĠAir craft
Ġ186 9
Ġgrand son
Ġm inistry
am ine
Ġfriend ship
ĠJac ques
ĠB ag
ĠMos es
f ast
Ġart ificial
od ed
ĠAp ollo
Ġa thlete
Ġm ilk
Ġphot ographer
r ary
arm s
Ġ8 4
ĠAir lines
Ġconsist ent
ĠDou g
Ġexhib it
el ing
Ġen rolled
is ons
ĠN as
ard i
ĠRe form
r ates
Ġadminist ered
Ġexact ly
F B
if ax
Ġdr inking
Ġatmosp here
b eat
Ġfor g
ath i
Ġfund amental
ĠDe uts
Ġenc ompass
in ery
ĠEp iscopal
Mod ern
f eat
ĠFran z
Ġthe ories
ber to
Ġcomp ounds
en o
ĠSeb ast
Ġco operation
Ġport ions
ĠUnivers e
i ago
Ġneighbor ing
ĠP ain
Ġm orph
in ts
Ġrel ating
ĠR af
ĠA ch
for ced
ow ing
ĠV ent
Ġ8 7
imens ional
ĠLith uania
Ġmain stream
ĠE C
Ġvirt ual
b in
ĠC inema
ap ing
Municip alities
Ġpresent er
ĠS ou
Ġdecor ated
Ġemphas is
Ġd iet
ĠEd monton
ick ing
Ġret ro
f ight
Ġp ale
ĠP ent
ĠBel arus
ĠTh orn
Ġdram atic
ge bra
M E
P rior
Ġs ure
Ġ9 4
Ġcomed ian
ĠS I
ĠV isc
ona ut
uss els
Ġf er
Th at
ĠShort ly
um ph
z ig
ĠF ul
Ġtour ism
Ġind oor
l ived
ĠFour th
Ġang le
ĠS ony
ĠCard iff
Ġin put
Ġbomb ing
ap est
ĠFr aser
B road
Ġattack ing
as se
Ġf iles
ed e
Ġb ats
Ġvolunte ers
iet ies
Ã Ĺ
Ġbel t
Ġs ick
Flor a
uch y
ĠSl av
ĠHop kins
ĠRo osevelt
Ġf lex
Ġd eter
Ġre ducing
oc als
ĠCom edy
ĠHol mes
ie v
Ġsug ar
Ġf ert
col m
ĠMer it
Ġpredomin antly
ĠLuc as
S em
Ġg host
Ġdec k
icy cle
am y
ighth ouse
Ġb ars
Ġto ll
ĠAn tar
is an
Ġqu een
ĠLe ft
ĠDist inguished
Ġarr ive
Can ada
M ex
ĠCr us
ĠPr ague
Ġrad ar
ĠWest minster
Ġaccomp any
Ġpre v
Ġcoin c
ĠDur ham
ur ated
Ġ8 3
F red
es a
Ġwas n
ĠC S
unn ers
Ġm emor
ĠBre ak
ĠUn til
ro id
ĠEd itor
pir acy
Ġco ffee
Ġorgan ic
Ġf ame
Ġfail ing
ep s
Sp ecial
ĠPublic ations
Ġtor ped
M ah
W ater
L ike
M o
Ġâ ĨĴ
ĠThe ory
Ġfe ud
Ġcon vert
Ch icago
n on
ĠĊĠĊ ĠĊ
ux iliary
ĠK as
M D
C or
ĠD y
al ks
ĠCom bat
ens en
Ġproced ure
Ġmiss ile
ĠCamer on
ĠCh ad
Ġcompos itions
art ed
Ġman ip
Ġz ero
Ġgoal keeper
Ġdocument ed
Ġn est
ild a
Ġw arri
ak k
F oot
s burg
in as
19 11
ĠAn at
ĠAdv anced
Ġarchae ological
ĠS ep
ĠV il
Ġtele phone
ĠLuther an
Ġholid ay
ourn ey
ĠGi ovanni
ĠNew port
ĠL oren
ĠV II
ĠMc N
Ġpe er
Ġcolumn s
Å Ļ
ĠAr d
ĠLouis ville
f red
Ġass um
Ġimm igration
ĠL ok
Ġp y
ibl ical
ĠBened ict
ur rect
Ġemp ire
ĠAh med
ĠTrans l
Ġ184 8
Swed ish
Ġempt y
Ġc yl
clud es
umb ent
enc ia
n t
ĠEx ped
ĠTh or
Ġpost er
8 00
g io
ĠO z
ic ia
ĠS ey
Ġj ury
m and
Ġdef ended
Ġsuppl ied
Ġdoll ars
Ġbel ongs
Ġch orus
ĠEv angel
ik ing
P e
ĠH ood
Ġjud g
F ac
Ġtrans it
Ġcoal ition
ĠFor um
Ġski ing
ĠM obile
Cath olic
Ġl ib
ĠMar x
Ġastr onom
ĠBl ake
Ġpres ents
onn y
Ġthr iller
Ġto x
ĠHer o
C le
ĠAgric ulture
ĠMan ila
ĠMon ey
Ġs itting
Ġp ub
ra pped
ĠCom merce
ĠCl if
ab lo
Ġcompris es
ĠOt to
p her
ĠKenn eth
ĠA w
ĠH ous
ĠManit oba
Ġcomput ers
Ġtest ed
Ġexpl icit
s up
Ġconf used
amp ire
eg ovina
Ġsimultane ously
Ġg ift
Ġseem ed
Ġvol leyball
oun s
Ġcollabor ated
intend ent
ĠVol unte
Ġmonth ly
Ġcoin s
ĠHit ler
ĠC rist
Ġdet ail
Ġin struction
ĠBr as
Ġ8 6
osaur us
Ġh ttps
Ġinstall ation
Ġin stitute
ĠFran co
z ed
Ġp or
et ary
is che
ĠCor p
od ia
Ġcons cious
oc es
oc ent
Ġcivil ians
aid en
Ġtouchdown s
âĢ ł
ĠS oci
Ġd ogs
str act
B rien
ĠH iro
Ġ( '
Ġsoci eties
Ġt one
ĠB ark
ur us
ĠFinal ly
Ġed itors
Ġne arest
ĠArch ae
R em
Ġb ell
ĠC itiz
ot ing
ĠL isa
ĠWar ri
St at
Ã¡ r
ĠSim pson
Ġche ss
Ġtax es
ĠAber de
Ġcom ments
ĠKing ston
W in
Ġ18 00
ĠDou ble
Ġr ice
Ġvo iced
el o
an z
ĠWrit ers
Ġwar fare
M att
or um
ĠJ ung
Ġsh orter
Ġf erry
aj i
Ġp ir
Ġben ch
Ġobject ive
A tt
ĠCan terbury
Ġsculpt or
ĠC ust
g roup
ag ger
Ġr ivals
Ġrac ial
! !
Ġkill s
found er
ĠG and
H P
Ġpian ist
ad os
Ġh appy
ĠDivis iÃ³n
Ġsup plement
ang ular
Ġst olen
C arl
ĠD oll
Ġst ere
b ank
qu et
Ġm emb
ĠG am
Ġc ow
ĠH od
hab ilit
ĠPo ems
in ia
B a
ĠA ur
O W
Ġkn ee
ĠArm strong
Ġfeel ing
ĠGram my
ĠX V
W ood
el en
ĠEngine er
Ġprin ting
Ġpl acing
Ġf iring
ash ire
com mon
ĠMet al
ĠI T
Ġfram ework
S everal
Ġg ran
p es
Ġres ol
ĠWed nes
ĠD und
ĠMo h
M ore
ĠL if
ĠEm my
Ex t
Ar thur
Ġreg ulation
Ġsp ots
Ġvo ices
ĠR ush
Ġel abor
Ġtri ple
m ade
Ġth rew
v ard
Ġindic ating
D is
Ġp overty
W ind
land o
uis ine
e apolis
on ey
Ġunder went
Ġaut ob
ĠK or
Ġceleb ration
iff e
Ġphilos opher
Ġinhab ited
L os
ast ics
Ġ185 9
Ġent reprene
Ġgra ve
Ġh yd
Ġcr u
ĠIn itially
ĠAr ms
ĠWarri ors
int ers
Ġwid ow
Ġprogress ive
Ġautom atic
Ġext ends
ber y
ument ary
ĠGrand e
Ġtechn ologies
ĠB ran
ĠF al
Ġexpl ain
amb ers
ce ph
Ġt enth
Ġcasual ties
Ġp ushed
ĠP or
h ad
ĠT ake
Ind ia
u er
nold s
U l
anc ers
ĠK iss
S ec
in f
T echn
Ġren owned
Ġconce pts
Ġimp ossible
ĠWith out
ĠRes erv
epend ent
l ov
Ġsim ul
Ġprison er
ff bb
Ġ9 1
Ġnam ely
ĠR ut
Ġ185 7
K A
at um
Ġexper iments
ĠF un
Ġtheat rical
ĠP iano
Ġfor th
ĠE RA
Ġasp ect
ĠPict ure
ĠLabor atory
Ġconvinc ed
ed ge
Ġacc um
Ġtal ks
iff s
Ġl ights
Ġfre ight
Ġs av
ĠN ak
ĠGl ass
ĠC F
Ġfor ty
Ġair field
ĠX X
ĠSud an
Ġevent ual
ĠCow boys
' )
le z
ĠA B
ĠSh adow
Eng land
b ler
ĠR ab
ĠTri ple
Ġtravel ing
Ġpros ecut
ish n
St ep
Ġf raud
ĠC yr
ateg ory
Ġtribut ary
ĠG erald
ĠBrown s
Ġman ages
ĠSh ore
Dem ocratic
Ġst eal
Ġv inyl
ĠTr in
ĠWinn ipeg
F re
is le
Ġdivor ced
Ġdro ve
on te
ist ing
ĠNot re
Ġb orrow
ĠJul ian
C P
m ount
Ġor ange
ĠMar in
Ġtro uble
ĠEd mund
ar ts
âĢĿ .
ap a
Ġdevelop ments
M er
Ġaf ternoon
ĠPal m
it udes
a very
ĠGib son
ĠW inners
ĠPalest ine
ĠH aving
Ġhard ware
Ġneighbour ing
Ġrestrict ions
Ġfor wards
Ï Ħ
F in
ĠD uncan
ĠId aho
Ġdiplom atic
Ġver te
Ġwill ing
Ġput ting
Ġanal og
av i
H ouse
I F
Ġc ounsel
âĢ ľ
ĠV id
C ultural
ĠS H
Ġassoci ations
ĠI P
Ġ ),
Ġc iting
ĠA ub
ĠD im
inem at
Ġmid fielder
Ġseg ments
M ike
Ġgu ards
Ġp ill
ĠAmb assador
ĠA ven
ul ous
Ġsh aring
Ġcolon ies
Ġmaintain ing
ĠM echan
Ġfam iliar
Pl aying
id ance
enn ium
Ġsign als
ĠNap les
Ġse eds
Ġfair ly
Ġhand le
Ġanal yst
N P
Ġam ounts
stan bul
Ġs ending
Ġsc iences
Î ½
arch y
e or
Adm inist
Ġc hest
Ġreb ellion
Ġrefug ees
Ġoper ators
leg raph
Pres ident
ig i
ĠMar l
Ġair line
w ord
hold ers
ĠK aren
ĠE state
arch ive
Ġpost hum
Ġy ard
ĠEn s
G S
Ġs oph
H ome
Ġ18 30
Ġimpro vement
ĠMoroc co
D E
Ġlearn s
Ġres ource
ĠCro s
ĠM iles
ĠSp ect
Ġsax ophone
Ġst ake
st ock
bor g
G re
Ġvar iants
Ġgraph ic
he ld
ĠRail ways
Ġspec imens
ĠHerz egovina
W il
ĠC anyon
ĠA chie
Ġas king
Ġattract ion
ĠJust in
Ġwork er
ĠC ond
ĠPasser iformesFamily
ĠStat istics
ĠHamb urg
Ġbe ars
ĠK ind
M at
ĠCurt is
Ġinter action
Ġst ored
raz y
ĠUr ugu
ĠNA SA
le ston
Ġdispl ays
ar in
Ġas k
Pol ish
ĠInd ex
Ġd in
Ġsw ord
Ġconsum er
ĠR he
S at
aw s
he y
à ¥
w ind
Ġc ogn
Ġb rew
Ġval uable
ĠC ann
ĠD ale
Ġl ig
Ġnational ly
Ġf aces
es ar
Ġp airs
ĠD as
ĠSl oven
ĠMarc us
Ġrece iver
Ġp icks
Ġmain land
ĠWe i
ĠRed s
Ġprep are
m akers
ĠP orter
Ġdef ender
Ñ ı
Ġcut ting
Ġconsum ption
ĠAn a
ĠGram mar
in ted
Ġcont racts
Ġdef ending
kins on
Pl ace
J ud
il ion
Ġvar iations
ĠMonteneg ro
ph abet
Ġcur riculum
ĠSol omon
ph an
in ks
Ġs weet
Ġdep ression
Ġl iv
Ġl ift
Ġmus cle
g reen
us a
ĠE ye
ĠAn y
Ġent ity
Ġfall en
Ġox ygen
Ġrenov ation
ab we
uk u
Ġsac rif
Ġread ers
ĠEngine ers
B er
ri fic
en i
ĠC ly
Ġch apters
Ã ¯
uc a
Ġtransm itter
ĠK ol
ĠAdvent ure
ĠKum ar
if ts
Ġhead ing
htm l
B rown
ell ation
Ġman ual
c ity
Ġadminist rator
Ġcommun ist
Ġsuccess ion
Ġperform ers
ĠN ortheast
Ġpro of
Ġspe aks
utt le
ĠP owell
Ġhigh ways
ĠAh mad
Ġtow ers
Ġmamm als
m al
ĠS ikh
Ġjoin s
ĠPl aza
Ġs overeign
Ġthere by
Ġreleg ation
byter ian
w oman
Ġpsych ology
ĠC N
av ian
Ġbehav iour
ĠPrest on
Over view
r and
ĠH ull
Ġprot otype
Ġshif ted
Ġsk ating
Ġmanusc ript
V ir
reg ular
Ġphys ic
Ġpay ment
h ra
Ġf isher
ĠE ve
ID S
ä ¸
ĠTh ir
Ġment ions
ĠSaf ety
h im
Ġgrow s
D esign
s outh
ĠH im
ĠK och
ene ath
y ch
Ġtr ig
ro x
ĠExped ition
ĠM is
Ġro ster
e on
ĠGu ards
imb abwe
ĠGoth ic
b uilding
Ġl obby
ĠR an
Ġphil anthrop
Ġd ict
Ġt issue
Ġord inary
Ġhe m
Ġcollect ive
Ġnumber ed
Ġanal y
Ġfif ty
Ġmotor cycle
Ġlocomot ive
D i
Ġarch itects
ĠN g
S L
Ġl iver
Ġsem if
ĠBas il
Ġbeat en
b uilt
ĠS ons
Ġop ens
Ġsk ull
w id
ic z
ĠE yes
Ġab und
ĠW ool
ol an
umb ai
or ient
Ġs le
ist le
ĠPubl ishers
ĠEthiop ia
ĠAmaz on
b ian
ĠB il
Ġover lo
Ġrel atives
Ġfl our
È Ľ
ĠAl bums
Ġ. ...
D R
um ble
Ġf ung
op rano
Ġre ver
Ġconf ront
Ġpack age
Ġun em
ec ca
ĠTr ue
Ġt ube
Ġin tern
Ġgradu ation
Ġj ew
Ġarg ues
ĠML B
V ictor
ĠAm ateur
ĠRichard son
ĠR ank
Ġret ain
Ġwarn ing
Ġcan on
Ġemot ional
Ġrun way
ĠLanc ashire
ĠAnd ers
Ġmer c
M T
h urst
ĠF inals
Hung arian
Ġ" [
ett es
ĠPh D
ĠH oll
ĠP resent
Ġapp rec
Ġstat ements
Ġinf ection
Ġcontribut ing
c ard
Ġimprison ment
ĠK em
Ġmission ary
Ġfor cing
Ġh ole
Ġgat hered
sh ore
ou x
Ġbr ings
Ġdest ination
Ġbelief s
og o
ĠInd ies
ĠMon th
Ġforest ed
Tour ist
ĠJ ak
ĠE ff
ĠCong o
oca ust
im er
O f
Ġex ha
Ġsurviv ors
l ay
ore y
ant om
man uel
ib a
Ġ12 5
ĠEc uador
ĠBar r
P ac
ĠA A
ot he
Ġhand ed
Ġl aps
ĠL enn
ĠPolit ics
quir y
Ġdist urb
ĠB ever
ĠF BI
ĠÃ ĸ
Ġamb assador
Ġsust ained
Ġbas in
Ġdial ogue
ĠBron ze
ator ies
Ġlegisl ature
S B
ist ent
ĠW end
ĠC ut
T ime
f ive
ĠE is
ĠSant iago
Ã© g
Ġcr ashed
Ġassess ment
Ġcons ent
Ġown s
ĠRoberts on
C r
Ġt ertiary
at em
ĠH arm
Ġpat ri
Ġf aster
Ġre ward
F ort
Ġ( #
on ne
Austral ia
O ff
ĠS of
ĠLou ise
Ġperce ived
Ġcolle agues
Ġreform s
ĠRec ording
ĠLear ning
Ġw ish
ĠSur rey
Ġreven ge
ro le
Ġpun ishment
ass is
re v
n al
ard y
ik es
isc her
ad ia
Ġg ap
ly mouth
ĠG aelic
ÅĤ aw
ond o
Ġarch ive
ĠCont est
190 8
ĠChel sea
Ġsk ill
Ġcor ruption
nd ez
Ġc raft
Ġl ad
ĠR achel
ang o
Ġfound ers
Ġmain tains
Ġlaws uit
di ocese
over ed
Ġr uins
Ġfast est
found land
Ġdivor ce
ĠC av
ĠAd rian
Ġhand ling
Ġadj ust
Ġas h
ĠJ al
Ġun p
ĠRoll ing
Ġexam ination
ĠA ri
Ġalleged ly
ĠL ords
ĠEd gar
ĠViet namese
ic ism
ĠChief s
ĠP ied
ĠR ural
Ġprot agonist
im ming
and ro
Ġpat ent
m unicip
din and
ĠIn stitut
ĠFight ing
Ġb otan
alt ies
ĠH erm
ĠH its
Ġcut s
ĠSus sex
Ġtim ber
ar ium
Rep ublican
Ġh o
es ch
ĠGen e
ĠLes lie
ĠRoc hester
Ġunderst ood
ĠJ in
v ens
ĠN adu
rew s
Ġtri o
Ġfem in
c ul
ant es
ĠAgain st
Ġearthqu ake
Ġremember ed
Ġsh ots
anc a
h art
ĠBry an
S ocial
v y
ĠF antasy
ĠCl aud
B i
qu in
Ġch lor
ĠO st
ater al
Ġvar ied
Ġcult ures
cest ershire
pan ic
Ġproced ures
C ross
f ootball
ĠBur ton
op hers
n ai
ĠP ine
Ġeng agement
ĠMor rison
ĠV ale
Ġthir teen
histor ic
Ġachie vements
Ġst ick
all i
ĠSab ha
ĠHar bour
Ġre de
Ġprofession als
W ork
f a
Ġprevent ed
ĠD ob
ĠJul ia
Ġt ill
Ġtrans formed
Ġlif etime
Ġc ad
ĠUl ster
h anded
ĠK i
ed uc
ĠGh ana
ĠRod rig
Ġb ord
Ġpre fer
Ġline up
ist on
ĠF emale
ĠV eter
Ġun incorporated
Ġen act
ĠPl ate
ĠMc Donald
Ġsusp ic
ĠP orts
âĢĿ ,
Ġmat rix
ĠR ib
Ġcomple ment
ĠL odge
ĠW it
ĠN intendo
Ġj ail
Ġaware ness
st able
ar am
Ġpresent ation
ad h
T ex
Ġeff iciency
Ġh unt
ĠB erm
ĠW A
Ġconfl icts
ĠS uff
Ġs ulf
gr im
Ġspecial ist
k ers
Ġr iders
Ġbo ards
Ġupgr aded
Ġcompris ing
Scot land
ic ity
ĠI gn
ay ette
ĠG ren
Ġexhib itions
at ics
Ġb are
Ġpres erve
m ail
Ġd rain
Ġmur ders
ess a
Ġdies el
E th
Ġno ise
mun ition
ĠRe ich
ĠC ort
Ġunder graduate
Ġw ore
Ġref lected
Te am
G reek
ĠW ander
Ġsur prise
M ot
ĠA FC
Ġsever ely
m ology
Ġindepend ently
ĠH ass
Ġrevers e
ĠPl anning
bo oks
erb ack
Ġinterest ing
Ġsit uations
Ġg aining
Ġbankrupt cy
e o
Ġent ries
Ġstory line
Ġmix ture
Ġenroll ment
j ar
Ð ´
in op
ĠBet ty
ĠSc reen
et ics
Ġbar rel
m ons
id ay
R ay
T T
ol ine
enti eth
D ue
um ped
ĠVir t
ĠM am
oret ical
Ã¤ r
ĠD ylan
ell ers
Ġdis appeared
ĠCar roll
Ġrecon struction
ust ers
Ġinter mediate
ĠRaid ers
ĠI TV
ĠD atabase
Ġinv ented
ĠS ent
ĠA L
ep age
ĠRet rieved
Ġemploy ee
ĠBund es
Columb ia
Ġmod erate
Ġgirl friend
ĠVlad imir
Ġor b
Ġend ings
Ġinter face
ĠLind a
Ġchalleng ed
Ġmolec ular
Ġd iamond
ĠY an
B ox
Ġin ject
Ġe le
ĠM Ã©
ier i
ros se
Ġbatt ing
re cht
Ġs id
Ġext ending
Ġlabor atory
d ing
Ġto ler
ĠW ant
ĠFrank furt
stad t
ĠHal ifax
O pen
Ġt ip
ĠCom plex
ĠPro per
Ġfl ank
Ġsurre nder
Ġmer ely
Ġdepend ent
ĠV a
ĠLe vel
Ġsh arp
ĠAb original
t or
Ġfew er
Ġlight ing
H E
v ideo
ĠTh r
Ġst yl
ĠAl pha
Ġgen es
Ġrequ iring
ain es
f ounded
Ġleg it
Ġrequire ment
c io
ĠLanc aster
ĠRey nolds
Ġb inding
Ġachie vement
Ġqu iet
ĠJ ets
let te
Ġex port
ah u
Ġaccur ate
t ail
ĠT roy
p ath
Ġb er
ing le
pt on
Ġvol unt
an ing
Ġdel iber
on al
Ġc ouncill
ĠM ast
U P
Ġpr ayer
op ing
ĠK w
ĠGl ou
Ġrepeated ly
Ð ¹
Ġhon ours
ab i
d orf
ore m
ĠWrit ing
Ġmyth ology
Dan iel
al in
ĠMem phis
ĠG P
ĠFern ando
Add itional
Ġserv ant
Ġinvestig ate
ĠEug ene
ch ief
ĠBl oom
Ġalleg ations
Ġpass ion
ĠSem inary
ĠMalt a
air y
Ġra id
Ġgener ations
Ġdub bed
C zech
G od
c ap
Ġbass ist
ĠN ame
ĠGl obe
Ġam pl
ax y
ĠG em
Ġshould er
ur ai
am ar
ĠGl enn
ĠJenn ifer
e i
ĠK ids
Week ly
ĠL R
ir ie
Ġfour teen
ant o
ĠMinn eapolis
Ġreserv es
Ġ10 5
ĠH alf
a uthor
pr ises
ĠHe ath
ĠTw enty
iv ities
ĠCh ase
Ste ve
z an
Ġhoriz ont
ĠSk i
ĠN SW
Ġreal ized
ĠMil ton
Ġdisp ers
Ġsh ock
Ġrec re
ĠTown s
Ġ185 5
enz ie
Ġexecut ives
S pe
Ġplay wright
Ġd ancing
ĠBrad ley
ĠM ile
om ar
row ing
ed ar
Ġsc andal
Ġfarm s
enh agen
i ad
ĠC rystal
ĠN orton
ĠSalv ador
Ġeditor ial
ĠL iv
ĠG Ã¶
ov i
ĠCh ange
pro duced
ĠC B
ĠM om
Ġgovern ing
ĠBl u
ott a
Ġ185 4
ĠPak istani
Brazil ian
Ġdec e
ĠLuc y
Ġcitizens hip
Ġpregn ant
Ġf rog
Ġm ouse
Ind ividual
Ġsudden ly
Ġthe olog
el ong
amb a
Ġvul ner
Ġj et
ĠBr ussels
Ġsimilar ly
ĠHead quarters
J ac
Ġint ense
ble m
F ar
ĠL ey
ĠD um
Ġper mit
ĠBright on
East ern
ĠWind sor
Ġrenov ated
iment al
D I
i em
Ġvol cano
Ġdeal ing
Ġ1 21
ĠN atal
Ġst ones
Ġvers us
Ġstret ch
ĠL av
ord e
oy a
l ined
ĠD w
ĠL ic
ract ed
ĠN urs
omet own
ĠDay ton
2 50
Ġpract iced
Ġstation ed
S en
L iter
ĠM uk
Ġ185 8
Ġd iversity
Ch ief
Ġvar ieties
b ase
d em
Ġt asks
Ġag es
ĠTh ings
Ġend ors
a que
Ġfocus ing
ro ve
ol ith
Ġequ ation
Ġlegend ary
l ag
ĠR ules
h ot
Ġpriv ile
W inners
ĠCr iminal
Ġf ract
Ġprom ised
Ġs oc
ĠWes ley
Ġon wards
Ġind eed
Ġoccas ional
Ġd anger
Ġch ore
Public ations
Ġlibr aries
Ġsign ature
ĠHur ricane
ĠZh ang
Ġcl ient
ĠRom ans
ĠPhys ics
à ®
rid or
ĠSac ram
d ays
Ġn i
Ġsurv ival
Ġsuburb s
ĠG overn
Ġref uses
ov es
erg us
ĠK ang
Ġch ronic
190 9
attal ions
ĠRaj a
ĠBed ford
ĠTasman ia
per t
n Ã©e
Ġt ag
ĠM umbai
ĠStaff ord
Ġ13 0
ĠBra ves
Ġcomp act
m ay
Ġor al
Ġperson alities
ĠIndones ian
ĠEll iott
ar ag
Ġserious ly
Ġadd ressed
ĠC anton
l ast
De velopment
Ġcelebr ate
S o
ĠNe igh
R E
af ia
Ġcust omer
cast er
ĠC H
Ġprin cess
Ġd ancer
sc reen
rest rial
ĠMal colm
Ġsymb ols
Ġwid th
irl s
Ġen lar
ĠRes p
Ġen listed
Ġmy sterious
ĠTest ament
Ġc osm
ĠW ick
Ġexhib ited
ĠBar nes
he nd
ator ial
st age
uls ion
Ġ7 00
app a
Ġdev ast
Ġgener als
ow l
ĠClass ical
ĠPop ular
ĠK erry
Ġdiscrim ination
Ġloc ality
Ġsol utions
ĠSing le
ĠD iana
erg arten
k u
Ġc ens
ĠNew foundland
Ġpop ulated
viron ments
clus ive
ĠS ap
Ġsit com
Ġprest igious
Ġsp ar
Ġfollow ers
ĠS elf
ĠL ah
ĠAr senal
ĠR ican
Ġagre es
Ġmathematic ian
n ick
Ġden omin
ĠAmer icas
iÄ į
f old
qu al
Ġsix teen
ĠÃ ł
ĠA my
ĠF am
ĠJohann es
Ġcont ribute
Ġcre ates
ĠS ett
ĠR NA
Ġ3 60
g ae
E lections
so le
Ġp orts
Ġprov isions
Ġvolunte er
at aka
Ġcr uis
ĠW ord
Ġr idge
Ġw aves
ĠF ant
ĠF actory
ard ed
Ġhydro gen
ĠWednes day
ĠEx cell
Ġb achelor
ĠCh uck
Ġconduct ing
ĠBey ond
ĠBC E
Ġrival ry
r ina
Ġfor b
Ä Ľ
Ġm igration
T oday
Ġsp ac
lin ing
ĠCont inental
Ġsusp ected
ĠR ica
ĠY a
Ġsp an
Ġadvert is
ĠK urt
Am ong
f ol
M il
Ġauthor ized
ĠStr at
ĠBul ld
ĠFellows hip
Ġpost s
ĠAlexand ria
Ġbur ial
um en
ĠSt akes
P M
Ġimm un
J ean
Ġa ims
ĠS earch
Ġal tered
Ġact ively
Ġtransl ator
Ġaer ial
ĠAberde en
ip her
Ġex ile
Ġeng age
ĠC u
exp ected
S F
ĠB ody
oc o
Ġst aged
Ġ185 6
. ).
ĠA th
Ġkill er
Ġh ub
Ġsepar ation
ĠL ink
Ġcon stitute
Ġkn ows
B ut
ou ra
H a
h alf
ĠCol le
Ġabsor bed
ĠM ale
ĠPro ducer
Ġprof it
ĠAlb any
Tur k
Ġdecre ase
Ġwa it
Ġte a
t itled
15 0
Ġd ying
Ġhom osexual
Ġse ized
erg round
h as
aur us
Ġsequ ences
Ġdoct ors
ĠP s
Î ¹
ĠB rent
Ġ185 1
190 5
S eries
ig ate
Ġ- -
Ġcirc ulation
Ġdram at
Ġnickn amed
ĠNever theless
ĠSic ily
ce pts
at z
ri um
Ġapp rent
ĠMaced onia
ĠForm ation
Ġt ut
ĠB ren
ĠI L
ĠW ik
Ġadvoc ate
ĠMidd les
Ġc uisine
Ġp ond
ser ver
erm o
Ġqual ification
ĠParliament ary
Ġrest ore
Ġl anes
ĠU tt
Ġmy stery
Ġant icip
h ou
ĠCap itol
cles iast
ĠIn side
Ġel ite
Ġcor ps
B ecause
J ul
ian e
ĠI F
Ġgr id
ĠRich ards
M useum
ĠD ud
ĠCub s
c z
ĠTe h
ĠEll en
ĠKenn y
eck er
L ord
Ġrevolution ary
Ġant ib
inn ed
ĠWag ner
Ġl ie
Ġcal endar
ĠK ann
B ul
Ġdown load
isc al
Ġclos est
ĠLyn n
e u
Ġobserv ation
ĠM ater
war f
Ġinteg ration
Ġimpress ive
ik er
Ġteam mate
Ġob sc
ĠGriff ith
ĠH ave
ĠI BM
ot ted
h uman
Ġ Âł
Ġf ran
ĠM ob
ĠAchie vement
velop ed
ĠN an
ĠD E
Ġup set
Ġflo ors
ĠL eop
ĠB end
Ġ <
ĠA str
Ġstr ings
Ġstre ak
Ġencounter ed
Ġmans ion
Ġ185 2
Ġf ate
Ġex chang
ars ity
Ġpsych ological
Ġinsc ription
Ġb old
ĠCo hen
l ore
od on
Ġconj unction
d istance
ĠC ert
ch ant
ath am
ĠEm ily
th ree
ĠE k
ĠFer dinand
municip ality
Ã °
Ġn erv
190 7
Ġaccess ed
od s
Â ²
Ġcol ours
Ġmut ual
Ġh ier
ric ia
190 6
L es
Ġdem anded
ĠMon roe
ĠCar m
Ġm ail
ĠD awn
ll a
Ġart if
ĠEd ge
Ġcommit ment
it ious
ia z
B attle
E ach
atter y
Ġdoub t
ĠJam ie
Ġv ital
iss ued
Ġrev ived
Ġens emble
ipl oma
ĠW C
est rian
Ġjud icial
Ġgovern ed
Ġexplos ion
ĠTri p
t es
Ġinter vention
ĠJul ie
ac ular
ĠHe at
Ġperson ally
s l
Bel g
quarter ed
R h
Ġassass ination
Med ia
As ian
Ġg rants
Ġdesign ers
ĠLith uanian
ĠSoft ware
Ġcon ferences
ard e
ĠSpring field
Ġgu idance
Ġc ir
Ġreserv oir
Ġbroadcast er
ã Ģ
Ġshe ep
Ġ185 3
ĠBurn s
Ġship ping
b irds
ac iÃ³n
Ġstand ings
que z
Foot notes
ĠL ogan
oc he
Ġor bit
ĠGreat est
ĠBel le
om al
onn ell
bre v
N atural
ag ogue
az ar
cl osed
M ill
ĠM old
ĠL etters
Ġflu id
oot ing
ĠR anch
Ġcreat or
Ġrain fall
ĠT ank
Con struction
Ġder iv
Ġveget ation
Ġmon ks
s elling
C ulture
al ter
Ġp ush
ĠMar ion
Ġaud iences
Ġmilit ia
ug a
C itations
U T
ev ille
ĠTre k
J eff
Ġh az
Ġcur ve
ĠLiber ation
Ġstrugg led
! ,
ĠSup erman
ĠV ision
Ġst int
ĠK ad
ĠCab inet
ĠC od
ace ous
ant le
ĠH off
Ġconcent rated
M id
Ġbe am
g ang
Å Ľ
al bum
duct ive
Ġper former
ĠPres byterian
Ġinterpre ted
Ġtransport ed
pen se
ĠB ot
ĠRe id
Al so
Ġstri king
in is
ĠD ry
Ġrad iation
Ġwar bler
ĠF ut
Ġunivers al
ĠG ospel
ack ing
wa it
Ġter rain
b oth
c ats
Ġre actions
ĠP am
atri ates
it ory
Ġrock et
âĢ ¦
Ġsec ular
190 1
Ġtrav elling
as ium
ĠB A
ĠEp isode
D own
ĠPalest inian
C op
ĠHay es
Ġco ord
ĠJ ourney
Argent ine
Ġmission aries
Ġbe er
Jo e
ist o
ag ne
ĠP lymouth
Ġacqu ire
Ġencour age
P ak
Ġalign ment
Ġjournal ism
ĠHeavy weight
ar g
Ġsh aped
Ġen abled
Ġpriv ately
Ġaut umn
Ġrot ation
ĠM oss
Ġbi ology
en ary
Ġsac red
Ġrecept or
ĠJohn s
Ġreve al
Ġscreen writer
Ġre join
ch annel
c us
ĠE in
er os
Ġm ic
ĠCh amp
O l
ĠH els
ĠV III
Ġsuggest ing
en ic
Ġd ors
et z
ĠUS SR
Pr ivate
ĠAlb anian
can ic
ĠC lement
ĠNew man
yt ic
j ud
Ġmet ab
Ġqu oted
arri ages
Ġwithd rawn
M ax
Ch ris
L E
o an
Ġthe ology
ĠF iji
commun ications
n ov
on o
Ġ184 7
Ġper pet
F ellows
Ġ184 9
Ġc otton
ĠNot able
as an
Ġhon ored
S M
Ġh ometown
ĠNob el
Ġn aming
ĠZ imbabwe
ĠHaw ks
B B
ĠEm b
C ivil
ĠHun ting
ĠC ash
ĠG at
ri o
ĠInt eg
ĠB rom
B ook
ĠC ool
Ġaccident ally
Sp ace
ĠCarol ine
ay ers
oun ce
p it
Ġre opened
ĠOr lando
arth y
ĠAg re
ĠN ote
Ġwhe els
uct ure
ĠMar tha
Ġfind ings
ĠJohn ston
B ad
ĠM ing
Ġal tar
Ġ18 12
ortun ately
U N
Ġle ase
Ġdiplom at
ĠN acional
m ember
v as
le igh
act ical
ĠStr ateg
ĠC ord
Ġ1 17
ĠBur ke
ĠH ap
ĠSp art
ĠGen eration
h or
ĠTerr or
h ops
oc ity
Ġcl ay
Ġend emic
Ġvar ies
Ġcou pl
Ġbank ing
G N
ical s
Ġj ack
Ġcrit eria
á ĥ
ph ant
Ġinter im
Ġrecogn ize
Ġmin eral
ĠRepublican s
in ite
ĠBron cos
L ocation
Ġde als
Ġspec imen
ĠE t
ĠJud a
au f
ĠMur der
Ġdecl ar
ĠH IV
aw i
Ġsail ing
Ġth rown
Ġdis orders
ĠS amp
Ġen vironments
Ġs in
id an
A ut
an an
ĠN ass
Ġconsid ering
ount ain
Ã± o
Ġpot entially
ĠDor othy
Ġen able
S outhern
il ogy
Ġal umin
yl um
Ġo v
Ġtra ils
ĠChar ter
ĠH appy
Ġ184 6
Ġanth ology
wid th
Ġt ier
ĠV ij
Ġhop es
ĠCour se
Ġabs ent
ĠChron icle
Ġb ore
S er
ĠFil ipino
ĠA ce
ĠR ee
itor ium
u ate
ĠSen ators
Ġrec urring
che l
ĠHer oes
Ġconqu est
ĠS pl
ord inary
Ġfl av
St an
og g
ĠTr uth
Ġsubsp ecies
Ġp ump
Ġâ ĪĴ
ĠJo el
ĠCar lo
b ot
man s
Ġper m
Ġsurre nd
ĠP GA
asc ar
ĠPop ulation
ĠBudd ha
ĠCraw ford
st op
ĠGen eva
L iber
in ating
Ġh itting
un i
ber ger
Ġrel uct
Ġtalk ing
ĠWol ver
Ġconstant ly
Ġmagn etic
Ġth orough
Ġsole ly
ip ur
Ġident ification
Ġnation wide
Ġrenew ed
am as
ĠBir th
Ġpurs ued
ĠLy on
Ġshel ter
Ġterrit orial
Ġexp anding
ut ing
ĠSpeed way
zy me
un ting
ĠG ir
all a
ĠCol lect
Ġbusiness people
ĠD j
ĠW aters
ĠR T
ĠNe ed
] .
up e
umb ers
play er
gr and
Ġab brev
Ġdr ag
P ier
ĠBro ck
Prot ected
Ġhost ing
al id
Ġm a
im ony
Ġar bit
che m
ĠK end
Cal ifornia
Ġcatal og
ĠMan or
Ġaccompl ished
Ġboard ing
Ġeduc ator
J on
Ġcl othes
ĠAnd rÃ©
Ġpl ates
ĠI stanbul
I ts
S hips
Ġqu e
An t
A z
ĠQu artet
ĠM oor
Ġdecre ased
Ġconfig uration
ran ger
og ram
Ġrele asing
ĠB alk
Ġtrans p
Ġph on
ĠÄ Į
ĠTh an
ĠY uan
ĠRecord ings
ĠBo hem
c al
ĠD iet
ep pe
190 3
ate ver
Ġcl ients
Ġro okie
ĠRock y
Ġcor poration
Ġhon ey
G P
Ġf ires
Ġst roke
Ġst ability
ĠMar ian
Ġexper ts
Ġo ct
Ġ18 37
Ġsk y
ĠTo o
A rab
ak ov
form s
d imensional
Ġdeep ly
Ġre ass
ĠEm ir
Ġm arsh
ĠMc D
Ġlit erally
Ġalgorith m
ĠSouth west
ĠBuddh ism
ĠLiter ary
t ons
ĠAr n
cl ub
Ġopt im
Ġtarget ed
rib e
Ġthe or
Ġ18 0
ĠK ot
Ġw ound
Ġsc hem
ĉ Ċ
Mart in
, âĢĿ
ĠG y
ĠÅ ½
U k
Ġa uction
ĠGeorg ian
ĠF an
Ġair ing
ĠW ake
Ġam munition
Ġs aint
Ġinc umbent
Ġsl avery
N FL
Ġsett le
ĠHug o
ĠK om
orm al
sk a
ĠAdd itional
d an
Ġc oc
Ġform ats
ĠCop a
ĠThrough out
Ġkit chen
atern ity
7 00
ĠZ en
ĠBe a
ĠFace book
ĠWals h
oc hem
Ġtro ubl
. ;
Ġra pe
Ġexp atriates
Port ug
Up on
ĠAn imal
Ċ ĠĠ
Ġnot ing
Ġman or
Ġcul min
Ġbe aring
ut z
Ne igh
uras ian
Ġcons ec
am bo
ĠH ern
ect ives
ost ic
F ree
l ies
Ġb apt
Ġl ux
omin ated
Ġrecon struct
osa urs
Ġmess ages
S erb
s ince
ĠInsp ector
let cher
Ġdem ocracy
AT O
ĠP Ã©
Ġsoutheast ern
h ow
r ights
Ġb eneath
ĠBas in
Ġfort ress
ig rant
ay e
ĠD erek
ag ara
Pl aces
et ric
Ġsub urban
strument al
Ï ģ
ĠT yler
ri pp
Ġtour ists
ĠLud wig
t el
Ġs hed
urs day
ĠT ask
ĠThe odore
ĠPro f
Ġspec ified
Ġthreat s
ĠCop enhagen
im an
cl air
ĠCom plete
Ġdoct rine
L ocal
Ġs ke
art z
ĠBl air
Ġconc urrent
ĠTun is
Ġpra ise
L uc
d u
Ġl ung
Ġs ew
od ing
add le
Ġ es
Ġcle ared
Ġstrong er
W ild
ĠSy rian
Ġacknowled ged
Ġcongreg ation
H uman
S ide
Ġn erve
Ġcolon el
Ġhop ed
Ġstream s
C O
Ġ ic
Ġd ella
Ġtrans formation
Ġl ac
ĠNord ic
ash tra
na issance
Ġprec ip
oc ate
Ġun anim
ĠVisc ount
ĠT i
Ġbul k
Ġb ones
Ċ ĠĠĠ
is i
ĠS leep
em por
Ġeas ier
ĠMid lands
ĠH il
ir its
ĠPar am
ĠLeg al
A D
un al
ĠL oss
ĠC ock
aw ks
ĠPhil harm
Ġwrest ler
Ġal gebra
Ġrefer ee
Ġconsult ant
l as
ĠBeat les
and i
V N
ĠI g
Ġarm ies
ĠS tern
ĠB ased
Ġal phabet
Ġk iss
Ġproper ly
Ġvirt ually
ad ors
end um
Ġimp osed
I ran
w heel
ĠR up
Ġw elfare
Ġtorn ado
ĠNAS CAR
C amb
ĠPr iv
orient ed
ak o
ĠMat hematics
ograph ies
Ġjump ing
be k
Ġf atal
og h
ĠSc ots
Ġgener ate
Ġvary ing
ĠKrish na
Ġg amb
Ġse al
ind s
w ill
Ġc ass
ĠD id
l ied
b ours
ĠT D
Ġtr act
ĠN u
ong o
Ð ¼
Ġ ur
ĠM ail
Ġair ports
omm ission
Ge org
ĠFranÃ§ ois
Ġconf ron
Ġterror ist
Ġmin imal
190 4
ĠP all
ĠH our
ern er
A mb
Ġcirc ular
Ġnortheast ern
ĠO F
13 0
Ġlog ic
ĠFif th
ĠChe ss
Ġdistingu ish
B oth
M us
In f
Ġdevelop er
Ġin fer
Ġb ag
ĠD ow
rit z
Ġ {
ĠCle ar
P rem
Ġw ww
ĠWy oming
Ġdepos its
Ġcap abilities
Ġcr im
Ġannounc ement
en ess
ĠR andy
C R
ĠB ee
ĠK re
Ġs unk
Ġs weep
B oston
Ġrul ers
ĠHol ocaust
ĠProv idence
en za
ĠR oma
ĠSher iff
ĠIndust ries
ĠDod gers
Ġmass acre
ĠW inner
ĠLeic ester
Ġ15 00
Ġburn ing
Ġperform s
Ġfe eding
Ġcollect ing
Ġsn ake
ut on
Ġ14 0
Ġcopy right
H ot
b red
Ġf irms
ĠN in
Ã ®
Ġn ights
V en
h ttps
Ġend angered
ĠRev ival
Ġgar rison
Ġinter actions
flu ence
Ġar ray
ĠWill ie
ĠI z
ĠD ew
Ġreview ed
ĠKn ox
ato es
ar ity
Ġflood ing
Ġpros per
ĠSy rac
Israel i
Ġd uration
ĠF alk
ĠE ducational
Ġc er
Ġcol span
ibl ings
ĠD ee
ĠTh ames
ne z
Histor ic
Ġtro phy
Ġdr ives
ham med
ĠC os
ir us
ĠG ur
w alk
im i
Ġcollaps ed
ĠC ul
ĠH ack
ĠBut ter
Ġwild life
ĠOther s
ĠTrib une
clesiast ical
ĠCh oice
Ġconf usion
189 5
Ġm ad
ĠB ent
ree ks
Ġfe els
Ġoccur ring
haus en
os al
Ġp aying
Ġh ull
ĠH ul
ĠMar co
ĠSouth ampton
aw k
W eb
act ic
Ġimpro ving
Ġtrust ees
ĠRe in
C ert
e ur
ĠF en
Ġover w
Ġgod dess
Ġtack le
Is lam
Ġt et
Ġpres ervation
Ro ad
Ġc ock
ĠG ul
yl on
Ġcust ody
Ġut ility
od or
ĠBar oque
ĠV at
Ã¡ l
ĠRes c
im ity
ĠSh i
ident ial
Ġam alg
Ġregard less
Ñģ Ðº
Ġemer ging
ĠS ister
190 2
l ord
Que en
Ġs a
Ġest ates
ĠKazakh stan
ĠM ake
ĠInter ior
Sim on
An th
ĠNik ol
ĠF erry
Ne ill
Ġ10 2
ĠC IA
Or iginal
Ġphenomen on
Ï Ĥ
ĠGu atem
ĠAlb ion
Ġsurn ames
Ev ents
habilit ation
Ġcar ved
ĠâĢ ł
Ã ²
ĠF ergus
Ġlin er
Ġback ed
Ġreg ister
g art
Ġautom atically
ell ar
Ġsy mm
b est
ĠTan z
ĠJerem y
Ġcor on
ĠSal em
SC O
ĠW is
ĠColon ial
ev o
ĠCar pent
Ġa est
Ġs its
Ġdraw s
am on
ĠM atch
et us
ĠL ap
ĠSyrac use
Ar ts
Ġdraw ings
ch urch
ĠM are
cast s
ĠCurrent ly
ra its
Ġpart icles
Ġhead quartered
Ġmar ch
ĠEuro vision
ĠBer ry
Ġregist ration
Ġexplan ation
ĠTrin idad
cl ing
ufact uring
ĠS ed
Ġreb els
Ġf ights
ĠP ars
Un incorporated
ĠApp eals
Pop ulation
Ġcompris ed
Ġtri ps
n ote
Ġl ying
omet ime
Histor ical
ĠY osh
Ġland mark
ĠS ind
Ġread s
ĠSac red
m ile
Ġfurn iture
eg ie
Vir gin
ĠĠĠĠ Ġ
Ġt rick
Ġbre ad
Ġin clusion
Ġem br
Ġsl opes
Ġsen ators
Ġwatch ing
Ġtorped o
Ġd ancers
ov ed
estab lished
Ġshe et
ĠSh am
ll er
Ġimp ressed
ym es
T w
b eck
iv ided
Ġorche str
ĠT ennis
ĠP os
ĠCh in
anc ement
s ites
ĠNapole on
ĠC i
ĠCom b
ro ft
ĠR ever
Con c
s ix
Ġp ig
Ġatt itude
S ar
Ġhand led
ĠGriff in
ĠPro cess
ĠBav aria
ĠVict ory
Ġz ones
ĠTor ah
ĠWander ers
l if
S ection
ĠGu ang
Ġorient ation
ĠS uk
ĠB ott
ĠP owers
ĠLe af
Ġch assis
ĠPant hers
Ġmot if
Ġm isc
ul ator
ann ah
Ġra pper
pl ane
Ġdo zen
all ow
Ġr ational
Ġexpl oration
an us
ĠAcadem ic
it ative
Ġ10 3
Ġfe es
ĠAgric ultural
ĠCorn ell
ĠMalays ian
imens ions
idel ines
Ġfre estyle
Ġbox er
les h
189 0
ĠSchol ars
ĠCont in
Ġlay ers
ĠP ret
ĠIn stitution
Ġa ster
D es
th is
Ġadvis or
Ġmemb rane
ĠSil va
ĠDisc overy
Ġvic inity
ĠV iv
it Ã©
Ġcons ort
Ġess ays
Ġconsequ ence
ĠG av
Ġinstruct ions
Ġprohib ited
Ġinvol ve
M R
Ġrail ways
Ġeg g
Ġrem n
Ã¡ ndez
Ġwe igh
G reg
k al
ĊĠĊĠĊ ĠĊ
y ards
he rent
Ġdep ot
C H
un ar
ass ic
Ġassemb led
w ara
ĠTh ing
Ġcomp anion
Ġfrag ment
ĠM ats
ĠJ ake
ĠS ard
Ġinteg ral
ĠRe formed
B as
ĠF o
ĠMy stery
Char acters
Ġpan els
op ic
ĠDr agons
Ġprompt ed
ĠH ost
Ġun w
he ng
Ġequ ally
Ġbre ed
ĠAcc ount
Ġw reck
ĠP itt
erv ille
ĠR iv
ĠL af
Ġcompens ation
ĠL ed
ul ine
Ġref uge
Ġg rain
P et
Ġd inner
å ¤
at ible
ĠL il
Ġtrump et
Ġs aints
Ġgr ay
par ts
Ġex terior
ĠPl ain
Ġdem o
ĠEnter prise
P ass
ĠV it
ri ans
or ers
udd y
Ġuncle ar
ĠSh im
Ch arl
ĠStr ong
ip es
ĠFre eman
on ing
Ġpl anted
Ġmed all
Ġ184 4
Ġbul let
ĠJess e
Ġadopt ion
x i
Ġh ide
ĠDyn asty
S ound
her ic
Ġb oot
ĠSh ire
Ġprom ise
Ġaut hen
189 9
Ġmom ents
Ġd well
ĠK eep
Ġp el
ĠC ay
Ġafter math
Ġmar g
Ġsurf aces
ĠK aw
ĠSc outs
ĠFl ash
Ġbad ly
l io
u um
he ss
N ow
Ġ184 5
iffer ent
ĠL ip
ĠG ates
ĠMax im
on el
Ġn ose
ig ins
ile e
Ġnob ility
Ġd iving
Ġ3 50
ĠĠĠĠ ĠĠĠ
Ġtre as
Ġ ).
ĠG w
ĠCh oir
amp h
ĠCol ony
ĠChile an
ĠO pt
oph on
ĠKle in
ĠC T
Ġv ector
art e
the m
ĠGust av
Athlet ics
ĠOb ama
ĠTel ugu
h of
ĠT at
ĠT able
ace ut
ev e
mod ern
ag ascar
ĠK ane
O x
Ġh ook
lic ation
Rec ord
ĠBre nd
pe z
ĠFl ag
Ġsepar ately
merc ially
ĠLyn ch
Ret urn
Ġl eng
Ġdisapp oint
ĠC and
Ġdyn amic
ĠH i
ĠTe en
ĠElect ronic
ĠBra h
ĠU FC
ĠInd igenous
ĠVik ings
Ġscreen play
ĠPrincip al
ĠSug ar
io let
ĠT yp
ĠF ont
hard t
Ġaut onomous
K ey
ĠConf ederation
Ġproceed ed
Ġsynthes is
ĠKarn ataka
P enn
ink i
ĠWeb b
Ġsup porter
Pro v
ĠB order
ch ron
Ġsuper hero
an as
ĠD rew
ĠG ross
Ġmat hematical
ĠAndre a
it ely
ig el
ĠCher ry
K e
ĠW eather
Ġfinal e
ĠAnn ie
ansk rit
A L
at as
Ġ18 38
Re view
Ġep it
ĠRos en
b les
l is
Ġo m
Ġinter act
om atic
ĠLet ter
ĠBulld ogs
Ġc ounts
ĠSpe aker
ar re
Ġp in
Ġgod s
ĠHaw k
Ġmanusc ripts
ĠU d
ĠSant os
Ġfoss il
ĠCzechosl ovakia
Ġ18 39
mark et
Ġrom ance
ĠJul ius
Ġprepar ing
Ġ10 6
Ġaff ord
ĠParad ise
ram er
role um
t ers
Ġopp osing
Ġprox imity
Ġmidfield ers
ĠRel igion
Ġmonitor ing
ĠT ext
Ġhe ter
olog ically
v ey
st orm
Ġver b
Ġm ud
Ġm ild
Ġgame play
Ġpract ition
P P
Ġdef unct
Ġpar as
ĠBe ing
Ġ ion
Ġcons piracy
Ġabb ey
ĠSuper ior
Ġsculpt ures
ĠUlt imate
t le
Ġin g
he ars
ic ol
Ġcent ered
ĠMe h
Ġkilomet res
Ġdis k
Ġmon uments
Ġep ic
ch ard
D T
R oy
ĠBeng ali
ĠE lection
ĠCong reg
Ġaccord ance
ĠBud apest
ĠAgre ement
Ġpre f
uzz le
German y
Ġlect ures
ĠV ick
ĠPied mont
c ourt
ĠD eg
Ġsc orer
ĠMar itime
ĠHonor ary
Academ ics
cha ft
power ed
ĠCrit ics
Ġr amp
se at
ob s
Ġpubl ish
Ġt une
Ġb alls
Ġrep airs
Ġthe orem
Ġf inger
Ġsc out
Ġpar ad
Ġmin im
Ġspons or
N R
Ġv ine
ĠLi bert
ĠPr ide
ĠBo eing
as is
ĠP ione
d aughter
ve ill
j ust
ĠP ere
Ġcomment ator
ĠP aper
fl ies
Ġs or
Ġ18 32
th ird
ĠSan ct
Ġpre lim
ĠM ud
Ġconvers ation
ĠEd win
ĠBe ast
Ġautom obile
'' '
Ġkn ocked
ĠSher man
Ġinaug urated
ĠPorts mouth
il us
ĠSe oul
Ġst air
iz ers
Ġdes ired
Ġe ating
Ġassign ment
A sh
ust y
Ġpen et
Ġl over
ĠV eh
ĠUS S
Ch ildren
AA F
Ġl os
Ġoff ense
ĠMap le
ĠD up
red it
Ġmat ure
ĠT rent
ib an
Ġpropos als
z ing
ĠS hen
Ġexp elled
y u
ard ment
any a
Ġod d
at oon
Ġback up
Ġobserv ations
ĠS ever
Ġdiscip line
T er
Ġmanufact ure
p olit
Ġte lev
ĠF ur
ĠG ian
ĠChurch ill
ĠF eder
Ġv acc
Ġup coming
Ġ184 1
Ġpen insula
ev iÄĩ
F ire
ĠM ales
Ġstep ped
Ġlov ed
Ġlong time
Ġcomp rom
ĠRos a
dist rict
ĠWin ston
ĠGr aduate
Ġind irect
Ġpoor ly
ĠPot ter
pher d
W C
ant an
ĠRh ine
Ġ10 4
Ġsouthwest ern
ĠT otal
Ġun ve
Ġtop ic
ellig ent
Ġab stract
br anded
ocol ate
ĠBad en
A mer
ĠC osm
ĠCom mercial
ĠBul let
189 6
Ġir regular
Ġres emble
Or iginally
ĠMon ica
inop le
ĠFl oyd
Ġblock ed
ĠSerge ant
B rian
Ġvar i
Ġprob ability
Ġwithdraw al
c s
Ġw alks
Ġc ere
l ass
en stein
ual a
ĠCon stitutional
ĠNic ol
. -
Ġem igrated
Ġev ident
ĠJuda ism
Ġs iblings
ĠR i
Ġfar mer
Ã§ a
ĠDream s
ĠPatri ots
Ġphys ically
unn els
m us
ĠB uk
ĠSacram ento
and in
ĠHam mer
j in
ĠA N
Ġconsider ably
Ġproport ion
ĠS ag
ĠMon ument
Ġposthum ously
ĠSt ore
Ġag gressive
Ġcoordin ator
Ġpit chers
ĠM ys
c ot
Ġun expected
mar ines
Ġcritic ised
ĠL it
ĠPark way
ĠPri est
ĠOs lo
Ġclimb ing
ĠM Ã¼
189 8
Ġest imate
Ġspot ted
et hel
Ġless er
ĠSax ony
Ġp ink
B BC
ĠF i
ĠV ed
Ġvol t
Wh o
ĠAt hen
Ġpron ounced
veill ance
ad al
Ġsuccess ive
R NA
Ġm ask
Ġac claimed
ĠCl aude
Ġflag ship
r ud
Ġf are
ens ed
Ġcust oms
s eries
Ġtrib al
Res earch
ar f
ĠW ilm
Ġacc idents
om ys
Ġde er
Ġdirect ions
heim er
Ġdist ant
n umber
ĠS uns
ĠN uclear
ae a
Sc ience
aff e
ĠLeban ese
Ġcruc ial
ĠAn im
Ġconsid ers
Ġinterview ed
Ġw are
ĠE lev
Ġquant um
ĠP S
ron ics
Ġkind s
ĠR id
Ġed iting
Ġmark ing
ĠUs ing
Ð¾Ð ²
B ir
Ġreg iments
Ġaut o
Ed ward
Ġh ol
Ġatt ribut
Ġrob ot
T rad
ĠMerc ury
M iddle
Ġconf idence
ĠS E
as por
ĠL ay
ĠJ ag
ĠL ines
ĠE ar
ĠâĢ ¢
itt ers
Ġinters ections
S a
al ong
red its
ĠBull s
mid t
c u
ĠDet ective
K en
Ġw ake
ĠD ion
ĠSt ring
Re v
Ġgradu ates
O D
ĠPar agu
sh ine
Ġdr unk
CA F
lo o
Ġmiss iles
Ġpromot ional
F ield
op l
ĠCauc as
ĠD ate
ĠF ast
Ġmeas uring
Ġconsequ ences
Ġhypothes is
ĠAlger ia
Ġmanif est
ip edia
Un ion
Ġcou ples
ĠR ip
Ġhe ct
Ġoper as
Ġactiv ated
ĠEm ma
ĠStre ets
ĠB j
b ad
ab l
Ġconf irm
ĠField s
ĠLegisl ature
ĠL ing
ĠMar ÃŃa
Ġspect rum
Ġdepict ing
ort ic
k el
ĠN ATO
Ġmed ian
elf th
ĠUrugu ay
ight y
ĠAd olf
ir ical
ĠÄ Ĳ
Reg ular
Ġsp ur
Ġfre ed
Ġmar ble
ĠN ico
od ium
Ġsw ing
Ġentreprene ur
Ġt el
ch us
Ġinter fer
Har vard
th al
Ġne ur
ĠExcell ence
ĠL och
Ġfavour ite
Ġc af
ew ise
Ġd ish
if a
osp ace
Ġt ales
Ġr ider
ĠSof ia
ĠSh aron
Ġ184 2
Ù Ħ
ĠD olph
Ġdis agre
Ġord ained
Pac ific
Ġm oon
Ġg ates
Ġox id
Ġrecre ational
ur ia
Ġdep ends
Ġpred ict
Ã¶ l
Ġhorizont al
Turk ish
a ft
Ġacc us
ĠMes a
Ġc rypt
ĠH ed
fore st
ĠBald win
Co aching
ĠCommun ication
ĠVo iv
ĠAdvis ory
Ġthe sis
ow itz
ĠBoy d
art ime
Ġstar ter
Ġl aser
if iers
ĠEmer gency
ĠUnd erground
ĠEston ia
Ġst abil
Ġor th
ĠDep ression
Ġarg ue
Ġpol ar
hold er
Ġproceed s
S ource
Ġpres c
uv ian
Ġt ables
ĠB irds
Ġfl ute
Ġwe aken
Ġd ent
qu is
ĠEx hibition
it ated
Ġninet eenth
ĠA G
ĠM ets
Ġbus h
Ġhum or
Ġl ord
W R
Ġh oles
ĠI st
and ers
ĠSuff olk
) (
Ġdi oces
Ġbar on
Ġgather ing
otyp es
W ales
Ġd ressed
ĠD ock
Ġclass room
Ġclass rooms
Ġopt ical
Ġbacter ia
Ġabsol ute
Ġbo ost
Ġinter red
Ġdem ocratic
ĠHear ts
Ġp enn
ĠD art
S om
Ġad equ
He alth
Ġshall ow
ĠG ott
zh ou
ĠP R
Nor wegian
ool s
ĠConstant inople
Ġlater al
ĠTur in
Ġconv ey
Ġtherm al
ĠE y
ab s
Ġsc attered
ia e
Ġdiagn osed
M inn
ĠH ours
Ġstat istical
Ep isode
Ġundert aken
ĠR ex
ĠPro s
ĠSing er
cl iffe
Ch ina
ĠPat rol
ĠF ear
Ġsk iers
att y
Ġten or
Organ izations
ĠT yr
Ġdirect ing
Ġless ons
Ġinters ects
) -
ĠAd ult
old s
Ġins ect
Â ½
Ġto pped
ĠAr ctic
Ġconsist ently
Ġdet ective
ĠCole man
ĠArch diocese
ĠGard ner
B R
B eg
on c
1 20
ĠSt op
H y
Ġsy ll
I mp
th ro
ast on
ne um
Ġroll er
ing ers
mer e
ĠBeg inning
ĠHein rich
Ġf ier
ĠB le
ĠD ixon
Ġcomm anding
Ġnorthwest ern
Ġs ends
ĠW et
ip zig
ĠHam mond
Ġcab in
Conn or
Ġstri kes
v ine
Ġdef ine
ĠUtt ar
ass adors
ĠPhill ies
Ġcount ed
Ġoverw hel
ĠCh ancellor
Ġtr adem
sh i
Ġdestroy ing
rown ed
opt ers
Ġleg ally
ĠX box
ĠJen kins
ethel ess
Ġerr ors
s im
Ġrow span
Ġd ense
ĠPar ade
Ġdif f
Cl imate
ĠJ i
Ġcom mercially
Ġb attalions
Ġas ide
ast eries
G et
Ġb le
ĠM eyer
ep p
Ġcontin ental
Ġexpl ore
Tex as
Ġs ou
ĠEv il
Ġthe oretical
ĠT ow
k t
im p
Ġintro duce
P rim
Ġan at
L ight
ĠCh o
ĠCor por
ray ed
ĠRo x
ĠWork ing
ĠAut o
ĠRoad s
Ġ ~
Ġun ited
Y oung
Ġt ent
ÈĻ ti
g overnment
ĠH ank
ĠF letcher
alth ough
ĠHard y
K h
L y
n ian
Ġtr ucks
Ġreal izes
Ġrecon c
ĠWh y
Ġfl own
s ay
S un
Ġdeter ior
Ġan arch
is odes
Ġcerem onies
Ġw ishes
ĠY uk
Ġcertain ly
Ġroll ing
Ġbow l
ĠSp ec
ĠCl an
Ġl ip
ĠG ol
ĠK yle
Ġpast or
ĠGar cia
ĠProgram me
ĠMore over
Ġdim in
E G
ĠTr acy
ber ra
ĠRep orts
Ġneighborhood s
Ġest imates
ĠErn st
L D
ĠQ ing
ĠAnn iversary
ĠB ast
h ouses
Ġremov ing
Ġtact ics
ir s
Ġconsid eration
ipp ing
ĠDirect ors
C T
ĠEm il
ĠSebast ian
ĠC yp
ĠVern on
Ġdis gu
Ġgen res
Ġline back
Ġinstruct or
Ġp ounds
Un til
ĠLa ur
Ġlif estyle
k l
D er
el ic
ĠV all
to ok
ĠPack ers
st ral
Ġ18 36
get own
Ġf iscal
ĠInn ov
Ġgu ided
Ġexhib its
Ġc ub
Ġcons ensus
W here
ĠI RA
Ġv oyage
St and
ĠAlb ania
Ġreun ited
Ġam phib
ĠBerm uda
st en
ĠH ew
ĠVar ious
Ġimp ression
ab ul
lin ary
ĠJack ie
ĠLad ies
av el
ĠChar leston
ĠW id
ĠHol ly
S y
Ġren t
Ġconce ived
ear ance
Ġcar n
Ġdisp uted
Ġbat ted
ĠF em
ĠC airo
ĠL ives
est ock
Ġ18 20
its u
ĠPhilharm onic
ĠD uchy
ĠZ oo
ĠResc ue
ĠMar cel
Ġbl ow
Ġlo ans
he e
Sing le
ĠCo ch
Ġcre st
189 7
ĠSev enth
Fran c
Ġpoll ution
ĠL LC
Ġnatural ly
Ġqu arters
Ġd orm
Ġsquad rons
ĠRel igious
ĠTun nel
ĠT in
ib ald
Ġdis abled
Ġunder lying
Ġstri ker
ĠBor is
e er
Ch ap
Ġinvest ors
ĠIns urance
Ġcur rency
M G
ĠEast er
Ġprelim inary
ĠL on
Ġpl um
ĠMon ster
Ġto uc
Ġsub stance
ĠTw ins
Ġnurs ing
ĠH ert
Ġprov en
led on
sk ins
Ġenh anced
ĠMad agascar
Ġsens itive
T ony
im ar
Ġ184 3
en er
ĠR out
Ġpre val
ĠNor wich
Ġarm or
ĠAle ks
Ġs ab
Ġillust rations
ĠT ell
ab ling
H ong
c ur
ge ons
Ġbelie ving
ĠMax well
ĠPrim era
Ġed ges
Ġob st
V ar
Ġ10 7
ĠChap man
Ġpreced ing
Ġagre ements
... ]
Ġinter ven
Ġrefer endum
Ġt ong
av ers
Ġanti qu
as aki
ĠDavid son
Ġmotor way
or rect
Ġp aved
Ġac ids
ĠSp ac
Rel igion
ĠH ale
Ġmos que
st roke
am oto
Ġtrain er
ĠJosh ua
io x
Ġnecess arily
Ġc ant
Dist ribution
Ġarc ade
le en
Ġresc ued
at ial
ist ence
ĠSt range
ĠCl ara
ĠDar win
Ġhuman ity
Ã©t ico
os o
Ġacc redited
ĠGreen e
lik ely
s w
Ġk ids
Ġmasc ot
Ġsimul cast
Ġa rose
ĠM ant
ad ri
ĠV ery
ĠC risis
ur ities
ĠL al
om eter
ĠAg ent
ĠÃ ĵ
Ġc reek
In c
pl ant
d f
h ampton
ĠB agh
ĠD ong
Ġob vious
d ad
Ġen zyme
ĠPh arm
Ġhot els
Ġmolec ules
Ġb icycle
Ġpres um
ĠBalt ic
Ġdep icts
ĠK ul
Re al
ĠÃ ĩ
ĠCarn egie
ĠP ond
ĠSand y
Ġcycl ing
Ġbal let
ĠS Ã©
Ġr ally
ĠIs ab
ĠT ucker
ĠM Äģ
Ġserv ants
Ġadv ised
ĠAl g
ĠAm Ã©
k ind
ĠSl ovak
Ġsacrif ice
S ix
odes hip
Ï ĥ
ĠS O
Gold en
Ġdevelop ers
ĠJeff rey
Ġmechan isms
Ġin land
Ġb ike
ĠT win
os ystem
field s
ĠBal let
er oy
Ġv ig
Ġf Ã¼r
ĠS utton
Ġrel ie
N ight
ish ments
ee le
ĠBron x
Ġresear cher
ill iant
ott age
r ors
att i
ty mology
ĠJackson ville
ĠTh ursday
ar ra
Ġp ace
ĠSt rait
Ch urch
Ġsett ings
ĠHon ey
.. ..
ĠStep han
ĠFull er
oll ah
ĠZ ion
Ġrespons ibilities
Ġguar ant
ĠBeaut y
olk ata
Act resses
Ġ u
Ġp ine
ven ile
Ġax is
o os
Stud io
Ġfilm maker
Ġworks hops
ĠAtl as
Ã¨ s
ĠHur ling
s chool
Ġch ains
ton e
Ġfle e
I ll
Ġartif acts
z el
Ġsal v
ĠJ orge
C at
K ar
ĠG rav
ind ers
pr int
Ġk in
Th ough
Ġbomb s
ĠD uff
ĠR az
ew ide
at u
Ġfil ter
L ee
N ick
ys ical
olog ne
Ġse ating
Ġsur geon
L O
r ity
ĠC ave
ĠK C
P rom
ĠD unn
Ġloc als
Ġunder go
com es
ĠY emen
ĠHous ing
ĠB rain
h orse
Ġphysic ist
he v
Ġcost ume
ĠW itch
ius eppe
Ġinnov ative
Ġent ities
rell a
D ave
Ġgrand mother
ĠMcC arthy
ood y
the l
Ġpresent ing
ĠFrances co
Ġn urse
Ġsp ite
ĠPl us
Ġsum mar
ell es
Ġ16 0
an or
ĠB onn
ĠZ ero
Roman ian
Ġa mp
ĠR oland
ĠDemocr acy
P ower
Ġp orn
c ane
189 2
ĠRif le
c in
Ġsp elling
ash ing
n is
Ġsh ark
Ġco ok
the tic
Ġspe eds
iling ual
Ġdeploy ment
Ġout come
olith ic
ĠE ra
Ġpres idency
Ġemb arked
g as
ian i
so ver
Ġquestion ed
ĠThom son
al ore
Ġ1 18
ĠAn alysis
ĠEven ing
E F
P G
it he
Ġl i
ĠW on
Ġfound ations
sp ective
Ġwood s
ĠSh ak
188 5
ĠÅ Į
Ñ ĭ
oc ide
Ġf ed
ĠCol ts
ĠBo at
ĠSport ing
Ġdors al
N BA
ĠL ect
ern atural
ĠRed skins
ĠN em
ins k
com be
Ġh i
ĠK od
und ers
ĠTol edo
ĠVis ual
Ġweb sites
Ġspons orship
ĠJess ica
Ġ18 35
aged y
Ġarg uments
ĠBol ton
ĠHamp ton
Ġhabit ats
i ating
ag ic
Ġdoctor ate
Ġunem ployment
ĠMer ced
Ġhar ass
st ones
Ġcl im
Ġall ied
ĠL iz
by e
f fer
Ġth read
Ġit em
Ġsc ales
Ġge ographical
ĠMid land
Ġjoint ly
f ried
Ġt uber
ĠF est
ĠInd o
Ġcontinu ously
s ize
ĠB un
elect ric
s u
t re
Ġsk aters
Ġcondem ned
Ġremark able
ul ia
Ġsurrend ered
Ġr ushing
.. ."
Ġconqu ered
Ġ 00
Ġmem oir
Ġpropag anda
Ġvulner able
ad ic
Ġres erved
Ġind ie
uc ci
Ġeng ra
ĠS ally
ĠY ard
Ġac claim
Ġvers es
ĠTur ks
Ġdestroy er
Ġfold ed
A p
Ġder ives
os ely
Ġtransl ations
E tymology
own er
O K
Ġtr uly
ĠStrateg ic
ĠW ire
ĠCl aire
Ġpred icted
ĠF ri
ĠFel ix
ĠGeoff rey
ĠStef an
ĠVoiv odeship
Ġle ather
head s
Ġlect urer
Ġinvent or
ĠInd y
Ġass ert
Ġsyn onym
Ġcam eras
ĠBe au
Ġep id
Ġsc r
S H
Ġcap ability
Ġacadem ics
ĠMarsh al
Ġl ady
M Hz
ĠB attery
Ġe agle
ĠAl m
r ÃŃ
ĠCh al
Ġra w
ĠK ok
ĠInter est
Ġbr ut
ĠMot ion
b illed
Ġb arrier
as ma
ĠB oss
Ġpurs uit
V er
Ġ ×
ĠS it
gr ass
Atl antic
H ind
Ġnational ist
An ti
Ġread er
ĠSant o
ill i
ort ed
Ġtick ets
Ġg entle
ĠFor bes
ĠThe ological
ĠSt ark
rib le
Ġbound ed
Ġthrow ing
ĠDown town
Ġtw entieth
Ġsum mon
N G
Ġland sc
ĠGeor ges
Ġfair y
ll i
ĠPer cy
M B
S pring
Ġelect ro
Ġsur pass
Ġhold er
ĠCast ro
Î µ
ĠA I
ĠRober to
Ġmon ster
ĠFalc on
Cert ifications
ĠSh an
ĠGar c
Ġfa una
Ġs aving
ĠPresident ial
Ġstrateg ies
ĠP om
ĠG an
Rel igious
ĠSt rike
ĠFalc ons
ĠT ou
ĠEmp ress
ĠCly de
Ġc ater
ew ater
Ġsub marines
Ġcor p
Ġimport ed
Ġap olog
j iang
m our
ĠD re
ĠMar athon
miss ions
ĠÄ °
co le
Ġprem ises
Ġfacilit ate
Ġs ad
Ġterm inated
Ġbond s
Ġo ak
Ġr ings
H ere
Ġmedal ist
Ġrend ered
ĠAg u
ĠCoal ition
ĠHum ph
Ġelabor ate
atern al
Ġwick ets
ĠR ider
l ich
Ġcur ves
Ġsk etch
ĠCom ment
M ean
air d
aren ts
Ġbox ers
Ġpay ments
L ab
Ġveter ans
Ñ Į
is ure
Ġencl osed
agon al
ĠChem istry
Ġg ly
ember g
ind ed
pro ducer
ĠTit le
R og
Ġsc ar
enn es
ograph s
ues day
rop olis
M aster
ĠT ropical
ĠO S
ĠOr t
Ġbas ement
Ġnar rator
ĠH ast
c ross
ĠH MS
ĠW ins
Ġhigh lights
Ġsl ot
Ġh oly
ĠAsh ley
R oll
T em
an ions
ĠL inn
ĠPh yll
ĠPhys ical
Ġsub stitut
Ġprevent ing
vo iced
Ġexha ust
O b
d ig
ĠP red
ĠR C
ĠAp art
Ġcontroll ing
land ers
ok en
ĠCol or
ĠHis panic
r s
Ġkn ight
Ġancest ry
at ur
ĠBundes liga
g ood
ĠG ao
ĠAl leg
is eries
Town s
Ġb out
ĠS ue
Ġst range
Ġref urb
ĠH ipp
189 4
Ġelder ly
f ig
ĠAr ist
10 1
NE SCO
U R
Ġp av
ĠĊ ĊĠĊ
amp ed
ĠDen is
Ġsal ary
L L
Ġpar ade
ĠMad h
Ġinvestig ations
Ġdiscuss ions
ĠSumm it
ro duced
Ġd ys
ĠV ocals
ĠSub sequently
ry n
D ar
le af
ĠR as
N ame
ĠLe one
On ce
ĠAssoci ate
ĠChem ical
Ġfin anc
fol io
Ġs izes
ĠCl iff
Ġseem ingly
ik k
ĠEthiop ian
ĠKos ovo
C ur
ĠM iy
ip le
Ġdep ictions
ba um
w ana
ĠQu inn
Ġrecon naissance
ĠFront ier
football er
us hes
sh ot
ĠG raph
sp apers
ĠOri ental
Ġc ro
d ep
Ġconsum ers
ĠD ul
Ġdemonstr ate
Ġlov es
Ġh arsh
ĠL ima
ĠF uj
Ġcont ents
Ġ9 00
Ġinv aded
L o
ĠM ilit
pur pose
ĠM og
Ġdece ased
b ors
Ġover th
arn ation
Ġpossess ed
Ġsail ors
Ġsuperv ision
ĠPatt erson
ĠBrun o
ĠHels inki
com m
uk es
ĠJane iro
P I
Ġto b
Ġh ind
ĠB ess
ĠI X
Ġar ist
Ġpubl ishers
gl ass
Ġup ris
ĠLar ge
Ġgram mar
ach y
ĠHy de
urrect ion
R od
ĠC umberland
edd ed
ĠEns emble
Ġev angel
Ġaffili ation
ig ue
Ġpass er
Ġcollect or
Ġproceed ings
ost a
ĠEd u
ĠPat ricia
Ġsocial ist
Ġmarg inal
ĠD ex
es ian
ay at
ĠMc Cl
Ġfort une
ĠH ook
z on
ĠM ini
ut i
is ive
ĠN iel
ĠP ole
Ġle ased
ÃŃ s
ĠLaw s
188 9
18 80
ank ar
Ġdisp utes
Ġ" ...
Ġnav igation
f i
Ġtr ace
ĠInd oor
Ġar tery
ĠTit ans
Ġexerc ises
ĠMick ey
d ec
Ġsur g
Ġprior ity
are l
yl ogen
Ġinvestig ated
Ġvac ant
u en
E s
Ġn avy
ĠVat ican
ĠT ale
ran k
Ġdec ommission
189 3
Ã¨ res
Ġfram es
ĠM IT
Ġro d
ath s
Ġrec reation
Ġf o
other ap
L ake
ĠGen esis
ĠG iant
ren ts
Ġdec ree
ĠCal ed
Ġcl oud
ĠAugust us
Ġauth ored
ub ble
ĠLev i
i ade
it ational
Ġr ises
Ġplan es
Ġang ry
ĠR ule
ap or
ĠGre ens
ĠUC LA
ĠGaz ette
ast han
Ġd imensions
ĠB ug
ĠEl m
Sub family
Ġcrown ed
Pier re
G al
l oss
ĠM ist
ĠUg anda
Ġvari ables
am ination
ch y
ĠCr u
Ġbr anded
Ġcommission er
Ġsecret ly
Ġnew er
Ġcontest ants
Ġille g
ĠH onda
Ġsm allest
189 1
Ġlast ing
Th ird
unc iation
ĠTon ight
ĠId ent
ĠQ atar
ĠCirc us
Ġcorrespond ent
y ar
Ġwhe at
olog na
Ġautob iography
ĠR ising
Ġint ensity
Ġqu it
Ġmarket ed
ch air
ĠAl berto
ah i
duct ions
feat uring
Ġconscious ness
g ames
ull a
Ġpar ody
He art
Pr ince
L S
Ġsee ks
Ġattract ive
run ning
r ace
B N
Ġan x
urg ical
ĠFitz g
ĠTerm inal
Ġconv iction
Ġelectron ics
B and
Ġra ids
asc ular
V an
s il
ĠPer iod
ĠPsych ology
Ġfact ion
Ġde alt
Ġintro ducing
r il
ĠR ao
Ġcl erk
Ġvill ain
Ġcreat ures
ĠCas ey
arri ers
Ġp ipe
Ġinher it
ĠH ollow
ĠR A
ĠSte am
Ġcateg or
ĠSav age
ain ted
Ġdet ention
Ġmechan ics
l ift
ĠCan berra
ĠHart ford
ĠTreas ury
ĠT ul
ig u
em y
Ġrev olt
Ġcell o
ĠGuatem ala
ĠSh ane
Ġprot ecting
Ġconv oy
Ġcalc ulated
Ġvel ocity
C ard
ĠAugust ine
f ortunately
ĠS anskrit
ins ki
Ġmater nal
hood s
Ġcare ers
ĠBr ady
Ġwitness es
Ġh iding
ĠR ide
Ġcontract ed
yt echn
ch an
ĠV ocal
P ark
z burg
ĠInd ividual
ĠAss y
Ġob s
ĠS ib
ĠAnd r
ĠAnd hra
Ġpe aking
T ri
row th
ĠColomb ian
p ark
ĠM I
ĠR ise
ĠĊ ĊĠ
ogen ic
V C
Ġmerch ants
Alex ander
re ens
ĠM und
Ph ot
ĠLe ipzig
Ġcouncil s
ĠS K
ip se
Ġhur ricane
ĠVolunte er
S ign
o qu
ĠU z
Ġovers ee
Ġhar bour
Ġlo ose
Ġteam mates
Ġinc om
P it
S oft
Ġc ryst
ĠM VP
Ġ3 000
P D
T R
let ter
Ġexpl ored
Ġprem iership
ĠV augh
Ġall ocated
ĠDe al
188 8
ĠCa esar
ĠH ang
aren ce
Ġknow ing
ĠSimilar ly
Ġing red
Ġb eds
Ġen orm
unt a
Ġhero es
ĠBeaut iful
ĠF resh
Ġlim estone
Ġcult iv
ĠMahar ashtra
ver age
M F
Ġs us
ĠB ooth
Ġ å
Ġt aste
ĠT aj
ĠH undred
ĠMay a
ĠBol ivia
ĠPr ussia
Ġm aj
ĠPl ains
Ġround ed
id ian
ĠP apers
ĠFore ver
ĠLead ership
k ill
Ġp ier
ĠBow ie
Ġp alm
orn is
Ġpol o
ir ling
aul ts
Ġfact ories
ĠD uck
ĠBr andon
Ġmem ories
ĠW ave
art on
Pro gram
Ġhealth y
Ġwood land
ĠJoy ce
Ġan terior
ail able
Ġcru ise
T am
Ġc rop
ĠMar ri
Ġaccompany ing
ĠB ally
ip el
ĠB ac
Ġvol canic
ĠLis bon
ĠP eg
ĠWhit ney
F il
ĠJ agu
Ġat he
end ra
ĠY ak
Ġp ic
erm ark
ĠEd en
l ink
ĠS W
Ġtr unk
Ġachie ving
w rights
ĠTor res
Ġput s
Ġarg uing
Eng ine
ĠSloven ia
Ġenlar ged
Ġthe aters
ĠJan et
Ġcommit tees
Ġunsuccess fully
D ev
ĠM inisters
ĠW er
be it
ĠLin ux
J ournal
ĠW ade
Ġopen ly
Ġaccept ance
us ement
Ġdet ain
ĠJ ub
ĠTim othy
ĠC areer
ĠMon astery
Ġer upt
in qu
Ġmeasure ment
Ġup grade
Ġrel iable
ĠBas el
Ġinc orrect
Ġprofessional ly
ĠFergus on
d ate
ĠM orton
utt gart
Ġt urt
Ġadd s
ĠClass ics
af a
ĠSm art
ĠPh antom
ĠObserv atory
Ġover come
Ġreb el
Ġcert ificate
ĠMichel le
ĠT oul
cat cher
C roat
K ore
P resent
al an
L atin
Ġadm ission
Ã¶ m
ĠD ial
rit ion
Ġorgan ize
Ġdial ects
ĠRoy als
Ġce iling
bra him
th y
ĠE rie
Ġor ch
agre b
n ational
Ġn as
bl ack
Ġcomplic ated
ĠCh urches
Ġmart yr
C orn
id ity
keep ing
O ur
ĠS ara
ĠPer forming
Ġunc on
ĠConc ord
Ġret riev
Ġobject ives
H op
or ic
Ġm eter
ĠNic arag
Ġpromin ence
Ġd up
ul in
arm ed
ĠAssoci ated
ĠN R
Ġbr ass
ĠOl iv
ĠTour ism
Ġavail ability
ĠBerg en
Ġd ock
ĠQu int
W alk
ĠR ag
Ġeval uation
ĠK olkata
ib al
T yp
Ġcre am
ĠDund ee
ĠPro gress
ĠSol ar
ĠVen et
ĠĊĠĊĠĊĠĊ ĠĊĠĊĠĊĠĊ
ĠChe v
oy e
ĠCarl ton
uls a
ĠTit an
L ast
Ġdevelop s
ĠWor cester
p ret
ĠW en
Ġres ides
F e
Ġab olition
rox imately
Ġcir cles
n ame
pres ident
R on
ĠG M
ĠK ais
Ġrelig ions
gen eral
Ġpro claimed
ound ing
ĠTr acks
Ġmagn itude
s an
ĠW yn
Ġrespons es
ĠTre vor
ĠV ista
Ġcl uster
ĠZ amb
ch ildren
188 6
Ġaccur acy
Ġtermin ology
Ġf ault
udd in
Ġhapp ens
ĠTanz ania
Ġpro c
Ġmet aph
Ġe uro
Ġeight een
H D
Ġspect ators
Ġaffili ates
r ays
od yn
Ġass ume
An ton
Ġphil osophical
ĠRap ids
lim ited
Ġphilos ophers
ec o
arri es
ĠOri oles
ĠL und
ĠR iley
ine es
Ġnot ion
Ġem issions
ort e
Ġaud ition
Ġtort ure
Ġf ails
ÃŁ e
Ġgeomet ry
Ġlif ted
Ġrub ber
Mex ican
ch ild
ugh t
Ġmod es
Ġn an
Ġwh ale
ĠU m
eat ing
ĠC ore
ĠVer de
G ar
ec hes
ĠI D
ul ance
imb ledon
ĠOm aha
Ġball ad
Ġkeep s
ĠNorthwest ern
in ster
ac cess
Ġsh rub
T E
ĠGu j
F O
ĠN ed
P ers
us k
ĠV ald
Ġinter rupted
ĠT rial
Ġsol ve
Ġdiagn osis
Ġposter ior
V I
p ace
Ne il
Oper ation
ĠHann ah
And rew
ri que
ĠSt ones
ĠCorn er
Ġmel od
ĠLeop old
ĠI ch
ant is
rec orded
Ġenter prise
ĠP M
ack er
Ġacc eler
Ġsm oke
ĠGand hi
ĠIll ustrated
Ġteen agers
ou ds
Ġch a
b ol
Ġg ig
ĠWill is
Ġc ement
um per
Ġsp elled
Ġed it
ĠMad onna
ĠS M
ue b
Ġcontest ant
ĠB res
arn a
ĠHel ena
Ã¢ te
ĠCreat ive
is or
ĠP ike
ĠN H
Ġhang ing
Ġt ension
Ã¡ lez
Ġfrag ments
os ion
clud e
op ol
id y
op p
ount ers
Ġtr aces
Ġchalleng ing
Ġutil ized
ĠAm anda
ĠUS C
ĠVen us
Ġbatter ies
C ricket
ri ka
Ġfac ts
ĠL ands
Ġhost ile
I l
ĠAr lington
Ġ12 8
Ġdesc ended
ĠR ough
ĠWeb ster
Ġreflect s
ĠIb n
R en
ic hel
ĠC ove
ĠMun ster
ĠSupport ing
wer p
ĠB ard
Å ĳ
ĠL uck
ric ular
Ġillust rator
unning ham
B ank
Ġtrig ger
Ġt allest
ĠH ok
or pe
Ġst aying
Ġhar vest
Ġ ech
Ġsh r
Ġser ver
Ġtest imony
Ġ icon
Ġshort ened
New s
ĠOffic ers
ĠBuch arest
ĠMon ter
Ġaccount ing
ĠC ret
ic iary
n ar
ĠD oor
Ġadvent ures
l c
ĠC rom
ould er
ĠSc andin
Ġter restrial
ĠLat via
Ġwaters hed
us ually
esc u
ĠCov entry
Camb ridge
Al tern
Ġwitness ed
Ġs acked
rif ied
W S
d esignated
ĠF ed
so on
ĠTe legraph
Ġadv ocated
ĠJ enny
Ġres olved
ĠSh awn
Ġprov ider
ĠC ell
ĠH uss
Ġ[ ...]
Ġbox es
d et
u o
it ively
pro duction
onduct or
ä º
ew ood
ĠChe ng
ĠPier ce
ĠL ep
Ġsp y
cent ral
ĠC el
ĠT usc
Ġtra p
ĠOr igin
ĠT ah
ĠG ymn
Ġw artime
ĠR ig
ĠD ram
og ie
ĠBuc cane
it ian
ĠT et
Ġl ane
Ġg arn
Ġaccommod ation
Ġ10 8
ĠHol iday
Ġdemonstr ation
N et
Ġlack ed
ĠPatri arch
Ġworks hop
-- --
ĠKu wait
H ill
ĠM t
og ene
Ġprop ri
Ġdescend ant
F inn
S ummer
W elsh
ĠIn ver
Ġball ot
ĠStand ards
ĠSt yle
ĠCamer oon
E r
Ġbomb ers
Ġmill ions
ĠBomb ay
k ok
ĠF rem
Ġenc ounters
L R
w al
em ia
j ord
ĠN om
Ġlo aded
ĠAngel a
Ġdon ations
ĠW ong
Pres idents
Ġjudg ment
Ġtra pped
Ġkick ed
ĠW B
Ġg ains
Ġfin ishes
Ġnom inee
Ġbus y
Ġbord ered
Ġg est
Ġins isted
ĠCec il
L ine
ĠT actical
ĠGo es
C E
b u
Ñģ ÑĤ
z b
it as
ĠIn iti
ĠCon rad
ĠSl am
ac io
Ġund ef
unct ions
ĠMy th
Ġiniti atives
ĠColle ges
em ption
ĠBox ing
ĠW ords
Ġsem in
Ġsynd icated
Ġtob acco
Ġ q
ĠRec reation
bour g
ĠC ologne
188 7
ĠH ak
Ġinv itation
Ġunve iled
ud ed
fl ow
ĠEl is
ĠCor on
uther land
ĠAbb ott
Phil adelphia
ĠSid ney
ĠMo hammed
Ġce ase
ĠDerby shire
Ġ à¤
Ġo re
Ġ18 31
On ly
Ġmod est
ĠIm age
an mar
Ġbow ling
Ġd ining
Ġarch ives
ĠGarc ÃŃa
ĠM illion
ĠBel t
ĠSix th
B ern
it uary
Ġf usion
ĠK urd
Ġviol ation
Ġfavor able
ĠDud ley
ard ing
pro v
Ġcreat ure
Serv ice
ĠM its
ĠR aven
Ġorgan isms
Ã¨ ne
ĠOk in
Ġmon k
Ġcrim inals
? )
Ġn it
ĠV es
ĠBer ks
ĠAlexand ra
ĠH ors
ĠRob ot
ĠÂ ½
ĠSt arting
ro kee
eal ous
ĠGl ad
gr ad
ĠBuck ingham
ĠWik ipedia
F eat
h aul
n as
Ġtub es
c amp
Y ellow
ĠP ool
ĠH utch
The ir
ĠSe j
Arch itect
ĠTra v
ĠHon our
ĠBu ilt
ĠDra ke
Ġcont rad
ĠLight ning
Ġf iber
are z
Art ists
Ġf itness
ĠW H
ĠJo ey
Ġpregn ancy
Ġext ant
Ġreview er
Ġw itch
ĠAv iv
ĠDev ils
Ġcrew s
Ital y
Ġdeleg ation
w rote
ĉ ĉ
ĠM ell
Ġor phan
Ġdet ection
Ġpen alties
Ġelim inate
ĠTeh ran
b ill
ro zen
Ġdef ines
ĠCour ts
ĠEld er
Ġg rab
od ied
Ġs ued
Ġre formed
Ġun likely
Ġhelic opters
ĠNE AT
p he
rd u
M ir
n ie
ib us
ĠCar mel
Ġcompl aints
d el
ĠB io
ĠInt roduction
T s
c onn
1 10
D oc
ĠC arson
ĠHer c
An cient
ok i
Ġequ ations
ĠPort o
Ġdeleg ate
H el
le ague
Ġdisc ipl
Ġgar age
Ġb omber
ĠC ities
ĠY et
ĠJo han
ĠMy anmar
M u
ĠU se
Ġboy friend
le ading
eng ine
F ish
G E
Ġc rafts
Ġm es
Ġte aches
Ġfr uits
Ġgovern ors
um ann
Ġpl ural
ĠShir ley
J ones
ĠM afia
ol ves
Ġ18 34
Ġsub str
ĠHe y
Ġrecommend ations
S u
Ġsen ator
ĠW R
ĠCom ic
ĠH ers
ac i
Ġsh rine
pl us
ĠCl aus
A ud
ĠA ve
ĠIss ue
esc ope
Ġdestroy ers
Ã¼ ck
play ed
Ġcert ification
anc o
i ator
er ated
os ity
b ass
ot us
orn o
ious ly
R os
ĠM k
Ġint ens
Ġcelebr ity
ĠEst ab
Ġschem es
ĠMerced es
Ġl ighthouse
ust ain
B irds
Ġcrit ically
Ġsk illed
Ġmar itime
od us
Ġstat ewide
Ġdro pping
ĠEx eter
ĠAtt ack
as ants
ĠM s
Ġdem olition
is en
Aust rian
Ġwrest lers
Ġwat ched
ĠG und
ĠWild erness
ĠRaf ael
Ġt onn
Ġw ished
Ġpost p
es que
Ġaver aged
Count y
Ġ18 15
ĠSh arp
Ġob l
Ġlik es
Ġcomput ing
ĠTob ago
' "
ĠG uru
un o
Ġancest ors
it le
ĠC ry
Ġcast ing
Ġcommand ers
Ġlic ence
ĠB otan
Ġcelebr ations
z ens
Ġresemb les
ay ne
Ġbe ings
h p
ĠD oyle
Ġbre ath
Ġimm igrant
Ġlect ure
Ġobtain ing
ĠFitzg erald
U EFA
he ed
Ġin ception
L ar
ĠL ug
ĠZ agreb
Ġcontin ent
song writers
ĠHand book
ĠRe ad
Ê ¼
ĠP ale
ĠG unn
um ont
Ġper ception
ĠPol y
Ġnarrow ly
T O
ĠN ixon
sp ect
Ġcorrespond ence
Ġdeclar ation
ĠSh ot
Ġh alls
ĠCh ak
ĠPerson al
amp le
ĠBar ber
ĠMo hammad
Ġwalk ed
h ara
Ġc ig
ĠC over
ĠPract ice
pl an
ĠW ine
ĠCros by
ĠN um
ess ing
ĠCh rys
ĠShe ll
sp ecific
ĠRom ance
Ġthin ks
ĠM aking
ĠCongress ional
ĠU NESCO
Ġj ersey
ĠReb ecca
Count ry
Ġlin king
Ġsimilar ities
Ġinsp ection
Ġb acks
ĠCarpent er
Ġcl oth
Ġpart icle
ĠPet erson
occ up
ĠBr uins
Ġ10 9
oper ative
Museum s
ob ic
ĠS D
ĠA ston
Ġnot iced
ĠArab ian
H ouses
ĠT ate
ĠNew ark
Ġbu ying
ĠMic he
Ġdecor ations
Ġflo ating
ĠReserv oir
ĠEv olution
ĠPhill ip
Air ports
Ġmob il
T re
Ġv ault
ys c
ĠA in
Ġfin ite
ey e
Ġdiv ine
Ġvolunt ary
ĠL ocated
Ġprec urs
Ġcogn itive
ĠB enson
ĠN otes
ĠSp ecies
att les
u ition
eb e
Ġph ases
Ġpur ple
Ġflow ing
Ġm m
ĠLe igh
Ġinter ference
Ġto ugh
ott i
Syn opsis
it ate
ĠS ens
Ġnav ig
Ġmo ist
l op
re present
iv orous
ĠY ah
Ġart ic
ĠGr ass
art ney
Ġam id
ring e
B all
j ani
Ġg ast
Ġrem ake
ÅĦ ski
g ren
ons on
L i
Ġdis hes
Ġexplicit ly
ay ed
ĠSt ad
ĠSch war
Ġmag ical
Ġa uxiliary
ĠMid night
ograp hed
ĠBar rett
Ġview ing
yt es
å ħ
ĠBur ma
Ġsubd ivision
or an
Ġc ord
ad vant
188 4
ĠA ug
ĠChen nai
Ġpres erv
Ġprom ising
g ender
he art
ĠU A
Al bert
Ġdeleg ates
E ric
Ġs ect
Ġp owder
ĠPro gressive
Ġmet eor
Ġsl ope
Ġcatal ogue
ĠNeg ro
ra id
Ġm ills
ĠN othing
if olia
Ġpolit ically
Ġmet all
ĠDo ct
Ġlik ed
ĠJ et
Ġrel ax
Ġl ens
th ouse
ĠFle m
Ġterror ism
Ġdrain age
Ġn ec
im eter
ĠF res
Ġpot tery
Ġvolt age
F S
Ġsm art
Ġcapt uring
Ġorganiz ing
keep ers
he id
Ġf res
ĠF rost
Ġlist ening
Ġdest inations
Ġins urg
Ġwat ts
Ġincom plete
Ġb is
ĠI de
the re
ĠL ump
Ġdiss olution
Ġavo ided
R un
ĠC ult
ĠB ates
un ion
Ġge ographic
D VD
ĠR onnie
ĠBl ind
ĊĊ ĠĊĠĊ
Ġt ap
Ġab ortion
ĠBas que
ĠBry ant
ĠEston ian
A h
ĠDaw son
Amer ica
Ġt rom
em i
Ġrequ ests
L I
Ġdes per
Ġmon asteries
Ġmach inery
ĠS unn
os itions
res cent
ĠConc erto
ĠS v
Ġal ly
ĠV inc
Ġfood s
ets u
ĠJ as
ĠP ag
ĠAud io
a ic
ĠD res
st a
eb ack
Ñ ĩ
Ġcon cess
ong a
ĠCol legiate
ĠChrist ie
Ġinst ances
ĠV and
Ġout lets
ĠWe in
Ġconv ince
Ġsubstant ially
X X
n ell
ĠZ ar
ĠPeng uin
Ġd ances
ĠEsp a
Ġs aves
se in
ne ider
to ine
ford shire
ĠGl ory
Ġd Ã©
ĠL Ã©
Ġtact ical
iz on
au k
Ġadv ancing
Ġconc ur
ĠBrig adier
ĠCitiz ens
Ġenact ed
Ġcon sole
ĠMong ol
ung a
ĠRain bow
L ists
ĠChes hire
Step hen
ast ered
Ġint act
Ġsil k
enc ement
Ã³ pez
Ġmir ror
D anish
her ty
at ore
ĠM orm
Ch art
ĠNiger ian
haw k
ĠS iber
Ġsemif inals
Ġs ectors
Ġprov iders
Ġult imate
Ġmonarch y
Ġinnov ation
Ġdream s
ĠBy r
ĠRever end
Ġsearch ing
ĠI SO
Ġbig ger
n ership
od i
ĠCount ies
ordin ate
Fac ilities
ĠC ivic
Ġl as
ĠL ights
Ġde ity
Ġ18 33
Ġenh ance
ĠJenn ings
Ġ >
ĠH BO
Ġper f
Ġf ox
Ġfe ast
ĠIr ving
ĠWin chester
Ġconstitut ed
ĠHor ror
ĠGonz Ã¡lez
ĠApost olic
ĠH ydro
ĠB rett
ch w
Ġhe ating
ĠCle m
ĠAd ri
ĠAct s
Ġannex ed
ĠS ail
oin ing
Ġam ino
Ġresp ected
Ã¸ r
a uth
iss ues
ĠClay ton
oura ble
ĠE b
f ar
ĠH ond
ĠFl ower
lic ations
Ġprol ific
Ġp ent
ĠCh ambers
Ġinsc riptions
Ġwh atever
Ġac cent
Ġco oking
ĠNe o
Ġtr im
ĠAn imation
ĠDr ug
ĠEvangel ical
nd on
ĠT ouch
ia k
ĠSt ro
ĠSh iva
ĠPart ners
ĠDiv ine
Ġpl acement
az ing
ĠIs les
ĠPer fect
ĠFle ming
d ou
ĠA AA
18 70
ĠGal way
C as
m ain
Ġwarn ed
Ġl oses
ĠSt uttgart
ĠLat ino
ĠP end
ah r
Ġcontribut or
Ġconvent ions
Kn ights
Ġto m
Ġany where
Mag azines
C redits
ĠSh u
ĠĠĠĠ ĠĠ
Ġmy st
ĠMac Donald
ĠH ick
Ġdr agon
Ġproject ed
Ġge ography
Ġpath s
op en
cl amation
abul ary
it one
Ġrank ings
ĠSat urn
Ġpil grim
Ġteach ings
p ublished
ĠF ol
E ll
N umber
O k
Ġin ver
ĠHol t
m ant
Ġeconom ist
Ġauthen tic
Ġpubl ishes
Ġcomplex ity
ĠP ill
Ġcons on
Ġec clesiastical
Ġinf ected
Ġreve aling
Ġchart ed
War ner
Ġsupposed ly
Ġsustain able
B al
H arry
ĠS erg
Ġinter rog
M amm
ĠChrist ine
ĠMed ieval
Ġkid ney
Ġw orse
ĠSh o
tt emberg
Ġmist aken
Ġmast ering
Ġt ends
part y
ĠImp ro
ĠKash mir
s pring
Ġl ighter
Ġopin ions
ĠAltern ative
ĠLoren zo
B ay
ĠC yn
Ġd ust
ĠR CA
og ues
ach a
azz o
Ġrein forced
ĠAub urn
Ġt ern
Ġde an
ĠGen oa
Ġhighlight ed
h ang
ĠD ors
ĠK oh
ĠS ales
âĢ ¢
h om
Ġf u
Ġl ymph
Ġdet ect
Ġinf ant
Ġdefeat s
Ġstrugg ling
ĠKy iv
Ġspr ings
st at
el ius
H al
Ġin ning
ĠWilliam son
om bo
ĠG os
ĠLex ington
j ee
am en
ĠB rem
ĠG iuseppe
w ear
ĠA IDS
ĠN J
ĠAdminist rative
t ec
lyn n
ĠRick y
v ian
Ġl ion
ĠCamb odia
Î »
iv isions
ult on
Ġcomb ining
ĠS aid
Ġcons p
Ġsuper intendent
Ġw onder
in en
ĠT uc
uc ed
Ġpreced ed
Portug uese
ĠB ri
et ches
Ġcanc eled
Ġdim ension
ĠB ologna
ĠW are
ĠK ob
Ġpl aque
ug ged
ĠSw ord
ĠJacob s
ĠPear son
ĠPra irie
h ydro
Ġdec oration
Ġreb ounds
L oc
ĠH omer
Ġun released
eg u
Ġsucceed ing
ĠO v
ĠMy ers
Ġexam ined
ĠC it
bre aking
Ġfell ows
ĠP on
Ġrout ine
Ġliv estock
Ġnational s
ĠDem on
or io
N I
Ġc ivic
ĠF ow
ĠSh annon
Ġcons c
Ġfeat hers
ih ar
ĠRh ythm
Ġstat ues
Ġmel ody
ĠClif ford
Ġg ren
Ġbl ast
ĠLind say
ĠReb ellion
as u
ĠN ou
188 2
ÑĢ Ð°
ĠB it
ĠG erm
ĠO le
Ġsh irt
Ġfre eway
ĠAmÃ© rica
Ġcountry side
Sp ain
ĠRav ens
ĠG ov
sh aw
I d
Ġs ings
Ġs oprano
ut ory
Ġund ers
ĠAg nes
Ġsuff ix
ĠValent ine
Ġin ches
ram id
C S
L ith
f est
Ġd il
il ateral
ĠF ry
Ġcompet itor
ĠPap ua
ĠK uala
Ġcom merce
188 1
ĠOs aka
re qu
ĠT ud
ex cept
Ġhealth care
ay ana
12 5
Ġste ad
Ġcampus es
Ġfolk lore
Univers ities
b ing
ĠNob le
Ã ¬
Ġp neum
Ġm ont
ĠM anning
back ed
Ġappl ies
Ã¼r ttemberg
Ġstrict ly
Ġtradem ark
Ġnom inal
ĠUn cle
Ġcont acts
Ġlux ury
or ah
Ġc it
Ġinvest ed
Ġpseud onym
Ġcass ette
ĠK atherine
ili ation
Ġloan ed
Ġac cepts
ĠX avier
ĠBi ology
ĠA us
Ġcol ored
pr ising
ĠLaure n
Ġt ens
tt i
ĠL amp
ĠN T
Ġcomplic ations
ak is
Ġr ides
ib i
ick er
ĠSch midt
im edia
Ġex pense
ĠRod ney
ĠLank an
A k
Ġre per
Med ical
S anta
Ġbe aches
ĠDon na
Ġnerv ous
Ġt rem
Ġro de
Ġthough ts
Ġloyal ty
ĠDuc hess
ĠEx c
rad or
Ġhect ares
Ġs ometime
ĠC BC
Ġinv ention
ung le
Ġgall eries
ĠS uccess
ĠB ec
ĠO ce
ĠMatthew s
ĠMiddles ex
Belg ian
n eck
Ġw ounds
ist ically
Ġsp irits
ĠHigh lands
ÃŃ k
ĠS V
ĠG el
Ġcor rel
G overn
ĠZ ach
C am
i ency
ĠHold en
Ġclar inet
Ġpersu aded
Uk rainian
V is
Ġse greg
Ġnucle us
Ġpian ists
Ġconsec rated
vel ation
ĠTr uck
w y
ĠEuro pa
Ġec osystem
ĠBark er
D ark
ĠG one
ĠTh irty
Ġbu ff
Ġbl ank
Ġreal m
min ton
L iga
Ġb itter
Ġre issued
Ġre hears
ĠD D
ĠJ ain
Ġswim mers
Ġcould n
ÃŃ o
Ġimm une
Ġimpl ies
Ġin cl
ĠA ra
ĠC otton
ĠF CC
F ive
Ġterm ed
ĠEP s
mill an
Fore ign
Ġan k
Ġins ert
Mar ie
ĠImp act
ĠI R
ĠCare y
ary a
ĠAnth rop
T en
ys ics
ĠX ia
En vironment
Ġwarri ors
ĠF ram
ĠDoc umentary
m are
Ġport raits
ha o
ĠB ax
Ġport al
rel s
ĠSol o
Ġun ity
ar ound
ĠP oints
ver n
ĠD S
Ġdes k
ĠDr um
ikh ail
ĠA val
ĠMan ch
Ġmin iseries
ĠVeter ans
m atic
ib ia
ĠD ix
ĠCan on
Ġdet ected
ĠGl oria
Ġcolumn ist
m itt
Ġtrans mitted
ĠLeg acy
187 8
R om
ĠC unningham
sh ima
ĠY oun
ĠRaj asthan
am ma
ĠIn ner
Ġscreen ing
ĠRou ge
ĠCal der
ic ola
ĠShe pherd
ĠWrit er
Through out
Ġw ards
Ġst rain
ĠApp lied
ĠMir ror
Ġadvoc acy
ĠD ise
ĠE rik
ĠK ens
Ġhand ful
Ġschol arly
Ġsl ide
ĠParagu ay
ĠM aid
Ġis n
Ġun official
Ġtro op
Ġfund ra
ure n
ft en
Ġstrugg les
ige on
ĠR ash
ĠW an
ĠHerman n
E ven
Ġhop ing
ĠExpress way
Ġrepe at
anth a
B ang
ĠT alm
ri ot
ĠCon vers
Ġprot ocol
ĠHaw kins
Cont rovers
Que ens
Ġparam eters
Ġinfer ior
ĠAl c
ĠJer ome
Ġuniform s
ik os
ob y
ĠT uesday
ĠSoph ie
rit ic
Ġcl ips
g rave
ou st
ĠW ak
str ing
im on
al ach
Ġball ads
Reg ional
ĠSin clair
ĠVal encia
Ġlack ing
B rad
m art
ĠC edar
Ġsw ept
ĠVo ices
ĠParam ount
qu a
ĠNov el
Str ucture
Ġen erg
Ġg ifts
ct ica
p ot
Ġs ear
ĠM ate
Ġbl acks
Ġexpl aining
ĠMah m
Ġbes ide
M ov
ĠM ugh
ĠD over
lish ment
Ġval ve
ĠColl ier
ĠAut om
ĠFeat ure
å Ń
Ġt ab
Ġinter active
ĠG reeks
Ġreg ulatory
Ġesc apes
Ġcommercial s
ĠNag ar
ĠLib ya
Ġign ored
cut ta
Ġeth ics
at ched
ĠL uz
Ġbroad er
AR T
ĠDub ai
cent ric
com ed
ĠMe eting
Ġ umb
ĠK amp
Ġfinal ist
Ġap ost
ĠJes uit
ĠB in
Ġadv ances
ĠRang er
B on
Ġfl ora
ĠComp anies
ĠDeuts che
D ivision
Ġd ens
ach ute
ĠEn c
ĠToy ota
ĠV ander
Ġfem inist
ĠCap t
ĠSand ers
Ġdischar ge
M os
ĠC ounsel
Par is
Ġen abling
ough ton
188 3
ĠN ad
ĠK ell
Ġmeasure ments
F K
ĠG ob
Ã¡ il
ĠRes ults
ĠCal cutta
Cap tain
S on
or ate
Ġopt ional
Ġteen age
Ġt unnels
em on
ĠV ia
ald o
Ġkey s
ĠVik ing
ra pe
Ġfre ely
ĠG le
ĠInter mediate
ĠOri ent
P ast
s ome
ĠRivers ide
Ġsur veillance
ĠTom orrow
Ġsex ually
x x
ĠD esc
ĠK rak
up p
ric anes
Ġseason al
Ġpri zes
ĠBas ic
Ġa ided
Ġenorm ous
ym ru
Comp et
ian ces
Phil ip
Ġtong ue
Ġsm oking
as o
ĠD ana
ai res
Ġmod ifications
Ġship ped
erne ath
Ġbutter fly
ĠBever ly
h yd
Ġpath way
ĠPubl ished
Ġab d
D O
ment ed
eb o
son ian
h ole
Ġinv as
ĠD ogs
ag in
ĠK O
ĠSteel ers
Ġb inary
ĠMaced onian
G ray
haw ks
ĠBes ides
Ċ ĠĠĠĠĠĠĠĠ
Ġsh adow
Ġcommun icate
ĠTri o
Ġcompar able
com b
lo aded
ĠM ih
ĠPh ase
Ġpeak s
C all
ĠG ap
Ġbo om
ĠPr ussian
Ġgl ob
ĠInter active
Ġshoot s
Arch ae
Ġrevers ed
ers e
ĠI N
bo ats
Ġaddress es
ra il
Ġimpro v
il ight
Ġgu idelines
B alt
ĠB oot
ĠCl ar
Ġcolle ague
ĠTibet an
c yl
d ong
ĠK ai
err ill
ĠSold ier
Ġin quiry
ĠM iz
ott ing
Ġbr ack
Ġorigin ating
Ġcont ing
Ġdif fers
ĠInt el
Ġcarri ers
ĠC ic
ĠU P
act ivated
orne o
Ġex cluded
Ġment or
9 00
rain ts
C ong
R ick
z one
le et
Ġat omic
ĠTra vis
ĠRand olph
Ġchrom os
ĠBuccane ers
o ise
it ivity
Ġman eu
Ġfin est
be ing
er ical
ĠChe rokee
Ġsurpr ised
R P
al on
ĠR ally
ul ative
K ansas
ĠC able
ran es
ĠY i
Ġtal ented
ĠC ars
Ġspec ially
ment ioned
ĠAn s
Ġannounc er
Ã¨ ge
Ġir rig
Ġpresum ably
K ent
Ġam endment
Ġdifferent ial
Ġpe ers
ĠMart y
ona uts
Ġs olic
eg an
ĠGu est
ĠDr ag
ĠCam den
Ġpage ant
Ġpeace ful
S umm
ĠT ren
ĠB ing
Ġl unch
Ġrob ust
Ab out
ĠRud olf
ĠG entle
ĠE MI
ber n
Ġrepl ied
g iving
Ġw ool
Ġcons erv
ĠWar rior
Ġstop ping
ipper ary
ĠAm ar
Ġphys icians
edd y
ĠTh ur
Ġeduc ators
Ġ æ
Ġconsolid ated
al om
Ġmet re
Ġsent ences
ĠHow e
L GBT
ov Ã¡
Ġqual ities
Ġpros ecution
ans on
ĠAng ola
Ġplum age
L ate
Ä Ĺ
ĠEx tra
Ġline age
ĠPre viously
Ġprec ise
ĠHast ings
s ometimes
ĠR B
inn ess
Ġdist ances
Ġpres idents
Ġcycl ists
ĠS as
Ġnot orious
H ard
ĠN ut
if ted
ic ides
Ġstri ps
Techn ical
Ġcouncill ors
ĠT ap
ĠRiver a
ĠFranc isc
and ez
Ad am
Ġunc ons
Ġelim ination
Ġsurpr ising
Ġupris ing
ĠH ag
ĠWorld s
B arn
ĠL uk
ub an
Ġcoll ision
ut ers
Ġunder took
ĠMad ras
ĠTra ffic
Ġd ign
ĠT il
ĠP ablo
ĠW IS
Ġkidn apped
Ġris ks
B oys
I r
N ever
ĠUn fortunately
inn ings
Ġ11 1
Ġtri umph
Ġcult ivation
Ġrepr inted
f an
Ġm igrated
ĠL ars
int age
Ġharm ony
Mean while
ĠR um
Ġr uf
Ġr ush
ĠPal omar
ĠEv an
ĠC rew
ide a
Ġtask ed
ĠChand ler
ĠInvest ig
ytechn ic
R est
or iginally
Ġlingu istic
ĠChar adri
un ter
Ġkn ife
ĠMar ina
Ġsusp ect
ĠC ancer
her ry
Ġmet ric
Ġendors ed
S ax
l ance
Ġreg ulated
Ġmodel ing
turn ed
T ype
Ġto oth
ĠConserv atory
Ġtox ic
Ġc aves
ĠAn ch
Flor ida
ĠAtl Ã©tico
Ġst ip
ĠSw imming
ĠApp eal
K evin
Ġrecept ors
Ä ĵ
ĠSt ream
Ġc inemat
Ġancest or
ĠProper ty
Ï Ģ
ĠG iro
ey ard
Ind ust
Sil ver
ĠAntar ctic
Ġ2 20
Ġover time
Ġh aul
at l
ĠC ao
Ġmin ers
Ar m
Ġel ong
Ġscreen writers
ĠCh ip
og e
G O
O p
t ures
Ġunder water
Ġequ ality
Dist rict
B urn
E gypt
S urn
Ġurg ed
Ġplay wrights
Ã¡ d
iol a
udd ers
Ġche ese
Ġexcess ive
c r
y led
ĠG ior
Ġret aining
ĠBet ter
Ġmist ake
Ġto y
ĠP ip
ĠH ands
Ġaccept ing
ĠPhilip pe
ĠL O
ĠL Ã³pez
Ġst om
ul ent
ps wich
Sp ecies
Ġdam ages
ham a
ĠWe ap
Ġinstitut ional
ĠA yr
ĠLomb ardy
w on
en ko
ĠNational s
ĠChar ity
ĠMarin ers
ĠCal vin
Ġvill agers
Ġappeal ed
ĠIniti ative
d rama
Ġsl ender
ĠCarl isle
Ġprin ts
Ġportray al
Ġundef eated
S qu
Ġcom eback
sh ort
urb s
S erie
ĠN un
ĠO mar
Ġr ic
Ġle uc
ĠTh ous
Ġswim mer
Ġd ome
op a
Ġj oy
aceut ical
Ġattribut es
T a
ĠV ince
Ġrev ision
John ny
ra ul
k ir
Ġthe ological
ĠL ob
ĠSej m
Ġtend ency
ĠPars ons
ĠT ad
Ġfav ored
Ġpartn ered
P L
ĠB Ã©
Ġl od
ĠK err
Ġyear ly
Ġexp ired
Al an
Ġe ase
Ġag gress
Ġw ears
Ġh ung
ĠCal d
Man ager
Ġmand atory
ĠS ain
ĠG raf
Ġal pine
Ġher b
Ġreg ained
M O
Ġhe aven
Ġk een
anc ock
ĠDec ision
Ġcor ridor
Sc ient
Det roit
Ġrep ublic
Ġresid ences
Ġremn ants
St arting
Ġr u
opter a
Ġteen ager
Ġb ark
ĠT ay
ĠBro oke
Ġstrong est
ĠHa iti
ĠSom alia
ĠPur ple
imm ers
Tor onto
Ġaqu atic
Ġ18 25
Ġac ute
ĠÎ ±
ĠMÄģ ori
ĠW imbledon
ĠRun ner
ĠOkin awa
G i
T urn
ĠR ita
Ġ á
ĠC I
Ġhom eless
ĠFly ers
Ġhi atus
Ġ11 5
ĠVirt ual
ĠVal le
Ġche f
Ġbur st
Ġquant ities
l ake
Ġv est
und erb
Ġtr ilogy
ĠEl s
Ã¤ n
Ġpl atinum
Ġinstitut es
ĠAnt werp
ĠT ac
Ġcomm ands
Ġbreak down
c f
ĠHy der
T ake
ĠH ip
ĠL ance
Ġdem anding
Ġport folio
Ġsanct uary
h on
al and
ĠM aps
ĠD iane
ĠNo ah
ĠStar r
l ide
Ġres ided
pl ays
Ġchar itable
Ġmar athon
ic ap
im id
ĠThe ss
ĠJ ian
Ġtra ff
Ġsomew here
Ġ Ø
or ie
ĠR BI
ĠRe ference
Ġins u
Ġdeal er
ĠSey mour
it ra
ĠG A
ĠV ari
hn e
aj o
Ġreason able
Ġcoordin ates
Ġh urt
Ġun t
Ġtw elfth
ĠLab rador
Ġwar rant
Ġcruis er
Ġaut onomy
Ġsp ider
ĠSal is
Ġc av
ĠC aval
Ġbi ographical
Ġst uff
ĠEx amples
res hold
ud er
Ġrec y
Ġinstall ations
ĠR M
ĠIn ternal
ĠAll ison
ung al
Ġextra ordinary
east ern
Ġcorpor ations
Ġsoph istic
l ings
Ġt ender
ĠSt eele
ĠGeor getown
ĠK ras
186 7
ol om
ion i
agon ists
ĠId ol
cul osis
ĠP BS
ĠSy nd
Ġdecommission ed
ĠJ ob
Ġgener ic
ĠEmir ates
id ium
end e
Ġshell s
ul g
Ġint elligent
Ġcur ved
ush i
Ġrock y
B uff
ĠT ran
og enes
ors che
Ġschool ing
187 9
ĠH ogan
ĠAl ess
Ġpre ference
Ġviol ations
ĠBudd y
ess es
ĠAr b
inc k
ĠRap id
ĠSwan sea
Ġphilanthrop ist
Ġexpert ise
Ġ ump
ĠF ors
ĠN Z
Ġmon key
h yn
Ġp istol
ĠS ut
Ġm otto
ĠMay o
Ġprof its
red itation
Ġdi agram
Ġfrequ encies
Ġfresh man
ĠAssoci ates
Ġto ile
oc y
ov ic
Ġ18 29
Ġtr aced
ĠZ Ã¼
Ġdef ault
ĠRuss ians
H all
end orf
Ġ13 5
ĠSam oa
at an
et al
Ġz oo
N L
p ike
ĠAir ways
Ġanal ys
Ġdom ains
ĠMoz art
Ġgen eal
Ġmar ched
U D
Ġd warf
Ġsec uring
Ġm im
ĠF ate
ĠTh anks
Ġs ank
Ġisol ation
he ll
ĠTe ams
ĠCons ult
Ġopt ed
Ġspons ors
Ġc um
th orpe
Ġbr illiant
Ġrad ius
g on
Ġa ug
ĠN igel
rit ies
Ġre habilitation
Ġan ger
oc us
ĠD il
Ġbut ton
Ġpip eline
Ġm ice
ĠD raw
atch ing
Ġlimit ations
Ġd iox
Ġactiv ation
Ġcoin ed
ĠOil ers
b ir
Ġdis qual
ĠAugust a
omet ric
Ġcomb ine
ĠR ost
ĠL ans
az on
omot ive
ĠE sk
ĠAll Music
Ġthrow s
ĠGuj arat
g t
ĠV on
ĠRe agan
187 6
an ese
am us
Ġl augh
Ġ18 21
Ġappro aching
ze k
S et
Ġtrack ing
ĠJud y
Ġadvis ory
Ġcomed ians
ĠS ource
ari at
Ġreal ize
ĠSc ript
ĠOrgan isation
Ġpoly mer
N O
n or
ĠM Ã¼n
ĠH M
iv or
op ot
wing ed
Broad way
) ",
Ġwork force
Mar vel
186 5
ĠTal bot
ret to
ĠL ub
ow ay
ĠCar men
Ġins ign
Ġres on
Ġaccept able
Ġinvestig ating
Ġcann on
Ġswitch ing
ĠSpac ew
ĠC ategory
ath lon
Ġfe ared
Ġplan ets
n ear
ar ine
Ġm ood
ex pl
g reat
o za
Ġp our
Ġtw ins
ĠVol ks
ĠTw itter
Ġfaith ful
Ġfoss ils
it ism
ĠL ibr
ĠCl arence
ĠCatholic ism
Ġre branded
ĠCl ose
Ġpublic ity
ipel ago
ar as
ĠComm odore
ĠBrit t
Ġdu et
Ġlength y
Ġgovern ance
ĠHan over
Ġlisten ers
H ou
ĠP ok
ec onomic
ĠWil ts
gu ard
ĠR Ã©
Ġvot er
Ġinform al
educ ational
ĠP asha
Ġst ems
ĠFl at
ĠWest on
ĠPr att
L ost
Ġequ ity
ĠMill ennium
Ġcat ches
ĠMem ory
ĠNi agara
ĠSt alin
ĠTe achers
Hung ary
Ġlegit imate
ĠM ouse
Ġcyl inder
W alter
Ġaff ecting
Ġcard inal
U nd
it at
Ġb ust
Ġoccup y
R ad
ĠRes ort
Le on
Ġgamb ling
S and
Ġmot ors
Ġinst ant
Game play
, '
a qu
t em
od d
ĠN est
With in
Ġpitch ing
Ġre ly
Ġcl usters
ĠDex ter
T I
ie le
Comp uter
J am
ĠBy ron
ĠLam bert
ies el
Ġun related
ĠJu vent
Ġpsych iat
P rop
ĠSp y
Ġshow c
Ġtax i
bro ther
Ġve in
Ġtelev ised
ĠBullet in
ĠDolph ins
ĠC um
ĠCh op
rol ogy
otherap y
A round
N a
Î ¼
Ġ !!
ĠC ull
Ġplant ation
ĠLenn on
ĠKann ada
Ġadequ ate
ĠBagh dad
ĠS ob
Ġd uck
Ġatt ained
Ġtrans action
Ġfac ade
Ġre ef
Ġsp aw
Ġ18 14
isl av
Ġtot ally
E urasian
L ev
ĠD erry
d ivision
Ġh orm
ceph alus
ĠPort rait
Ġemploy er
v re
Ġs ights
ĠH itch
ĠSim mons
Ġvow el
F R
ĠB ash
Ġl ith
Ġl ocked
Ġsing ular
Ġdesc riptions
Ġadapt ations
Ġ18 28
Ġmonarch s
Ġgarn ered
ĠJ ill
Ġsup ernatural
ĠMos que
Ġcounter part
Ġfresh water
ĠC ats
ĠM ons
Ġst ance
ap le
Ġco e
Ġ11 2
Ð½ Ð¸
L ew
ĠE arn
Ġaccount ed
ĠAbd ullah
olec ular
ig raph
186 8
William s
Ġquant ity
ĠHold ings
B ishop
H or
ĠM ega
ĠB old
Ġsuggest ion
ĠBang kok
Ġto ys
ĠC e
ĠC ors
Ġr aced
ĠV ampire
ĠCar th
ĠRome o
Ġincorpor ate
u ine
Ġ ?
Ġevery day
Ġwire less
b rown
at isf
ĠB ian
own ers
ĠP emb
ĠDar ren
ĠGal axy
D ie
Ġin mates
ip linary
Ġeffect iveness
Ġreport ers
ĠFound ed
187 7
ĠA u
Ġre duces
ir able
Ġ18 10
Ġ4 50
Ġham mer
Ġles bian
H aw
M icro
iz able
Ġover view
Ġrem arked
ĠJul iet
Ġprecip itation
ĠSt o
Ġr ushed
Ġdis advant
ĠEnt ry
1 13
ĠPer uvian
ĠBlack burn
ĠAlf onso
music ian
Mount ain
ĠCount ess
Ġdiscuss ing
w il
Ġst amp
ĠC M
Ġse as
Ġsp are
orth y
18 75
ĠHans en
ĠN ights
ĠLe inster
ĠZ am
oth ic
ogn ition
Ġcerem onial
ĠTal iban
Ġrif les
Ġgran ite
ĠHass an
od ont
end ments
ull s
Ġabund ant
F ull
irc raft
Ġste ady
Ġlineback er
Ġw ored
ist e
Ġassoci ates
Ġgener ating
gu itar
Ġpod cast
Ġpasser ine
Ġen ables
Ġbro w
Ġadd itions
Ġdyn amics
ĠSt oke
ĠShe ikh
log roup
Ġv ibr
ĠCr im
er land
Ġ18 24
ĠC ounter
Ġoverwhel ming
ĠP ius
og i
G irls
os i
Ġcol legiate
ĠRen Ã©
n orth
Ġuncons cious
Ġj ockey
Ġwhen ever
Ġreflect ing
direct or
et i
ĠR iding
Ġcool ing
ĠG n
ĠCom ing
Ġlo osely
Ġid ol
Ġcont empor
Ġsett ling
m ov
or is
ĠS utherland
ĠS ale
ĠN er
ĠIs h
ĠEd it
ĠRand all
ĠMong olia
ĠG ould
up a
Ġab n
Ġmet ro
ĠWW E
ĠNurs ing
Ġpro ud
Ġapp lying
H o
Ġf ever
Ġc arriage
Ġmod er
Ġext ract
ĠBerks hire
f ax
ĠW ife
R acing
Ġm ock
ent er
ĠAr cher
Ġpart ition
ĠD oming
ĠHon ours
ter a
inn y
ĠSc hed
Ġcult ivated
ĠSal am
Ġche er
B ased
P arl
v ae
ĠS eth
Rec ent
ĠEc onomy
Tax onomy
ĠJ ab
gen eration
ĠMid west
ĠL yric
are th
ĠPe er
Ġp ocket
Ġch aired
ĠAr row
Ġday time
ĠChron icles
ĠDw ight
F emale
J ackson
K al
f rey
Ġfl ies
riz z
ĠLaure nce
Finn ish
Ġim per
ĠWar wick
ĠC ran
ov al
Ġcommemor ate
ĠEmb assy
ĠLe Ã³n
Ġout s
Char acter
ĠHig gins
H ip
Ġc rystal
Ġher ald
Ġfin ancing
Ġsoc io
ĠW ey
18 60
ĠP ig
ĠInvest igation
ĠL yd
Ġdocument ation
Ġri ots
ĠPione er
Ch ile
Ġeat en
ĠAven gers
f aced
g ars
ba hn
Ġsevent een
ĠS abb
Ġm eth
ĠCon v
Ġident ifying
ĠHawai ian
Ġmark ings
F iction
Ġb ol
Ġexplos ive
ĠP rel
um ar
Ġlin ed
uk h
Ġpref ix
ĠDres den
L ow
ĠL ily
Ġrenov ations
D a
D in
Ð ·
Ġb arn
Ġm asters
ĠV y
Ġparticip ant
Phil ipp
f und
Ġant enna
agn etic
Ġgrav ity
ĠN umbers
ĠSol id
Ġinteg rity
Ġrecommend ation
Ġrejoin ed
ĠT ram
ĠW ise
ĠJ ing
ĠT ina
ĠM oy
ac ies
Ġevac uated
ĠBe aver
Ġprogress ed
Ġsleep ing
Common wealth
K im
il ib
Ġne o
Ġtri angle
e ous
Ä Ļ
ĠDaniel s
Ġe y
ĠD ais
Ġun m
Ġoff shore
itt a
ante ed
Ġstream ing
Ġdispl aced
Ġread ily
ĠPhot ography
Ġb anner
Ġp ac
ar ro
Ġb a
ĠRec on
ĠOcc up
om ore
ral tar
ĠAn ita
ĠGl ac
ĠMag dal
187 4
ĠBeh ind
ĠWheel er
Ġmet als
ĠWater loo
Cle veland
ĠCN N
Ġded ication
Ġassess ed
Ġtax a
ĠBh ar
ort al
iz ards
Ġupd ate
F ederal
we ed
Ġf oster
iz za
ilk enny
ĠĠĠĠĠĠĠĠĠĠĠĠĠĠĠĠ ĠĠĠĠĠĠĠĠĠĠĠĠĠĠĠĠ
ĠC ot
10 5
Ġlaunch ing
ĠAndre as
Ġteam ed
int eg
ĠWild cats
ĠSpacew atch
or ian
ig ma
ĠGr im
Ġfront ier
Ġspac ecraft
Ġcoupl ed
Ġf illing
Ġsh aft
ĠY o
Ġconsult ing
E lection
Ġsc rapped
Ġcontin uation
Ġeng aging
ĠPay ne
ĠFerr ari
ĠRodrig uez
is ans
ĠMon k
Virgin ia
ĠUr s
ĠHab sburg
w ave
Ġle v
Ġcl ause
road s
ffbb bb
Ġl oud
ĠCh orus
ĠComm une
ĠBrit ann
Dist ricts
ubb ard
as ian
Ġobserv e
D igital
ĠS my
Ġbe ats
Ġapp ar
Ex amples
Ġsim ulation
ĠSlav ic
T ro
ĠS onny
ĠP aint
Ġch im
Ġpresent ers
Ġtrail er
Ġaud itorium
ĠV est
ĠStev enson
ĠSun shine
Ġt iny
Ġm ate
ĠGra ves
W inter
Ġd rops
g irl
s ec
Ġf ant
Ã ¹
ĠC hern
ĠK iller
cl er
ĠY as
g uez
ĠI ber
ure ate
Ġtra its
Ġorgan s
ĠEl vis
187 3
T ok
ĠH aj
ck er
pro file
lar ation
air craft
echn ology
Ġdon ation
N ob
ĠA id
ĠM B
Al bum
Ġamalg am
av ior
Ġj ealous
ĠCal ab
Ġcr uel
ĠH os
Ġout let
Ġfact o
Ġcour age
Ġovers aw
Ġsed iment
c urrent
ul am
Administ rative
l Ã©
Ġh iking
fl ower
Ġnever theless
Ġb und
ĠAll ies
Ġsynthes izer
ĠMonth ly
Ġpractition ers
c up
ĠH arri
Ġmod ule
ĠBro ken
ĠSalis bury
ĠP asc
Ġsc reens
ĠAng us
roll ing
ĠVenezuel an
eon ato
ess ment
itt y
ĠPil ot
ĠM ald
ge ant
Ġsh oes
ĠCon sequently
Con stitu
ĠProgram s
Ø ±
Ġo g
ĠL SU
Ġsh apes
Ġcare fully
ĠF landers
ĠN iss
vent ions
Ġlocal ities
ĠWe iss
itro gen
c ery
ĠT ulsa
ĠR im
Ġ18 18
fr ame
Ġt ensions
ĠSt am
cont rolled
ĠLow e
ĠVij ay
rit e
Ġep onymous
ac ey
ĠSc ore
ĠIn tern
Ġcons umed
Ġinc ons
Ġcame o
Ġsw ift
ĠCaucas us
Ġa unt
og ens
Trans l
ĠLump ur
Ġm aker
Ġj aw
he a
ĠNic olas
ĠHerc ules
udders field
Ġthreat ening
ĠH ague
ĠI k
ĠD ag
ud s
ĠNaz is
ĠMalay alam
Ġo wing
is o
af i
ĠMer chant
Ġincorpor ating
Rog er
R a
ĠAl ps
ĠPer kins
ĠWolf e
Ġdeliber ately
ro sc
ĠEl ite
Ġconduct ors
Ġcompl ained
Ġtheat res
ĠExper ience
ro b
ade qu
ĠCl oud
Ġdr inks
ĠNicarag ua
Ġp m
ĠM ask
ĠH imal
ĠCh am
ĠAustral ians
F i
ĠS ew
ĠT ill
ĠH yp
st ick
ar ie
Ġd ivid
Ġdo zens
Ã¡ z
L ady
Ġsurv ives
Ġrob bery
Ġphr ases
Minn esota
G ary
ĠT ipperary
Ġund erneath
Ġsix ty
Ġdoub led
ĠL ucky
ĠHar lem
ĠHy per
ĠBart on
ĠBuch anan
Sm all
at hetic
ĠP seud
ĠN ice
Ġv end
b ay
ich t
Ġleg ends
Ġexcept ions
Ġmed ic
ĠCor v
Ġmemor able
mer ged
erman ent
ĠSom ali
Iran ian
ol ation
bb ffbb
Ġarm our
Ġfemin ine
r ar
ĠCh ic
Ġcomp atible
or ax
ĠB ram
ĠSc r
Ġleng ths
Ġ18 01
rÃŃ guez
Ġqu artet
Ġmark er
Ġveget ables
Ġcontroll er
ĠV ul
ĠHuman ities
Ġvalley s
ĠRena ult
ec ute
Ġpup pet
Ġ18 26
Ġsub mit
fl ight
ours elf
Ġri ot
sk irts
ĠSav oy
Ġpione ering
ĠLif etime
ĠC oc
ĠD A
Ġsh ar
Ġsk ate
Ġmag net
ĠH ancock
ĠEurope ans
AT A
ĠL ec
Ġg ospel
Ġ18 03
ily n
Ġco aster
ĠPal ermo
Ġrein forc
Ġpod ium
ĠInnov ation
Ġsymb olic
Ġm ere
ul ing
Ġbas eman
Ġdiscipl ines
Ġtonn es
ĠI brahim
act yl
ĠFar mer
Ġinn ocent
l v
im us
Ġsp ear
Ġcont rary
Ġ11 6
Ġdown stream
ĠQuarter ly
á¸ ¥
Ä ĳ
ĠS EC
ag us
ĠOl ive
ĠArmen ians
Ġwel comed
Ġintro duces
ĠLincoln shire
Ġhaz ard
o ids
ĠL Ã¼
ĠF ury
ty ard
row span
ĠMart ine
ĠEvery thing
Ġf ears
Ġd ental
Ġres ist
Ġrece ivers
ĠReg ist
ĠMir anda
ĠBarb ados
thro ated
h ana
qu el
Un like
Ġfor um
orm s
Ġexp enses
Ġdeterm ining
Wind ows
Ġf us
Ar men
Ġt ails
ĠZ ur
Ġmetab ol
l ate
m ag
Ġl ots
ĠW o
Ġreg ards
Ġdec omp
E mb
ĠS ometimes
ĠD ancing
ĠL atter
oll a
ind on
Ġcompet es
ĠProv ision
orde aux
D eb
y am
ĠTalm ud
T ar
ĠF ischer
Ġex amin
Ġreconstruct ed
v als
os us
ard on
Ġ18 16
Ġexcept ional
187 1
Ġinstruct ed
Ġemb edded
ĠIceland ic
ĠT ian
ac ia
Ġdec lining
ĠQu ad
t w
ĠThe ology
Ġpup il
Ġdecor ative
ĠPiet ro
r uz
ĠGro s
Ġpers ecution
t ax
Ġbet a
Ġsup ers
tt a
ĠKar achi
ĠB org
ul ata
Ġpl asma
ib e
ĠReg ina
ĠDep ot
ĠQual ity
zb ollah
C old
U M
ĠI CC
ĠF ritz
Ġar che
ym met
Ġant is
ĠSa unders
ĠMcC artney
oft en
Ġ( $
ĠF arn
uc c
En ter
ra j
Ġam ended
ĠDr ums
After math
Ġspread ing
ĠMar vin
Ġbl amed
Ġmod ification
as co
Oh io
b led
Ġhe ated
ĠAl pine
Ġ17 0
Ġpat ch
Ġchem ist
Ġfulf ill
ĠD harm
ae k
aus es
ĠTechn ologies
Ġat op
ĠRe leased
ĠS ieg
Ġd olph
ĠV oy
ĠSe lect
f aces
ig hest
ĠSc ulpt
ĠPart nership
Ġwarri or
Ġtheolog ian
ĠK T
ip ment
ĠMar se
Ġtit ular
ĠCongress man
Ġpurs uing
Art icles
ĠGer ard
g il
ĠL ill
Ġch ase
eat s
Ġcol oured
Ġphys i
ĠGib bs
ĠJose f
Ġrout ing
B illy
an za
ĠK oz
Ġsaf ely
Ġresol ve
r ust
ĠB ant
Ġhe aling
Ġcivil ization
Ġcycl ist
it ches
rict ion
b ott
Ð ±
al one
Ġs our
ell ites
ĠSal le
Ġb ells
ac as
ple ted
ĠGu er
ĠSch u
Ġdeep er
es ia
ag awa
C ome
Ġval ued
Ġinvest ments
ĠPan ch
Ġsoft ball
Ġkind ergarten
rec ord
ĠCas ino
Ġconcent rations
Ġgolf ers
ĠFlem ish
n ance
ĠS ept
ĠCh ung
Ġunder way
Ġincorpor ates
H T
ĠT omb
ĠG aul
ĠN one
Ġarch bishop
ĠEm erson
ĠMaur it
ĠRub y
Ġpromin ently
ĠK ick
Ġun rest
pl ate
St ars
H an
to ire
ĠGreen wich
Ġburn t
Ġcorrect ly
auth ored
Ġemb ry
S ol
p uts
Ġesc al
Ġstadium s
ĠY ar
ĠBel ize
roll er
ĠLeg ends
ĠFI BA
ĠBah rain
ĠEle anor
Ġrect angular
Ġsp here
ĠPh oto
ĠB ound
Ġinsu fficient
Ġpurch asing
ĠProduct s
amer ican
Serb ian
ep per
ĠAre as
ĠIsab ella
ĠK ramer
Ġrad i
Ġbare ly
ĠByr ne
y ang
ac ity
Ġafter ward
Ġprom ises
Ġconsequ ently
d eg
ĠWal ton
ĠUnivers ities
Ġvac ancy
ĠOw ens
ĠNiel sen
ĠM ikhail
ĠF rog
ĠBe er
Ġexpect ations
Ġ12 3
Ġexpl orer
Ġscreen ed
Ġcho osing
E arl
L im
ĠC oy
ĠAb s
Ġgra ves
b illion
ĠC annon
ĠI B
ĠCol t
St ory
ĠÃ ħ
ĠCele br
ran ged
Ġmatch ing
ar ina
ĠG C
Ġspec ulation
ĠAt ari
ĠNo el
Ġens uing
Ġso ils
ony ms
ĠSw ift
Ġamb itious
Ġm arriages
el man
ĠW ien
ĠBl acks
Ġgymn asium
ĠF ashion
Ġsp o
for ward
is ely
ĠIn st
Pr ime
Ġmoment um
Stat istics
ĠQu Ã©
ĠMac millan
ĠF actor
Ġse aled
ĠInvest ment
D ick
Ġb its
str Ã¶m
Ġrem od
ĠMan ual
Ġastronom er
ĠGlou cester
Ġsub way
ĠDep ort
Ġprim itive
ĠRob b
Ġsubject ed
j et
ĠF ork
ĠN ina
Ġtechn ological
ĠÎ ²
Ġrelie ved
1 21
up iter
is chen
ĠB iblical
oth s
Ġdec isive
ĠDe er
Ġsyn th
Ġjew el
Ġaster oid
r acks
ad Ã©m
Ġun h
ĠReg ular
ship s
ĠCO N
Ġun ified
ĠAb ram
ope z
ĠNe uro
est o
Ġend e
Ġflag s
Ġgra vel
ĠJama ican
Ġenthus iast
Ġre pt
ĠH esse
op oly
Ġun named
Pl ayer
ĠLev y
L ess
ĠN ab
Ġv iral
Ġph ylogen
Ġpost season
cyl inder
h ak
ĠC ron
ĠB ols
Ġ17 90
Ġpast oral
Ġs acks
ic ious
Ġrem inis
187 2
Ġpret ty
ĠP eck
ĠE asy
og l
Ġtum or
ĠT T
ĠF unk
Ġex empt
Commun ity
S und
ï ¼
ĠPl atform
ĠJud ith
ĠWorks hop
Ġgymn astics
Ġim aging
d ict
ĠL up
ry an
ĠAl ive
Ġout skirts
Ġcontact ed
ĠKnow ledge
ĠR ather
ĠK ild
ob ia
ĠBr at
R ace
ĠI pswich
and an
ĠK ara
Ġinc omp
Ġch icken
Ġen z
Ġbreak through
Com ics
cont inental
ĠSp ot
ĠSter ling
re ach
ĠC razy
ĠJournal ism
ĠAl to
ier a
R am
m u
Ġro pe
atri x
Ġdram atically
Ġmolec ule
Business people
ĠBren nan
S us
ĠG wyn
Gr ade
ĠC umb
ĠM E
ik u
Ġprot ective
enth al
Ġcooper ative
f orth
ĠH ess
Ġcl iff
ĠRes olution
B eh
ĠM uss
Ġr er
Ġ18 27
Ġcapt ained
186 1
Ġsand stone
ĠLah ore
G overnor
ĠM O
id is
Ġsup ermark
Ġstri pped
bet ween
Ġsovereign ty
lo ok
it ial
ĠD ip
Ġat oms
uk o
Ġweak ness
1 17
Ġarm oured
oun ge
ĠY oko
ĠTh ink
ered ith
uls ory
Anth ony
Ġdiox ide
i Ã¨re
Ġ12 7
ĠFl ames
Ġnight club
eli hood
ĠM use
ĠB ills
Ġgu y
Ġspok es
ĠPÃ© rez
u w
Ġm aiden
ĠAl am
ipp on
Ġhold ers
ĠK ak
Ġtrans actions
10 4
ĠP ueb
ĠL ore
aw an
Ġred esignated
ĠArch itects
oul os
osp here
ĠSerb s
Ġrow s
ĠMans field
Ġprecurs or
K C
Ġo val
et to
Ġwh oles
Ġper ipher
Ġencour aging
Ġsurg ical
he res
Ġar ter
oss a
Ġsuccess es
Ġcycl one
Ġpr ide
Ġwhere by
ĠLiving ston
il ers
ĠP erm
ĠGar rett
ĠGab ri
Ġansw ers
à ²
Ġl ob
Ġgen ocide
D M
T otal
Ġac et
10 2
Ã« l
ĠZÃ¼ rich
C hem
ĠComp anion
ĠHer r
ĠWol ves
O t
ĠE ighth
ĠCh ick
Ġdel ays
ĠVar iety
sch ule
Ġbes ides
ĠLaf ayette
ed in
ri eg
Ġdec iding
ĠEv a
H aving
ĠS U
ĠR ath
Con f
gar h
Ġsu ite
Ġc ats
ent in
Ġde pr
ah ar
emb ley
ĠBar th
Ġcompl aint
ĠSt irling
ert ation
Est ab
es i
ĠS ites
Ġsp ells
ĠMy st
Ġcat cher
ĠCre ation
O tt
g em
n ative
Ġw age
ĠM ord
ut ely
pp ers
Ġvoc ational
ĠStat istical
op ping
sp aper
ny der
ĠLaure l
J azz
t able
Ġsp iders
ĠHe ather
Georg ia
V E
Ġf ake
Ġcomp rise
me z
Ġhuman itarian
ĠAv on
Ġliber ation
Jim my
Beg inning
P rin
k ara
ĠL ester
ĠThe me
Ġcr ust
Ġdem ise
Ġec l
Ġh ors
ĠP ow
Ġceleb rities
ĠJ ump
ĠMart ÃŃ
W a
Ġl umber
Ġpre vention
W W
ed itor
less ly
ĠFort une
ĠStep hens
ĠCharl ton
ĠC redit
Ġd os
ĠNico le
T ele
Ġm alls
Ġprepar ations
Ġphenomen a
å ®
at ile
lar gest
Ġtim eline
Ur ban
Ġb ip
ĠC Ã³
Ġqu ot
et ed
Ġfort ified
F a
ĠB ury
ĠD aughter
ĠK ant
Ġrep aired
otten ham
D om
ĠG ent
ĠU rdu
Ġout law
Ġbl ade
Ġ12 6
idd ing
ĠEss ays
chang ed
Ġreun ion
Ġguarant ee
p ol
ĠW ere
In s
ĠRecord ed
G T
p oints
ĠG ore
ĠCh u
ĠAntar ctica
N ear
ĠN O
port ant
ĠGib raltar
ĠHob art
er en
ĠT up
ut ic
Ġhe x
ĠSund ays
Ġp aired
Ġcomm uted
hen y
ĠRob bie
Ġcost umes
Ġtre asure
ĠOut side
r ath
ĠR ous
ĠD odge
Ġres ide
Ġcirc a
ĠDark ness
ĠEver ton
Ġemot ions
Ġencompass es
ad ays
ij e
Ġmot ivated
Ġacqu iring
Wh y
ĠKh al
Ġsp anning
ĠN I
ĠV FL
Ġdis abilities
Ġcomb ines
Sp ec
an ol
ort ex
Ġcomfort able
ĠB uild
ĠG ret
Ġal beit
Ã¼ ss
Ġtrend s
Ġnumber ing
Ġsm ugg
Ġow l
Ġ16 00
Ġtreat ments
ãģ ®
æ ľ
ter dam
ell ular
Ġdis ability
ley s
ĠP omer
ĠF uk
ĠG AA
and e
ĠIs abel
Ġpure ly
ĠFig ure
Ġaest hetic
w hen
ĠP az
ĠR ak
Ġpass port
Ġlo ading
Ġsyn agogue
Ġs her
Ġm i
Ġre struct
ans en
ung en
ĠBur lington
f ur
ĠMer cy
Ġelev enth
ĠNorm andy
Ġc and
ell us
Ġnational ism
ĠX u
Ġsculpt ors
ĠWolf gang
ĠSi oux
Croat ian
Al ong
186 6
B os
ĠL ik
ĠV ert
uct ive
Ġcomm od
ĠSe ah
Ġposition ed
Ġinf ilt
met re
N K
ĠS ach
ĠS iege
ĠChar gers
Ġmort g
ĠSanct uary
Ġpl ac
American s
Eth nic
Ox ford
Ġreper toire
1 15
ĠTe acher
Ġste ering
ĠLu ft
Ġderiv ative
G ene
T win
Ġl ords
urg y
Ġmasc uline
D ream
ov sk
ĠWat ts
A ircraft
Ġ ul
Ġb iblical
ĠT ip
ĠChrist ina
ĠMon aco
ĠRod rÃŃguez
Ġabbrev iated
ĠM ighty
Ġmicro sc
Ġdoll ar
ĠTunis ia
Ġstom ach
O ak
ĠArab s
ĠSat an
ĠHyder abad
n ica
al p
ĠLe h
Leg al
art y
Âł Âł
Ġcap ped
F T
om ial
ĠE up
ich te
Ġborrow ed
Ġgr ace
yn a
Ġth roat
ĠL anding
ĠRo le
ĠTro op
ĠBab a
K a
ĠV og
und o
ĠWe ber
Rec urring
Ġemb assy
G olf
ĠD ante
Ġdef ining
ĠSmith sonian
Ġt ally
ire ment
Ġ18 13
ĠX II
Ġmid night
G I
b uild
g el
Ġun n
Ġdesign ing
Ġdisc ography
ãĥ ¼
ag han
Ġv it
Ã¤ t
Ġpress ed
Ġvac uum
st ud
ĠS lo
Ġoccup ies
Mal ays
Ġexcav ations
F ood
Ġmer ge
186 2
ĠNet works
ĠSett lement
Ġan onymous
pat rick
at ia
Ġl acks
ĠSh ri
Ġorche stral
Ġmedall ists
v ir
ĠIm ag
Ġmusical s
Ġg ol
ĠF ra
Ġatt ain
ĠAfter wards
ĠGod s
Ġfeed back
Mount ains
ĠMagn us
1 000
Ġam en
ĠB oul
ĠB ishops
ĠG ug
ĠGreen wood
Ġple asure
ĠRabb it
Ġc itation
ĠN ay
ĠBM W
Liter ature
ĠT ot
ĠD ill
ĠW ii
Ġsp ans
Ġ17 98
Ġ12 4
Ġmin erals
Ġadj oining
red ible
St age
ĠZh u
Ġknock out
Î ²
Ġspec ification
Ġsystem atic
Ġdi ary
ĠEll iot
186 9
Ġ11 3
Ġadm its
ĠHel m
ĠSax on
ĠWilts hire
ol ve
ĠN il
ĠK Ã¶
Ġinf ections
Ġinfl amm
Ġholid ays
Ġal k
ĠV A
sp ace
Ġflex ible
Ġcoord ination
y on
ass i
Ġ18 17
Ġent ert
cy cles
Ġdeterm ination
ĠVaugh an
ĠKais er
ij k
Ġreal istic
Elect oral
Ġnurs es
Ġcontinu ity
Ġconf ined
aspor a
b rough
Ġ Ã©
Ġtrad ers
ĠBos nian
ĠV ishn
Ġatmosp heric
Ġcon fluence
Ġ18 22
Ġoffer ings
Ġadvoc ates
Ù ħ
ĠH of
Ġhom eland
Ġguar anteed
Ġfres co
B at
el age
ĠJ ury
ab ies
Ġassass inated
J HL
Ð ³
Ġw ages
ĠP BA
et ter
ĠAdvent ist
Ġw ives
ro let
ĠC ory
ĠM ey
ĠPol ytechnic
Ġsl ogan
Ġsyn chron
ĠIr vine
ĠVenet ian
ĠP f
ĠCons ort
Ġtal ents
ĠElis abeth
Ġrel ied
ĠCor inth
Ġref lection
Ġcast les
Ġs odium
Ġm osa
ĠL od
ĠW ent
Ġv arsity
ik en
ĠEnter prises
Ġwant ing
ĠMorm on
es y
duct s
Ġhorn s
Liber al
* *
c roft
il ations
Ġr ack
Ġad ul
ĠFair y
ipe i
ar oo
Ġn ode
ĠG ale
ĠUn known
Ġtim ing
ĠCret aceous
Ġal b
ĠUn ity
Ġun aware
Ġautom ated
Ġtransc ription
l ayer
ĠS idd
ĠSt a
ĠM olly
Ġout comes
the med
Ġexcell ence
Ġexcav ated
Ġalgorith ms
ĠNass au
ĠCongreg ation
ĠJub ilee
T ai
Ġm eg
Ġdecl aring
ĠT es
Ġcr ack
ĠBlack pool
br ates
ĠAnth ology
ĠW embley
Ġ18 23
ĠPr ayer
Ġimpl ied
Ġnegot iated
ik awa
ĠPh i
Mamm als
ĠC asc
Ġatt achment
ay ama
Ġund is
Ġspecial ty
Ġflood s
f u
ĠP oor
Ġg reet
omin ation
Ġt in
Ã¢te au
ĠDec laration
W inner
us z
ĠD illon
und y
Ġover night
Ġ11 4
Ġcontrovers ies
r ug
ith m
Ġsyn thetic
j as
Ġcon cludes
sh a
Ġconf isc
ĠZh ou
v ic
ĠC umm
ĠO vers
ĠK inn
186 4
ĠM ou
ĠBe ir
S n
Ġc alm
ĠSt ri
ĠClub e
Ġcollect ively
Ġinherit ance
ĠUz bek
A FL
{ |
Ġ1 19
ĠG ord
ĠCom es
Writ ing
ĠGran ada
ĠDors et
Ġre issue
Ġfire arms
Ġw ax
Ġevac uation
Ġanticip ated
Ġhier archy
ĠFow ler
M ixed
Ġpost al
ĠLo op
ĠG ibb
Ġ18 19
ĠCon an
Ġmar ching
Ġdramat ists
ĠM ai
id on
ux e
Ġthr ust
J ason
per ed
Ġsk ater
ĠGovernor ate
Ep isodes
Ġretro spective
Ġg aming
ĠAn al
Ġhand ball
isp here
d ated
ch io
Ġprom otes
Ġvis itor
ĠJul es
ĠT C
Ġass im
pr on
Ġspe eches
Ġens uring
Hou ston
ĠD ug
ow ment
th ia
Ġbi as
Ġcy t
Ġbott le
ĠTaiwan ese
Ġn ig
ĠN ue
Ġwh olly
ĠAl umni
Ġhom epage
Ġcollect ors
ĠAut onomous
ĠSign al
ĠC ey
Ġgroup ed
ĠRe qu
ĠMon key
ĠBh ag
H R
an u
ĠDist ricts
Ġec ological
Ġped estrian
Architect ure
ĠCol lections
ĠCon way
Prem ier
ĠAust ro
Ġdeb ris
Ġfunction ing
Ġme al
ĠMarc os
Ġin equ
Ġn aked
Ġloc ks
Ġrem arks
Ġcell ular
ĠC oss
Ġinc arnation
Ġair lines
Ġfact ions
ĠC W
Ġpl ed
Ġro s
Ġair s
Ġsl aughter
ĠPad res
ĠMoroc can
ĠPep per
Ġsophistic ated
R iver
ĠN aw
esp ecially
sy stem
P ur
ĠB anner
Ġst amps
ĠMar ilyn
ĠGu adal
ĠSu ite
F ox
Î º
in z
ĠP iper
Ġ18 06
ĠMer cer
ĠTer esa
t ry
ĠF K
ĠE vel
Ġnon profit
Sim ilar
Ġannounc ers
Ġbank er
Ġju venile
ĠE z
ab ar
r ically
ĠY ong
ille m
atter ing
N BC
ĠD ear
op ed
the y
Ġex empl
Ġaff ects
ĠBirth day
ĠB enny
ĠK Åį
ub en
Dep artment
ĠTrad itional
p al
r ash
ĠL anguages
Ġse iz
ĠS uf
Ã³ s
ĠYank ee
M em
p ublic
an al
ĠAl one
Ġcho ices
Ġimag ery
Ġc ros
Ġp ension
ĠI rene
Ġover d
Ġtri angular
ym ns
Ġminor ities
P s
en ia
Ġm akers
ĠC ir
Ġover t
Ġins erted
Ġide ology
ĠRic ardo
w agen
Ġrec all
Ġpoint ing
Ġpap erback
A le
ap o
ĠChrist church
Ġlicens ing
Pit tsburgh
Ġsu ited
an ey
Ġch ip
ĠAl most
ĠBrown e
ĠDirect ory
Ġansw ered
ĠThorn ton
Ġinject ion
Ġdetain ees
ĠV ie
Ġass erted
Or igins
tra k
ĠHav ana
P a
ed u
ct urn
ĠAl ien
Ġdis mant
ĠWa it
Ġaccus ations
ĠW ah
ĠRo okie
oph yll
Ãº s
E rn
Ġf ut
ĠT ut
ol ades
ĠPro ceed
ĠAct ing
Ġo live
ĠSt anding
18 0
ĠDest roy
Ġfinanc ially
ig on
Ġbr ide
ĠPrem iership
q i
ĠD iss
apur am
Ġrede velopment
ĠNatal ie
S weet
ell aneous
Ġpred ators
Ġtext ile
ĠLim erick
Ġan them
ang s
Ã¡ k
Ġpract icing
ĠHaw th
ĠConstant ine
er d
ol ving
Ġl odge
Ġch ances
ren s
re lease
ĠF eld
Ġacc el
inc y
Ġemploy s
c ars
ĠP urd
ĠD ust
ch in
ĠSt ur
Ġcomp ression
unk er
Ġpossess es
O ffic
Ġbe et
ĠH ubbard
Ġex cer
orough bred
a eda
ĠB T
ĠH ilton
ig uous
Ġhe ll
ff in
In formation
Ġdwell ings
ang ers
ĠTim ber
ĠTrib unal
ĠRest aur
M ichel
Ġin adequ
ers ion
ag her
Se a
ĠWilm ington
3 50
L at
ĠB uzz
ĠV HS
ĠDirector ate
ĠPriv y
Ġd ur
ĠR otten
ĠD iploma
ĠMe et
ĠW E
ĠCl ive
Ġcompl iance
ĠK and
app ropri
ĠLaw son
Ġsax ophon
ĠAnim als
J ay
ac ula
Ġchief s
Ġsuperv ised
Stud ent
ol son
ĠAr r
Kore an
c op
Ġsw amp
Ġadvant ages
ĠPle asant
Ġritual s
Ġp aternal
Ġh ymn
ĠW ide
ĠW elfare
Ġreb uild
ĠImm igration
ĠG ert
ĠCl imate
Ġdet ained
Ġsusp ects
Ġhar bor
Ġreorgan ized
ĠHunting ton
H ay
ĠOd ys
Ġpossess ions
Ġevolution ary
Pat rick
ĠClif ton
Ġb ail
Ġwored a
us ive
ĠL iang
ĠV era
end ale
ĠHe zbollah
Ġrep roduction
ĠTw elve
ĠDown s
Art icle
ĠS iles
ĠP orsche
ĠH ub
Ġacqu is
Ġsurvey s
ĠMe adow
ĠPeter borough
Ġske leton
in ition
ĠD ro
Ġ17 89
ĠSe lected
Ġmag ist
Ġren ted
Ġcast e
Com mercial
T el
l at
Ġthe ft
Ġdis cl
ĠSch neider
Ġmut ations
ĠBrew ers
R N
S N
l ost
ass ed
iz u
ĠTh underb
ĠSc ene
ĠM oody
ari os
Ġemer gence
Ġcomment ators
ion es
Ġl unar
Ã§ Ã£o
Ġingred ients
ĠT ao
Rep ublic
Ġmort ality
Ġavo iding
Ġin herent
Ġwh it
ĠK ost
18 50
ĠAss am
Ġr am
ate ful
Ġspecial izing
Ġadminist rators
ĠPant her
Ġforb idden
Ġlac rosse
te acher
ĠMich a
ĠK ub
Ġover head
Ġpilgrim age
S her
ĠW erner
Ġren umber
Ġmass es
ĠStr and
Ġcalc ium
Ġmand ate
F all
ĠH ence
ĠDirect ed
d d
ĠB arri
ĠG us
Ġnorth ward
Ġreven ues
F ound
p rop
ĠV or
ots wana
Ġgra pe
Land forms
ĠRah man
Ġup stream
ĠRes istance
ĠTre asure
ĠS ounds
ĠL opez
Ġfre el
Ġplate au
Ġre actor
Ġst ew
Ġpre fect
Ġreg ain
Ġrefer enced
work ing
Ġcontract or
Ġunanim ous
Ġtransl ates
et he
ĠAr agon
ĠEm manuel
Ġarm ored
S ty
e ither
ĠG ear
old t
ĠChar acter
ĠQu ant
Ġcart oons
K enn
pe x
Ġcorn ers
Ġt iles
av our
Ġtransfer ring
mount ed
ou b
sh ow
oz o
ĠF ulton
Ġ12 2
ĠHind us
Ġe leg
ĠG oss
ĠHer b
Ġexpl oring
Ġbas al
Ġdemonstr ations
ĠRest oration
ogenes is
ĠW K
ul er
Ġsc ripts
ĠX III
Ġred ist
ĠDev i
Ġcounter parts
ĠPul itzer
ĠRot terdam
Ġoverlo oking
e ight
h aven
ĠS ega
ĠW izard
ĠArchae ology
ic ating
id ia
Ġpro se
ĠAngel o
Ġinstitut ed
Ġintercept ions
ĠCitiz en
Ġconcur rency
Ġb uck
ĠComp ar
Ġcompos ite
Ġemphas ized
ilib rium
â ĨĴ
ĠW att
ti enne
Ġdiscuss es
ĠAur ora
Ġh ire
ay am
Ġdiv ide
Ġalt ogether
A BC
D omin
Ġf ond
ast ing
ph oon
186 3
ĠKir by
Ġrac er
Ġrac ism
ĠBrid ges
w elling
ĠB ordeaux
gu y
Ġconcent rate
S ac
Ġs inking
ĠL lan
Ġcan oe
Ġrel ates
ĠAbb as
ĠCrit ical
Ġrabb i
< /
ĠRe ader
ili ated
ĠKn own
Ġer osion
Ġsufficient ly
Matt hew
ĠF L
Ġv ampire
Ġ18 02
che z
ĠRe formation
ĠIsland ers
Ġpriv at
Ġdomin ance
g one
Ġ ency
ĠP ens
I an
am el
ad der
ĠL oth
ĠG Ã³
Ġint ensive
Ġret ains
ĠPres ervation
ĠAut umn
Ġflower ing
am ura
Ġ14 4
Ġten ants
ĠUr b
Ġt ended
ĠZ ap
Ġind ef
omb ie
uff s
ĠRh in
Ġfarm land
Ġbad ge
st ated
ig hed
ĠOb server
ĠSpl it
Ġa ka
ĠB am
ill us
ĠSen egal
ĠH C
ĠCh att
Ġsk etches
Ġord in
Ġadvis er
ĠStafford shire
ĠH ole
ĠH ouses
Ġstat ute
Ġdisp osal
uran ium
u ity
Ġw olf
Ġf als
Ġd ug
ĠMc Gu
Ġsw orn
ĠUnivers idad
ĠBax ter
Ġre election
Ġn atives
ot is
Ġun pro
Ġass et
Ġcar b
lo e
ipp ers
ĠSylv ia
ĠArchae ological
ĠBrem en
11 1
Sam uel
g g
am orph
ĠM ining
ĠM eredith
Ġst uck
ĠE ly
Ġlabel ed
Ã¢ n
ĠTyr one
w icks
Ġprosp ect
lif ting
ĠK ilkenny
Ġsubd ivided
Ġconst raints
ambo o
l ot
Ġh urd
ĠL j
ĠMcG ill
ĠLor raine
A re
Ġm apping
Ġ7 50
fess or
fl ict
Ġdet achment
Ġsummon ed
Ù Ĩ
Ġa ven
Ġb iod
ĠL augh
ĠElect ronics
ĠS aga
Ġto es
Ġ1 200
ĠG iles
Ġapp eals
Ġsong writing
ĠNorth ampton
Ġemploy ers
Univers al
ĠT KO
ĠV ig
ĠJ ah
ĠAl v
Ġcirc uits
Ð½ Ð°
ric o
ĠPas o
ĠSuz uki
7 50
ĠO ss
ĠRes ource
ang i
Ġover haul
Ġshe ets
ĠApp ro
ĠSat ellite
in ho
ĠG uns
oven ant
ĠDyn amo
Ġclin ic
ĠGlou cestershire
Ġcomprom ise
Ġo l
ĠP yth
Ġst atic
ĠCal v
ĠEd mond
B aby
ĠB rick
so lete
ĠGr ac
Ġdispl acement
Ġreluct ant
D J
raul ic
ĠH enn
Ġar ise
Ġcelebr ating
dr iven
number ed
Ġreminis cent
ĠM T
ĠMag gie
Ġdoctor al
Ù Ĭ
ĠMarqu is
Ġident ifies
Ġphot ographers
umm ond
Ġmus cles
it ri
Ġex iled
ĠPl atinum
ĠBh ut
Ġsteal ing
Ġlad ies
onna issance
D ance
v iol
ight on
Ġed s
ĠApp alach
May ors
Ġchemical s
Ġt att
ĠAf ro
Ġfe eds
ĠCarn ival
Ê »
ĠW i
up on
Ġnot ation
Ġem blem
sp ec
Ġimp acts
ĠX in
W all
Ġf ins
Ġj am
ĠLeaf s
ar h
ul ators
Ch ild
Ġaff ection
ĠElect rical
t ier
as ures
iv ism
ĠDan ube
I X
el is
Ġcon form
Ġfilm ography
Ġatt itudes
Ġt amb
ĠG Ã¼
Ġfier ce
T unes
ĠB rab
ĠF eng
ĠG ilm
Ġgen ome
ific ent
ĠÅ ģ
ĠSher idan
roc od
ĠHoff man
V iet
st aff
ĠJ upiter
end on
Ġassist ing
Comm unes
om ans
Ġsong writers
ĠDe leg
Ġcapt ive
ĠCD s
ĠGood man
ĠPass ion
Ġrecept ions
M arsh
Ġag ing
H and
I O
Ġtra vers
ĠCar bon
Ġspr int
ve z
Ġz ool
c am
im ov
Ġacquis itions
Ġpass ages
ĠEp ic
Ġas ylum
re x
ĠSh adows
ĠRep orter
ĠX iao
Ġcomplex es
Ġfort ifications
Direct or
ĠV ac
Ġsh orts
ach im
ace a
Ġrabb is
ĠCann es
ovi ets
ĠW igan
ĠMat hematical
occup ied
ĠL akers
Ð¸ Ð¹
Ġtarget ing
Tr ade
Mc C
ĠCh ance
ĠSh Åį
ĠCon stitu
ĠGe ological
ĠWend y
Penn sylvania
R ussia
b ara
ĠN ames
ĠSup erv
Ġscreen plays
ĠSold iers
Ġgol fer
Ġm ang
ĠK L
Ġsp or
ĠHu bert
Ġh arp
Ġn ave
ĠFern Ã¡ndez
ĠGo ing
Ġsem inary
Ġdig it
abet es
b ral
in to
ĠL un
end en
Ġout right
Ġcy cles
Ġflood ed
Ġancest ral
ew ays
ĠDh aka
ĠTransl ation
ĠCert ificate
S yd
it icus
ĠB orneo
Ġpro long
its ch
Ġ12 9
Ġ17 76
Ġpres umed
ĠTe aching
ĠRos es
H ab
ĠW ash
ĠSar as
ĠSund erland
quer que
ĠH icks
ĠD ing
ĠW ish
ĠSk ating
ĠFe el
Ro ads
Ġalco h
ĠR FC
urn ame
uter onomy
Ġcour tyard
Ġsen iors
ĠBow ling
ĠSche me
1 14
Ġ ell
ib o
Ġrailroad s
Short ly
Ġni ece
ĠP aw
ĠF ind
ass a
Ġtr agedy
Ġneigh bors
ĠWrit ten
ĠH aus
ill ary
ph ones
Ġviol a
Mar g
ĠCoast al
Ġvirt ue
st ation
ĠH are
ĠR uther
ĠItal ia
ĠAst ros
Ġclean ing
Ġcoordin ate
ĠPav ilion
Parl iament
N ative
ank a
Ġtownship s
ĠJung le
1 16
f ull
w ife
ĠH ep
Ġun common
F est
ĠMar i
Ġlar vae
Ġfr ust
ĠTa ipei
Surn ames
ĠG uth
ĠO aks
Ġsh ocked
ĠSh arks
ĠNor se
S V
Ġt s
ĠE h
Ġsign aling
ĠRich ie
ĠCast ile
ĠPrin ces
ĠPa olo
Ġsus cept
ĠC af
Ġn ad
ple ments
ĠA ster
ĠB aku
Ġj ungle
ĠZ immer
ĠFl ood
Le od
ĠWeek end
s igned
Ġclimb ed
ĠAnti qu
Ġbotan ist
b gcolor
enc l
ĠSh iv
ĠUt recht
Ġth reshold
ĠK ilm
Ġheav ier
Ġhost age
Ġcle aring
Ġinform s
H ur
ĠT ick
och schule
ĠMcC oy
Par ks
ĠGovern ors
h ann
ĠSp in
B ridges
olog ic
Ġwel come
c ter
Ġf ont
ĠFl int
Ġcor rupt
ĠChe ck
ĠGerman ic
ĠNorth umberland
sy ched
err illa
Ġexpress ing
count y
Ġin duced
ot ive
Ġst ats
Ġdeb ts
Ġdram as
ĠS essions
ĠBr ass
ĠCar rier
Ġlandsc apes
ĠM ines
ĠM ixed
Ġg ym
Ġat om
Ġdec ay
An ne
ĠSuper intendent
Ġgovernment al
? ,
al u
ĠM W
ĠF eb
Ġcomp ass
ins p
lin er
Ġreb uilding
Ġweaken ed
ĠR ama
Ġrecogn izes
Ġintent ions
ĠMugh al
M ission
Ġf lesh
ĠC obb
Ġst unt
Ġentire ty
ĠAud i
B anks
is dom
ĠD ir
ob i
Ġhalf way
Ġtreat ies
Ġfly catcher
Ġcon gest
In ternet
Ġ14 5
ĠArch ibald
P oint
Î ·
Ġaccompl ishments
ĠHond uras
R aj
ĠP ages
ĠF urn
ĠCh ong
direct ed
Ġanx iety
Ġt on
Ġc ry
ra ined
ĠSt on
Ġro bb
ĠRock ies
ĠCatal an
Ġvolcano es
] )
Ù Ī
ĠK ro
Ġrecruit ing
al ar
ĠR iders
Ġhe d
Ġunder going
Ġorigin ates
ĠMoh amed
Ġun re
Ġcomm issions
ĠEd ith
Ġd airy
ĠAll ah
Ã¼ d
och ond
ĠWat kins
ĠAmaz ing
Ġpack aging
Cons ervative
Ġit al
ĠInd eed
Ġprop he
Ġextens ions
Ġneur ons
Ġtuber culosis
Ġf ence
Ġsub merged
Ġnorth bound
ĠRel ief
Ġdeliver ing
Sax on
ĠJuvent us
Ġde ities
Ġsp atial
Ġab rupt
ĠCanad ians
ĠGo a
à¤ ¾
c row
ad an
ow e
if th
ĠSc i
Ġoccup ying
Ġpath ogen
ĠTrust ees
ĠTerr ace
Ba hn
ĠBeir ut
G ill
G ram
sc ill
ep er
inal d
ble ms
Ġsouth bound
Ġche ap
NE T
Ġmob ility
Ġ uranium
ĠĠ ĠĊ
ĠEl aine
Ġbirth place
D un
ĠSt rip
Ġle x
rap es
ĠO ften
13 5
Ġvict orious
f alls
inist ries
Ġannounc ing
Ġprocess or
Pro ject
Ġweek day
Ġsurround ings
Ġenter prises
Ġconfron ted
F P
ĠH yd
ĠOld ham
ĠLion el
Islam ic
ĠP up
Ġsimilar ity
Ġalumin ium
L U
ĠM ental
ĠK ern
Ġ17 75
Ġeast ward
m eter
ar ate
Ġin cent
ĠT ort
Ġbre eds
ĠAer ospace
Ġd rought
ĠEl i
Ġadm iral
ivid ually
ĠPre par
S hip
b ilt
c ies
Ġpl ains
Ġpl atoon
ĠV erb
ĠWil kinson
Ġcorrespond s
J unior
ĠG erry
ĠN HS
iro s
De ad
ĠA FB
ĠF og
Ġch ocolate
ĠMar ks
Ġastr onomy
A rizona
Ġc inem
Ġex ports
Ä ħ
Ġn itrogen
ĠBang alore
F air
j un
um my
ĠGe ographic
ĠBe an
Ġnational ity
yp sy
New spapers
C omb
ĠMil k
Ġwick et
} }
all o
18 59
Ġpre historic
ph al
unct ional
year s
ĠLat vian
pop ular
Ġdischar ged
Ġb ure
Ġp iv
ĠM GM
ĠIn to
Ġdet on
Bl ood
ĠC ris
Ġr ust
Ġsp ark
Inter view
st airs
Ġc ure
Ġpre view
Ġcamp ing
Ġins ight
Äģ n
Ġspecific ations
F E
ĠB R
ĠFl owers
B ell
O H
Ġt ang
are a
s ing
ĠT orn
ĠCh atham
Ġirrig ation
od rome
ĠY us
sh an
ĠMa o
ĠRus so
Constitu encies
Ġf alc
ĠT HE
ac ritic
ĠJ ays
Ġmer it
Ġbur den
Ġhal ted
ĠKun st
Mot or
Ġic onic
Ġstead ily
ĠD ent
ĠD ied
Ġcomp anions
four th
F uture
ĠMac au
Ġjud ged
Ġorient ed
ĠCon st
Ġbre ach
ĠSil ent
ĠP oin
us er
ell an
Ġmountain ous
B P
th am
and r
Ġadvertis ements
R oss
ons ored
wicks hire
Ġb ind
ĠG iven
ran king
Ġref using
Min or
ĠS ank
ich ita
ĠMarket ing
a er
ĠS ession
Ġst ern
rib es
ism o
Ġweek ends
ĠRem ember
Ġexplo itation
ĠE ch
ĠSh ap
ĠAs c
Ġ17 80
rol ley
ĠQu ick
ĠHu ang
Ġl amp
th alm
Ġhun ter
r ide
ĠS ok
Ġm ourn
rews bury
v oice
ĠS nyder
ĠFlor a
enh ower
ĠStephan ie
ĠR ust
ie ves
ĠOr b
ĠDo om
Ġrend ering
B obby
st rom
Ġd irt
Ġhum orous
Ġdark er
Ġele phant
ĠGav in
M CA
ol ulu
Ġet ern
ĠMus k
ĠCrow d
ĠP ure
eg o
Ġsup reme
Ġactiv ism
ĠPaul a
Ġbar racks
ĠAT P
H u
qu ist
Ġ18 08
Ġtreat ing
Ġdiscover ies
Ġ24 0
ĠPenn y
Administ ration
Victor ia
h it
k as
ĠK es
Ġinter val
Cy cl
Ġrever ted
W olf
Ġexp end
ĠHor ace
trans l
Ġproport ional
A qu
D u
R uss
ĠS ears
ĠR I
ĠF amous
ĠN L
ĠBomb ardment
ĠProvision al
a a
ĠR amb
ĠW itt
ĠTe a
Ġbr anding
arch ived
Ġhur ling
Ġbes ie
Ġsle eve
ab h
eth oven
ĠRom antic
ĠL L
Ġr ats
Ġpost ing
ĠRev en
ĠR ocks
Ġear s
Ġfin anced
ecut ed
Br uce
Ġpatron age
Ġapprent ices
ĠKrak Ã³w
ĠCh ow
aj evo
Ġvill a
Ġec ology
ĠMel an
ĠGet ty
ĠPr as
Ġrepresent ations
ĠL ingu
Ġpr ayers
Ġqu arry
Ġtrans fers
ĠGu ill
ĠFa ust
N Z
r ush
ig l
ĠG og
av as
anc ies
Ġdec ent
Ġprogress ion
ĊĠĊĠĊ ĠĊĠĊ
ĠB iz
Ġcl ip
Ġsens or
i aries
Ð ¿
à §
ĠF ug
ĠN es
het to
Comp osition
Ġp unch
ĠGr up
Ġdel ight
Ġnut ri
ing wood
ĠCh or
ĠAd vert
Ġge ological
Elect ric
ot ional
ul se
rit t
Ġmat ched
ĊĠĊ Ġ
El izabeth
B es
Ï ħ
ĠN eb
op ia
Ġse ated
ĠQ uran
Ġmodel ed
aph ael
Ġpap al
en b
Ġp ec
ro kes
Ġm aid
ĠL us
Ġpl ague
Ġ5 000
form ers
ĠBr ide
ĠCorn ish
v ous
Ġb arriers
id as
Ġfac ial
Ab d
Ġdenomin ations
antan amo
O m
y ou
ĠG ad
Ġvac ation
Ġf ountain
Ġl uck
ĠCor rect
Mar itime
And y
Ġpir ates
F er
un til
ĠN iz
Ġal ike
ĠSw ing
ĠElect ions
Ġpreval ent
g ment
ĠThe res
Ġst ays
ran ces
Ġhel m
ĠRock et
Ġimm igrated
ĠVo j
âĢ ĺ
lar ge
ĠConc ern
ĠPlate au
B ow
Ġo ath
ĠT oll
Coll ins
b ee
y i
Ġ13 6
Ġemer ge
Ġple aded
E mer
P O
s urname
ĠB is
and ar
ĠSom ething
Ġmel an
ĠLot us
Spe ed
ĠMarri age
s che
Ġs am
Ġe ject
Ġres iding
John son
Ġcontain er
ĠKy oto
EE E
ĠBea umont
Ġf raction
Ġd ictionary
um ing
qu ay
ident al
Ġillust ration
B ol
R ain
art ments
ĠY es
Ġsub ordinate
Ġhel met
ĠCross ing
UC N
Ġp its
ĠS ustain
Ġ18 05
Ġar ches
ĠAn toine
Ġshe ar
10 6
Ġfr aternity
ĠAnt io
ĠWell es
Ġpione ers
Ġretail ers
Ġdin osaurs
il in
ot on
Ġfor get
ĠL una
CC FF
Col orado
ĠDar ling
ĠTerrit ories
Ġst er
ign e
Ġk e
ĠSam my
Ġhab its
ĠSain te
P aint
s mith
ĠM int
et ically
oc ols
Ġch ord
ĠFor ward
Ġproject ion
Christ opher
P ed
ia stic
Ġstr at
me aning
pl aced
oll en
Ġloc ate
Ġem ail
Ġcollabor ative
H art
Ġphot ographic
idel berg
ĠWor cestershire
Ø§ ÙĦ
Ġware house
int osh
bre asted
Ġrecover ing
ĠBurn ett
ĠNorm al
H om
ĠG ers
Ġinter ception
omet ry
ĠMass acre
ĠSand ra
Ġwild erness
Ġfert il
S occer
ĠH oy
Ġ17 93
Ġfore ver
Ġcrow ds
Ġt issues
ity a
L ear
Ġh aun
ĠBar row
Ġviol ated
ĠFort ress
don ald
Ġmerch and
ĠBrand enburg
Ġprivile ges
Ġdevast ated
ĠCÃ³ rd
as so
em ann
M iami
Ġhe red
medi ately
Ġarran ger
ĠRod gers
ĠTud or
ĠCey lon
C ategory
ĠB ord
ak in
Ġaver aging
ĠFort y
ĠDomin ic
ĠRub in
ĠS oviets
Ġrepl ica
Ġtest ified
ĠNev ille
" /
O rd
S alt
st orey
Ġb ibliography
Ġh alt
ret ion
10 7
Ġmother s
Ġmamm al
n ius
ĠT av
op f
amb ique
raw l
ĠVol leyball
Ġran ch
Ġsav ings
Pak istan
t ree
Ġsub mission
Ġstorm s
ale igh
ĠH ild
ĠSh oot
Ġroad way
ĠStr as
Ġg ull
her st
cast ing
aur a
I mm
Ġg raz
ĠFo ley
U t
à ´
le ted
ĠB uildings
un ts
ĠN eal
Ġqu ar
Ġproduct ive
Ġgrand daughter
Franc is
V o
Ġf ores
ĠT ik
ĠJ R
man i
Ġph ones
Ġfin ed
ĠPol es
Ġsn akes
Ġconfront ation
Ġp amph
Fil ipino
G il
Ġpol yg
Ġdev ised
ĠCommission ers
ĠBus ch
Ġang les
Ġscen ario
ĠGlac ier
S even
d og
ĠB ala
Ġup right
ĠBo om
g ov
ĠP ang
ung s
Ġbroadcast ers
Ð¾ ÑĢ
ĠAbb ot
ĠTal ent
Ġs we
Ġon set
Ġdisp atched
ĠBre ton
ĠBab ylon
ening rad
Ġassum ption
ĠC rane
Ġmax im
sch ild
Ġstret ches
Ġb ot
Ġp unct
ĠW itness
Ġcart ridge
Second ary
Ġrefug ee
ĠWolver hampton
Ġmotif s
ĠS uit
se ven
ran ked
ĠPres ley
Ġtechn ically
ĠS is
Ġl uc
ĠJ aw
ult ies
ident ified
sequ ent
Ġank le
p ack
Ġin ability
ĠP ull
Ġconcept ual
Ġbackground s
P en
Ġb urg
Ġn odes
ay as
ra per
Ġpl ots
Cont emporary
c ip
h istory
il ot
ary n
ire n
val ue
Ag ric
n h
ant he
Ġ17 00
Ġrep ublican
emet eries
Ġlif elong
oc ence
ĠDomin ion
ĠAlger ian
ĠOliv ier
j ana
ĠD ome
ĠJ ensen
Ġtransl ators
Ã¡n chez
ĠRup ert
Ġpostp oned
F oss
in ton
ĠP ing
Ġal pha
Ġshoot er
ĠMay er
Ġdecl are
Ġpip es
B T
ĠH uddersfield
ĠE ck
est a
ĠBer ger
Mich igan
Ġtur bo
Ñ Ĩ
ĠO C
ĠRec ent
Ġprem ium
Ġeth ical
1 12
M as
Ġb og
ĠÂ «
Ġsexual ity
Ġvow els
ĠExpedition ary
Ġse ab
orn ings
ĠCup s
Ġsent iment
ĠChamber lain
H ost
le ader
Ġtra uma
clus ions
Ġcanc ellation
ĠCart oon
Ġr ays
ĠV ine
b f
Ġres ume
Ġcomm uter
Ġbattle field
ĠYoun ger
N iger
V R
Ġnames ake
ĠMult i
Sound track
ĠY ok
Ġref usal
Ġhold ings
Ġprof ound
Ġaddress ing
ĠDart mouth
d ar
m berg
Ġviol inist
Ġoccur rence
Ġroll ed
Ġsubstr ate
n esty
u il
ĠD ah
and ering
bl ock
ĠEth ics
Ġcens orship
ed ited
le in
ĠL ighthouse
ĠPres ents
ĠTy ne
ĠG esch
Ġout fielder
18 58
Ġref use
t rad
ĠA ar
Ġ13 3
Summ ary
ĠB one
iew icz
Ġens lav
Ġlog ical
Ġnegot iate
Ġmac ro
E qu
ĠA mp
ĠAn and
ĠSc ream
Ġext raction
ĠGre co
Ġdark ness
re is
ĠCanad iens
ĠRos em
ĠBet a
Nor man
v ara
epend ing
worth y
Ġcomp aring
ĠAr bor
ind y
ĠBl ade
ĠPar ts
Ġoblig ations
ph ants
Ġste als
ĠChev rolet
G ames
s ided
il and
Ġcon ferred
Ġsound tracks
ĠElect oral
ĠAdmiral ty
qu isition
ĠWood y
new s
d n
i Å¡
ĠAb ove
Rec ords
it les
em er
ĠPres idency
Vol ume
Ġstrengthen ed
ĠMartine z
ĠR d
em aker
ĠHigh ways
ĠBah Ã¡
s n
Ġfam ed
Ġ13 8
10 3
Ġemb arr
esh iva
ĠTerrit orial
Ġtouc hed
ĠY un
ĠSup ply
ĠKat ie
1 22
Ñ ħ
CA CAF
ĠJac qu
Ġverte bra
H ugh
ĠG DP
ĠSp ar
Ġmon astic
Ġdam s
ĠMÃ¼ ller
u ating
ĠHall ow
Ġtake over
Ġcas ino
Play Station
Ġperm its
ĠHul k
J A
Q ual
ĠJ h
eat on
ĠMed ina
Ġre app
ac us
ag na
W ell
Ġa fore
Ġw agon
air n
Ġworld s
Ġprofess ors
ĠLuc ia
Gr ades
ĠTrib ute
ĠMend oza
ĠBrid g
M ember
m ese
p unk
ac ock
ĠG ou
Ġgl uc
ĠMack enzie
ĠHus sein
Ġenz ymes
Ġm igrants
Ġth y
em outh
ĠTrib e
ĠL um
ĠN amed
Ġsil ence
Ã µ
ĠD ell
Ġ20 24
Ġorder ing
Ġemp ower
ĠSoph ia
M M
z t
Ġl ag
ian us
Ġge ology
Ġexped itions
Ġtroubl es
Å ¼
cl ed
ĠIr win
Typ es
ĠThous and
ĠS chen
Ġex ported
Ġret reated
erm ont
ĠSub way
ĠSav annah
Ġinsc ribed
t ank
ar ist
is se
ad ores
ind e
ten ham
ĠClub s
J erry
Ġp ushing
Ġm usc
ĠK ass
ink er
ar um
Ġalign ed
ĠWe aver
ĠLaure nt
ĠVeh icle
Ġorch ards
G R
ĠPlay house
ĠEst her
Ġsp ont
Ġbroad ly
ĠMad ame
ecess ary
ĠOs borne
ĠRut gers
Lab our
is ers
ore ll
ĠLand mark
vol ume
C lin
ĠSh ock
Ġclear ance
ĠKild are
F ig
ian c
Al fred
Ġimpl ications
U A
b as
r ins
ad j
Ġrot ating
ib les
Ind ependent
ĠSn ake
ĠTuc son
R oc
R ank
ĠR unners
ĠN ell
ip ers
ĠV T
ĠZ ool
ĠFre ed
Ġsurpass ed
ĠA CC
ld on
Ġsh uttle
ĠDr iver
ĠIv y
ĠSoutheast ern
Ġabund ance
w aters
Ġs ul
ĠN eck
ep ort
Ġbl end
ĠRo ch
omb e
Pro file
Ġcolon ists
ĠVer lag
ĠLy ons
ĠBurg ess
Ġdioces es
) ".
ĠT R
ad r
Ġden otes
ĠTw ilight
Ġp ending
ĠD ifferent
ĠW edding
od erm
Ġcont ests
Ġad vers
Ch ang
Ġexpl ores
Wil son
Amb assadors
D am
Ġm ys
ĠT ottenham
ĠH es
ra red
ĠK ou
Lew is
B aron
th ood
Ġinterpret ations
roph ic
Ġhomosexual ity
Ġst iff
est ro
uc o
Ġcomp ulsory
Ġ18 07
ĠPol o
ĠEl ena
Ġlower ed
Ġbenef icial
ĠDayton a
Ġtraff icking
N ep
ik an
ĠCo ffee
ĠGu am
ĠCatal onia
ĠMartÃŃ nez
le k
ĠT eat
Ġn oun
Ġtr unc
ĠCal cio
Ġpress ures
ĠSig ma
Ġcl o
AR C
Ġblock ing
Ġpharm ac
ĠDram atic
j ack
m oor
ĠP ist
Ġtele communications
ĠRun ning
thes is
ĠKap oor
ir atory
us ions
ĠIs mail
Ġfeud al
ĠEdu ardo
ĠCald well
" âĢĶ
st ore
im inary
um ption
Ġgen uine
ĠMan ufacturing
ĠMy r
Ġautom otive
Ġir re
pre viously
M un
g ain
Ġselect ive
b order
n ard
Ġt ear
Ġa wa
st ep
Ġb od
ĠM ode
ĠG ong
Ġfilm makers
18 00
Ġinv alid
Ġbuild er
au ce
ĠRev enge
ĠPers p
ĠTransl ated
Sen ior
f air
at y
Ġp osed
ĠB ihar
Ġprin ces
ouri er
Ġalumin um
ĠN RL
Ġpsych ologist
c irc
Ġt an
Ġc uck
Ġd iploma
ĠH R
Ġsh ores
ĠCan ary
Ġp ept
Ġst aging
ud o
Ġstrong hold
Ġcare t
ĠMat th
ĠGuy ana
Serv ices
M other
ĠBo one
ĠMaj esty
Ġs erm
ĠM itch
ch ia
ĠZ a
Ġdeb ates
Ġapplic able
ĠPers ia
Ġsumm ers
Ġli bert
H ey
Ġf unk
ĠP DF
ul o
uss y
Ġpass ive
Ġexpress ions
ĠEver ett
ĠBanks ia
Ġl aying
iv is
Ġtro ut
ĠCons umer
Ġbra ke
Ġsuppress ed
ĠMarse ille
ĠA e
Ġh ist
ay o
ĠDe velop
Ġpres ided
vers ion
ĠGl am
Ġgl obe
Ġcoast line
Ã©n Ã©
Ġinvent ory
Ġtribut aries
Ġh atch
Ġst airs
ĠE uc
ĠAl s
Ġcharacter ised
ĠGroup s
ĠChand ra
Ġappar atus
D D
v ik
Ġh ij
Ġdis asters
ĠDon ovan
Ġdam aging
Ġspar row
ĠW ex
Ġun e
ĠMal aya
ĠSchw artz
Ġch ips
ĠAl p
Ġoff spring
Ġasp ir
Ġam usement
Ġsl ower
w at
ers ch
ĠH ide
Ġoff ence
ĠMart yr
ĠKey s
S av
ad en
Ġbe e
ob o
Ġtrust ee
Ġimpr int
Ġdisappoint ing
A chie
A bb
y Åį
Ġ17 92
Ġbreak fast
ĠConn or
bell ied
Ġutil izing
igg ered
à¥ į
at ro
ĠPar ma
Ġexpress es
Ġamphib ious
ĠG aines
ĠPhil osophical
ĠMon mouth
Ġcoord inated
ĠNin ja
D NA
at ine
ĠL ia
ĠTh al
icular ly
serv ice
Ġdocument aries
ĠR ol
Ġrec ount
ob il
Ġ/ /
Ġinfl ation
) ||
r adio
× Ļ
ĠR S
Ġ15 5
ĠOxford shire
ĠMul der
ĠHarri et
on ite
ĠH og
ĠN ile
Ġsub stances
Ġinter vals
ĠLa uder
Ġpat rons
Ġpe asants
H ell
p ecker
ĠT omas
ĠB aj
Ġpl ug
ĠBl o
ĠAlex is
ĠCy ber
g ard
ĠN ish
Ġag enda
az y
Ġprop oses
Ġdev ote
ĠNick el
ĠDeuts ch
Ġafore mentioned
C a
Ġf t
ĠC es
ĠT rom
ĠK ip
ĠSem i
Ġfix ture
ĠJak arta
ĠStrat ford
Ġis ot
Ġdepos ited
p os
od ian
Ġun changed
ens ing
Ġelim inating
Indian apolis
Mad ison
Ġmaneu ver
Ġf rozen
Y our
ĠP T
Ġgener ator
Ġfa Ã§
Mah on
ĠD ot
ug er
18 57
ĠPo et
Ġpsych iatric
Ġsoph omore
ĠP oc
ĠSh ankar
Ġunder m
B udd
ĠP K
esp erson
Ġfire fight
Ġpartnership s
ĠSpirit ual
ĠFu ji
ad as
Ġ18 09
Ġdiffer ently
ump ing
ĠMov ies
P ap
Ġdiss ertation
ĠD iplom
Ġ17 95
âĢĻ ,
ĠHon olulu
Ġassum ing
Ġreinforc ements
Ġm il
ĠLomb ard
Ġsubstitut ed
ĠDoming o
ĠB rav
ĠP ush
che on
ĠRec onnaissance
Ġsl ip
ĠMe asure
yd d
ĠCongress es
Ġcard iac
ĠLeon ardo
Ġpool s
Ġsuspic ion
c ost
ĠK uro
art hen
ran gers
16 0
umm ers
Ġtr iggered
Ġdef enses
Ġmake up
Ġspect acular
Ġmini ature
Mus lim
up ta
Ġer up
Per formance
Current ly
Ġprompt ing
Ġrecru its
ĠComb ined
r iver
Ġh iring
el ope
ĠH P
Ġ17 96
Ġsuc c
ih ad
ĠS ung
ĠK us
Ġgu ilt
ĠSt atus
Ġdevelopment al
Ġeight eenth
Ġox ide
ĠNam ibia
ĠProceed ings
M aur
ĠT ry
ĠI A
ĠAl ley
ĠCl air
af fer
Ġconstruct ing
Ġcomb inations
Med ieval
Ġprec isely
Ġdepos it
ĠT rem
Ġcr ush
Ġi Tunes
ĠMar ino
Ġinf inite
Ġt a
une i
ploy ed
Is lands
ĠSpect rum
H M
b ishops
es on
ĠN W
Ġ18 11
ern o
Ġaltern ating
ĠDick inson
ĠMilit ia
D B
E arth
Ġin ev
ĠB ourn
ĠG es
ĠTom atoes
Ġplant ations
it te
ĠD irty
ĠMet acritic
Ġkingdom s
Ġextinct ion
Ġpredecess ors
Ġconfron ts
ĠKurd ish
ĠO ro
10 9
c ode
Ġd ip
ra x
Ġair plane
Ġ13 7
ĠBen ef
Act ing
aly mp
ĠNich ols
ĠSeah awks
ĠVishn u
S ri
Ġd awn
ĠP ah
iv ist
ĠR w
Ġgo alt
Ġannounc es
ĠSpe ech
I ron
K arl
ĠM erry
ĠH ut
Ġcl ans
Ġpol yn
Ġne ural
ĠAb el
Ġru ined
erman n
icks on
Ġdefin itions
ĠKl aus
r aged
Ġre align
ĠF ris
ĠMon itor
Ġhom age
ĠMat hew
ĠOpp osition
Ġforg otten
Mex ico
old ing
ĠCop per
Ġdisapp earance
Environment al
ĠH umb
ĠD M
th rop
ĠK yr
Ġlight ning
Ġharm onica
ĠP itch
Ġhe n
inn a
ĠAct ive
Ġant agonist
Ġtheolog ians
ĠF raz
ik on
ĠRen o
st ars
ĠPro duced
ĠAss essment
ĠHiro shima
Ġconsort ium
- ,
ĠÅ ŀ
Syd ney
Ġs ells
Ġsp erm
Ġres istant
Ġdet ached
Ġbehav iors
H oly
Ġfe as
Ġinf ect
Fran Ã§
Ġorb ital
d eb
at ivity
ip t
ens ation
Ġmon sters
Ġser geant
Ġsat ellites
Ġconver ting
Ġassign ments
ĠSind h
s ort
ĠS ie
ĠD ed
Ġpoll s
S oul
ĠS ave
Ġn uns
th irds
ĠAx is
Trad itional
an ova
Ġf ingers
ol er
ith a
Ã³ d
ĠWhe at
R ose
ĠT ail
Ġst ained
ast es
Ġcommun al
Ġsw ords
Cl ark
Ġpriv acy
ĠÂł ĠÂł
H O
c ence
g old
ĠC age
ib u
uel a
Ġver bs
ĠArist ot
J es
n ation
ĠM au
Ġwould n
Ġport able
ĠBur k
ĠStr ath
ĠDi ary
ĠFred er
i oc
k k
ĠB otswana
Ġn ull
The atre
Al b
ĠMir acle
Ġf oul
ĠD ad
oy ed
ob iles
Ġreg ulate
Ġmat ric
ĠShel ley
E nergy
Ġo st
ic um
man ship
Ġcr ude
ĠLa un
ĠArch ie
ĠSk inner
ĠOpen ing
light en
á¹ Ń
ĠMechan ical
Neigh bor
ĠSuns et
ĠF act
ĠW oll
op ening
ĠSe al
Col onel
ĠWater ford
Ġpick ing
Å ł
Ġt ips
Ġh ate
Ġ17 5
ĠAm iga
ĠTar get
ĠML S
Ġod ds
ĠComment ary
w omen
ĠO R
ĠK ah
ts ky
land er
ĠFrank ie
yr ical
omorph ic
p rom
ĠT owers
Ġprocess ed
iro str
ĠA K
us ky
ĠL ough
em ar
av is
Ġelect rom
Ġkill ings
ĠVolunte ers
S ullivan
ĠS iv
ĠB ucks
aw ar
Ġind ividually
ĠBl az
ĠLow ell
ĠTob y
Ġbrew ery
I ss
ĠP eoples
Ġpneum onia
V B
Ġm ural
ĠC andy
Ġ13 2
ĠQu incy
Ġview er
Ġmort ar
Dou g
M obile
t ake
Ġfor ts
ican ts
fl oor
Ġdep iction
ĠSch a
ĠLu igi
Ġdismiss al
Ġthick ness
Ġsanct ions
opot am
it ives
ĠSt ations
ĠDist ribution
S olo
un it
out ed
Ġchar tered
Ġexchang es
S ex
v ill
å ı
Ġd ried
Ġstat utory
ĠHel p
r usted
Ġar row
ron ym
med ia
Ġinst antly
[...]
