{
  "version": "1.0",
  "truncation": null,
  "padding": null,
  "added_tokens": [
    {
      "id": 0,
      "content": "<|endoftext|>",
      "single_word": false,
      "lstrip": false,
      "rstrip": false,
      "normalized": true,
      "special": true
    }
  ],
  "normalizer": null,
  "pre_tokenizer": {
    "type": "ByteLevel",
    "add_prefix_space": false,
    "trim_offsets": true,
    "use_regex": true
  },
  "post_processor": {
    "type": "ByteLevel",
    "add_prefix_space": true,
    "trim_offsets": false,
    "use_regex": true
  },
  "decoder": {
    "type": "ByteLevel",
    "add_prefix_space": true,
    "trim_offsets": true,
    "use_regex": true
  },
  "model": {
    "type": "BPE",
    "dropout": null,
    "unk_token": null,
    "continuing_subword_prefix": "",
    "end_of_word_suffix": "",
    "fuse_unk": false,
    "byte_fallback": false,
    "ignore_merges": false,
    "vocab": {
      "<|endoftext|>": 0,
      "!": 1,
      "\"": 2,
      "#": 3,
      "$": 4,
      "%": 5,
      "&": 6,
      "'": 7,
      "(": 8,
      ")": 9,
      "*": 10,
      "+": 11,
      ",": 12,
      "-": 13,
      ".": 14,
      "/": 15,
      "0": 16,
      "1": 17,
      "2": 18,
      "3": 19,
      "4": 20,
      "5": 21,
      "6": 22,
      "7": 23,
      "8": 24,
      "9": 25,
      ":": 26,
      ";": 27,
      "<": 28,
      "=": 29,
      ">": 30,
      "?": 31,
      "@": 32,
      "A": 33,
      "B": 34,
      "C": 35,
      "D": 36,
      "E": 37,
      "F": 38,
      "G": 39,
      "H": 40,
      "I": 41,
      "J": 42,
      "K": 43,
      "L": 44,
      "M": 45,
      "N": 46,
      "O": 47,
      "P": 48,
      "Q": 49,
      "R": 50,
      "S": 51,
      "T": 52,
      "U": 53,
      "V": 54,
      "W": 55,
      "X": 56,
      "Y": 57,
      "Z": 58,
      "[": 59,
      "\\": 60,
      "]": 61,
      "^": 62,
      "_": 63,
      "`": 64,
      "a": 65,
      "b": 66,
      "c": 67,
      "d": 68,
      "e": 69,
      "f": 70,
      "g": 71,
      "h": 72,
      "i": 73,
      "j": 74,
      "k": 75,
      "l": 76,
      "m": 77,
      "n": 78,
      "o": 79,
      "p": 80,
      "q": 81,
      "r": 82,
      "s": 83,
      "t": 84,
      "u": 85,
      "v": 86,
      "w": 87,
      "x": 88,
      "y": 89,
      "z": 90,
      "{": 91,
      "|": 92,
      "}": 93,
      "~": 94,
      "¡": 95,
      "¢": 96,
      "£": 97,
      "¤": 98,
      "¥": 99,
      "¦": 100,
      "§": 101,
      "¨": 102,
      "©": 103,
      "ª": 104,
      "«": 105,
      "¬": 106,
      "®": 107,
      "¯": 108,
      "°": 109,
      "±": 110,
      "²": 111,
      "³": 112,
      "´": 113,
      "µ": 114,
      "¶": 115,
      "·": 116,
      "¸": 117,
      "¹": 118,
      "º": 119,
      "»": 120,
      "¼": 121,
      "½": 122,
      "¾": 123,
      "¿": 124,
      "À": 125,
      "Á": 126,
      "Â": 127,
      "Ã": 128,
      "Ä": 129,
      "Å": 130,
      "Æ": 131,
      "Ç": 132,
      "È": 133,
      "É": 134,
      "Ê": 135,
      "Ë": 136,
      "Ì": 137,
      "Í": 138,
      "Î": 139,
      "Ï": 140,
      "Ð": 141,
      "Ñ": 142,
      "Ò": 143,
      "Ó": 144,
      "Ô": 145,
      "Õ": 146,
      "Ö": 147,
      "×": 148,
      "Ø": 149,
      "Ù": 150,
      "Ú": 151,
      "Û": 152,
      "Ü": 153,
      "Ý": 154,
      "Þ": 155,
      "ß": 156,
      "à": 157,
      "á": 158,
      "â": 159,
      "ã": 160,
      "ä": 161,
      "å": 162,
      "æ": 163,
      "ç": 164,
      "è": 165,
      "é": 166,
      "ê": 167,
      "ë": 168,
      "ì": 169,
      "í": 170,
      "î": 171,
      "ï": 172,
      "ð": 173,
      "ñ": 174,
      "ò": 175,
      "ó": 176,
      "ô": 177,
      "õ": 178,
      "ö": 179,
      "÷": 180,
      "ø": 181,
      "ù": 182,
      "ú": 183,
      "û": 184,
      "ü": 185,
      "ý": 186,
      "þ": 187,
      "ÿ": 188,
      "Ā": 189,
      "ā": 190,
      "Ă": 191,
      "ă": 192,
      "Ą": 193,
      "ą": 194,
      "Ć": 195,
      "ć": 196,
      "Ĉ": 197,
      "ĉ": 198,
      "Ċ": 199,
      "ċ": 200,
      "Č": 201,
      "č": 202,
      "Ď": 203,
      "ď": 204,
      "Đ": 205,
      "đ": 206,
      "Ē": 207,
      "ē": 208,
      "Ĕ": 209,
      "ĕ": 210,
      "Ė": 211,
      "ė": 212,
      "Ę": 213,
      "ę": 214,
      "Ě": 215,
      "ě": 216,
      "Ĝ": 217,
      "ĝ": 218,
      "Ğ": 219,
      "ğ": 220,
      "Ġ": 221,
      "ġ": 222,
      "Ģ": 223,
      "ģ": 224,
      "Ĥ": 225,
      "ĥ": 226,
      "Ħ": 227,
      "ħ": 228,
      "Ĩ": 229,
      "ĩ": 230,
      "Ī": 231,
      "ī": 232,
      "Ĭ": 233,
      "ĭ": 234,
      "Į": 235,
      "į": 236,
      "İ": 237,
      "ı": 238,
      "Ĳ": 239,
      "ĳ": 240,
      "Ĵ": 241,
      "ĵ": 242,
      "Ķ": 243,
      "ķ": 244,
      "ĸ": 245,
      "Ĺ": 246,
      "ĺ": 247,
      "Ļ": 248,
      "ļ": 249,
      "Ľ": 250,
      "ľ": 251,
      "Ŀ": 252,
      "ŀ": 253,
      "Ł": 254,
      "ł": 255,
      "Ń": 256,
      "Ġt": 257,
      "he": 258,
      "in": 259,
      "Ġa": 260,
      "er": 261,
      "on": 262,
      "Ġthe": 263,
      "re": 264,
      "an": 265,
      "or": 266,
      "en": 267,
      "at": 268,
      "ed": 269,
      "Ġo": 270,
      "st": 271,
      "al": 272,
      "Ġw": 273,
      "ar": 274,
      "it": 275,
      "Ġof": 276,
      "Ġs": 277,
      "nd": 278,
      "Ġin": 279,
      "Ġf": 280,
      "is": 281,
      "es": 282,
      "Ġc": 283,
      "Ġb": 284,
      "ic": 285,
      "Ġp": 286,
      "ing": 287,
      "Ġand": 288,
      "ion": 289,
      "as": 290,
      "ro": 291,
      "le": 292,
      "ĠS": 293,
      "Ġto": 294,
      "Ġm": 295,
      "ĠC": 296,
      "Ġd": 297,
      "ou": 298,
      "ĠA": 299,
      "il": 300,
      "Ġ1": 301,
      "ĠT": 302,
      "Ġh": 303,
      "ent": 304,
      "am": 305,
      "ĠM": 306,
      "el": 307,
      "ol": 308,
      "om": 309,
      "Ġ(": 310,
      "Ġre": 311,
      "ĠB": 312,
      "ac": 313,
      "Ġl": 314,
      "ad": 315,
      "ĠP": 316,
      "ur": 317,
      "et": 318,
      "ec": 319,
      "ers": 320,
      "ĠH": 321,
      "Ġn": 322,
      "iv": 323,
      "ation": 324,
      "Ġ2": 325,
      "ig": 326,
      "Ġwas": 327,
      "ĠI": 328,
      "Ġe": 329,
      "ir": 330,
      "Ġth": 331,
      "id": 332,
      "ot": 333,
      "ĠR": 334,
      "us": 335,
      "ay": 336,
      "Ġ19": 337,
      "ly": 338,
      "Ġfor": 339,
      "Ġon": 340,
      "im": 341,
      "ĠD": 342,
      "ĠL": 343,
      "ch": 344,
      "ut": 345,
      "Ġg": 346,
      "ist": 347,
      "ĠF": 348,
      "Ġis": 349,
      "ow": 350,
      "em": 351,
      "Ġas": 352,
      "ĠG": 353,
      "ĠThe": 354,
      "un": 355,
      "ĠN": 356,
      "ĠW": 357,
      "ith": 358,
      "th": 359,
      "ter": 360,
      "00": 361,
      "Ġst": 362,
      "her": 363,
      "and": 364,
      "ct": 365,
      "ul": 366,
      "ag": 367,
      "âĢ": 368,
      "ce": 369,
      "Ġwith": 370,
      "ĠJ": 371,
      "ĠE": 372,
      "Ġby": 373,
      "Ġal": 374,
      "um": 375,
      "os": 376,
      "'s": 377,
      "Ġbe": 378,
      "rom": 379,
      "ra": 380,
      "ver": 381,
      "op": 382,
      "Ġat": 383,
      "ri": 384,
      "âĢĵ": 385,
      "Ġwh": 386,
      "Ġan": 387,
      "ĠO": 388,
      "oc": 389,
      "Ġcon": 390,
      "Ġhe": 391,
      "Ġfrom": 392,
      "ian": 393,
      "Ġ\"": 394,
      "all": 395,
      "ain": 396,
      "Ġv": 397,
      "od": 398,
      "ĠK": 399,
      "Ġthat": 400,
      "est": 401,
      "av": 402,
      "ab": 403,
      "ity": 404,
      "ies": 405,
      "ts": 406,
      "res": 407,
      "ia": 408,
      "ĠU": 409,
      "Ġcom": 410,
      "ew": 411,
      "ill": 412,
      "ber": 413,
      "ate": 414,
      "if": 415,
      "Ġpro": 416,
      "up": 417,
      "ard": 418,
      "ud": 419,
      "ĠSt": 420,
      "art": 421,
      "19": 422,
      "Ġit": 423,
      "Ġpl": 424,
      "igh": 425,
      "Ġde": 426,
      "ub": 427,
      "ak": 428,
      "ip": 429,
      "ap": 430,
      "Ġhis": 431,
      "ear": 432,
      "ore": 433,
      "ast": 434,
      "ich": 435,
      "ort": 436,
      "Ġ200": 437,
      "Ġr": 438,
      "Ġor": 439,
      "ov": 440,
      "ld": 441,
      "ess": 442,
      "qu": 443,
      "The": 444,
      "ated": 445,
      "ish": 446,
      "Ġ20": 447,
      "ĠIn": 448,
      "ary": 449,
      "mer": 450,
      "Ġare": 451,
      "ĠCh": 452,
      "ong": 453,
      "ug": 454,
      "our": 455,
      "ment": 456,
      "ive": 457,
      "ĠV": 458,
      "Ġch": 459,
      "oun": 460,
      "og": 461,
      "end": 462,
      "ge": 463,
      "ks": 464,
      "ial": 465,
      "ant": 466,
      "se": 467,
      "Ġex": 468,
      "Ġse": 469,
      "ell": 470,
      "ine": 471,
      "fer": 472,
      "und": 473,
      "ust": 474,
      "ord": 475,
      "ere": 476,
      "ame": 477,
      "uc": 478,
      "ran": 479,
      "ep": 480,
      "so": 481,
      "ire": 482,
      "),": 483,
      "ure": 484,
      "ect": 485,
      "Ġwere": 486,
      "ost": 487,
      "Ġle": 488,
      "ue": 489,
      "ions": 490,
      "ĠâĢĵ": 491,
      "ical": 492,
      "ack": 493,
      "enc": 494,
      "Ġsp": 495,
      "Ġwhich": 496,
      "Ġalso": 497,
      "ĠHe": 498,
      "ie": 499,
      "ther": 500,
      "Ġplay": 501,
      "Ġsh": 502,
      "ĠUn": 503,
      "are": 504,
      "Ġy": 505,
      "Ġcomp": 506,
      "ign": 507,
      "rit": 508,
      "Ġ201": 509,
      "ry": 510,
      "ass": 511,
      "ff": 512,
      "pp": 513,
      "Ġk": 514,
      "ric": 515,
      "age": 516,
      "ĠĊ": 517,
      "ight": 518,
      "irst": 519,
      "cl": 520,
      "ous": 521,
      "Ġun": 522,
      "man": 523,
      "ide": 524,
      "ork": 525,
      "Ġcl": 526,
      "ond": 527,
      "ĠY": 528,
      "land": 529,
      "own": 530,
      "Ġ3": 531,
      "hed": 532,
      "erv": 533,
      "Ġ18": 534,
      "ory": 535,
      "Ġhad": 536,
      "Ġar": 537,
      "tern": 538,
      "Ġnot": 539,
      "iz": 540,
      "ations": 541,
      "ount": 542,
      "Ġ199": 543,
      "ave": 544,
      "ok": 545,
      "per": 546,
      "ican": 547,
      "ational": 548,
      "ang": 549,
      "Ġhas": 550,
      "Ġfirst": 551,
      "ool": 552,
      "orn": 553,
      "ember": 554,
      "fter": 555,
      "amp": 556,
      "ice": 557,
      "ey": 558,
      "Ġro": 559,
      "Ġwhe": 560,
      "ome": 561,
      "ater": 562,
      "ach": 563,
      "Ġus": 564,
      "act": 565,
      "Ġcont": 566,
      "Ġres": 567,
      "Ġint": 568,
      "ĠIt": 569,
      "In": 570,
      "wo": 571,
      "ĠTh": 572,
      "ĠAl": 573,
      "Ġ|": 574,
      "ib": 575,
      "out": 576,
      "Ġte": 577,
      "ph": 578,
      "ition": 579,
      "uct": 580,
      "ee": 581,
      "Ġad": 582,
      "ime": 583,
      "Ġtheir": 584,
      "Ġits": 585,
      "ult": 586,
      "ited": 587,
      "ree": 588,
      "ens": 589,
      "ates": 590,
      "ren": 591,
      "ences": 592,
      "Ġwho": 593,
      "Ġj": 594,
      "chool": 595,
      "ence": 596,
      "20": 597,
      "lect": 598,
      "aw": 599,
      "ĠAr": 600,
      "ath": 601,
      "merican": 602,
      "Ġab": 603,
      "ound": 604,
      ").": 605,
      "ace": 606,
      "Ġbut": 607,
      "Ġ||": 608,
      "ik": 609,
      "ark": 610,
      "port": 611,
      "pl": 612,
      "Re": 613,
      "ubl": 614,
      "Ġyear": 615,
      "Ġone": 616,
      "ilm": 617,
      "Ġapp": 618,
      "ugh": 619,
      "ite": 620,
      "oll": 621,
      "clud": 622,
      "Ġac": 623,
      "ild": 624,
      "eop": 625,
      "ors": 626,
      "Ġpart": 627,
      "inal": 628,
      "Ġher": 629,
      "Ġrec": 630,
      "over": 631,
      "Ġman": 632,
      "Ġ-": 633,
      "iss": 634,
      "ivers": 635,
      "ball": 636,
      "ile": 637,
      "ĠNew": 638,
      "pt": 639,
      "ng": 640,
      "wn": 641,
      "eg": 642,
      "ents": 643,
      "ual": 644,
      "Ġag": 645,
      "eople": 646,
      "ferences": 647,
      "ould": 648,
      "orm": 649,
      "les": 650,
      "ress": 651,
      "ade": 652,
      "Ġ4": 653,
      "Ġ198": 654,
      "Ġhave": 655,
      "hn": 656,
      "uring": 657,
      "Ġper": 658,
      "oy": 659,
      "oot": 660,
      "io": 661,
      "Ġbec": 662,
      "Ġsc": 663,
      "Ġtwo": 664,
      "Ġthis": 665,
      "old": 666,
      "Ġinclud": 667,
      "ĠMar": 668,
      "ased": 669,
      "ons": 670,
      "Ġall": 671,
      "References": 672,
      "ern": 673,
      "ob": 674,
      "te": 675,
      "ton": 676,
      "oin": 677,
      "urn": 678,
      "ward": 679,
      "ail": 680,
      "vel": 681,
      "gh": 682,
      "hip": 683,
      "ase": 684,
      "ind": 685,
      "ied": 686,
      "ings": 687,
      "Ġother": 688,
      "ss": 689,
      "ĠCom": 690,
      "Ġbeen": 691,
      "ted": 692,
      "Ġafter": 693,
      "Ġdis": 694,
      "uch": 695,
      "we": 696,
      "Ġ197": 697,
      "able": 698,
      "Ġcomm": 699,
      "Ġdes": 700,
      "way": 701,
      "Ġact": 702,
      "Ġ5": 703,
      "ely": 704,
      "ood": 705,
      "200": 706,
      "eb": 707,
      "ics": 708,
      "red": 709,
      "Ġlin": 710,
      "ished": 711,
      "ury": 712,
      "outh": 713,
      "Ġup": 714,
      "Ġim": 715,
      "Ġoff": 716,
      "ral": 717,
      "ft": 718,
      "Ġfilm": 719,
      "ĠLe": 720,
      "orld": 721,
      "Ġout": 722,
      "Âł": 723,
      "ĠAmerican": 724,
      "Ġen": 725,
      "ance": 726,
      "Ġover": 727,
      "Ġnew": 728,
      "Ġpr": 729,
      "ont": 730,
      "pe": 731,
      "one": 732,
      "Ġthey": 733,
      "gan": 734,
      "ision": 735,
      "ram": 736,
      "Ġinto": 737,
      "anc": 738,
      "ough": 739,
      "Ġserv": 740,
      "ah": 741,
      "ock": 742,
      "ans": 743,
      "ex": 744,
      "Ex": 745,
      "ĠĠ": 746,
      "ames": 747,
      "Ġtr": 748,
      "iversity": 749,
      "orth": 750,
      "Ġev": 751,
      "ĠSh": 752,
      "Ġ196": 753,
      "duc": 754,
      "ĠAn": 755,
      "Ġgro": 756,
      "Ġund": 757,
      "als": 758,
      "ick": 759,
      "ternal": 760,
      "Ġloc": 761,
      "Ġatt": 762,
      "ason": 763,
      "18": 764,
      "ict": 765,
      "rough": 766,
      "ale": 767,
      "rans": 768,
      "ann": 769,
      "olog": 770,
      "Ġpre": 771,
      "ake": 772,
      "ĠUnited": 773,
      "Ġtime": 774,
      "ootball": 775,
      "Ġhim": 776,
      "Ġwork": 777,
      "cent": 778,
      "ists": 779,
      "ĠSp": 780,
      "ose": 781,
      "Ġpeople": 782,
      "Ġsec": 783,
      "iel": 784,
      "ever": 785,
      "ious": 786,
      "Ġkn": 787,
      "ix": 788,
      "Ġshe": 789,
      "Ġlinks": 790,
      "ev": 791,
      "ll": 792,
      "ins": 793,
      "rib": 794,
      "az": 795,
      "cess": 796,
      "eral": 797,
      "Ġ6": 798,
      "Ġbu": 799,
      "inn": 800,
      "att": 801,
      "ities": 802,
      "ily": 803,
      "ĠJo": 804,
      "uary": 805,
      "External": 806,
      "form": 807,
      "ĠCol": 808,
      "Ġbet": 809,
      "Ġwhen": 810,
      "reat": 811,
      "bum": 812,
      "Ġunder": 813,
      "Ġco": 814,
      "ĠOn": 815,
      "ince": 816,
      "Ġcons": 817,
      "Ġreg": 818,
      "ĠInd": 819,
      "Ġteam": 820,
      "Ġpubl": 821,
      "ife": 822,
      "eat": 823,
      "che": 824,
      "Ġplayers": 825,
      "der": 826,
      "aj": 827,
      "ollow": 828,
      "Ġcent": 829,
      "ĠZ": 830,
      "oth": 831,
      "Ġyears": 832,
      "str": 833,
      "oci": 834,
      "Ġret": 835,
      "ween": 836,
      "Ġest": 837,
      "Ġind": 838,
      "usic": 839,
      "ĠUniversity": 840,
      "Ã©": 841,
      "lish": 842,
      "Ġbo": 843,
      "use": 844,
      "ĠPro": 845,
      "Ġmore": 846,
      "Ġass": 847,
      "Ġwould": 848,
      "irect": 849,
      "Ġagain": 850,
      "ular": 851,
      "Ġschool": 852,
      "Ġstud": 853,
      "Ġonly": 854,
      "Ġform": 855,
      "ier": 856,
      "ident": 857,
      "enn": 858,
      "ional": 859,
      "ĠCl": 860,
      "ĠSc": 861,
      "eries": 862,
      "emb": 863,
      "ĠEng": 864,
      "Ġcol": 865,
      "Ġduring": 866,
      "ley": 867,
      "any": 868,
      "Ġpol": 869,
      "Ġwhere": 870,
      "Ġmost": 871,
      "Ġ7": 872,
      "Ġsub": 873,
      "Ġcan": 874,
      "ague": 875,
      "air": 876,
      "Ġsup": 877,
      "raph": 878,
      "Ġalbum": 879,
      "Ġ194": 880,
      "Ġabout": 881,
      "Ġbetween": 882,
      "Ġ195": 883,
      "duct": 884,
      "istory": 885,
      "Ġear": 886,
      "round": 887,
      "ĠStates": 888,
      "Ġrel": 889,
      "Ġsy": 890,
      "Ġrele": 891,
      "ement": 892,
      "pr": 893,
      "Ġqu": 894,
      "ober": 895,
      "ouse": 896,
      "resent": 897,
      "ative": 898,
      "ina": 899,
      "Ġthrough": 900,
      "Ġthree": 901,
      "Ġfl": 902,
      "Ġused": 903,
      "fore": 904,
      "Ġdec": 905,
      "hen": 906,
      "ash": 907,
      "Ġrem": 908,
      "Ġfound": 909,
      "ars": 910,
      "Ġinter": 911,
      "overn": 912,
      "Ġed": 913,
      "ield": 914,
      "199": 915,
      "Ġdist": 916,
      "Ġpop": 917,
      "Ġlater": 918,
      "Ġsing": 919,
      "ĠBr": 920,
      "por": 921,
      "iam": 922,
      "Ġfollow": 923,
      "Ġgen": 924,
      "Ġend": 925,
      "iver": 926,
      "Ġrecord": 927,
      "Ġthere": 928,
      "Ġnum": 929,
      "ĠSchool": 930,
      "ten": 931,
      "Ġthem": 932,
      "Ġthen": 933,
      "Ġtra": 934,
      "ĠThis": 935,
      "Ġso": 936,
      "Ġmov": 937,
      "erm": 938,
      "ific": 939,
      "Ġseason": 940,
      "Ġra": 941,
      "Ġwrit": 942,
      "Ġ8": 943,
      "ower": 944,
      "\".": 945,
      "ĠIs": 946,
      "ating": 947,
      "erson": 948,
      "Ġmade": 949,
      "Ġfootball": 950,
      "Ġme": 951,
      "pen": 952,
      "Ġsecond": 953,
      "Ġspec": 954,
      "erman": 955,
      "\",": 956,
      "Ġtrans": 957,
      "ank": 958,
      "Ġchar": 959,
      "ĠCount": 960,
      "son": 961,
      "cc": 962,
      "ĠJohn": 963,
      "ept": 964,
      "Ġknown": 965,
      "oss": 966,
      "ert": 967,
      "ĠAust": 968,
      "ĠWorld": 969,
      "ograph": 970,
      "ĠAs": 971,
      "ĠBl": 972,
      "Ġart": 973,
      "ĠWar": 974,
      "Ġ17": 975,
      ".\"": 976,
      "Ġsuch": 977,
      "Ġprov": 978,
      "itt": 979,
      "lev": 980,
      "Ġestab": 981,
      "Ġset": 982,
      "Ġent": 983,
      "ĠCar": 984,
      "Ġbecame": 985,
      "Ġthan": 986,
      "ures": 987,
      "Ġelect": 988,
      "velop": 989,
      "its": 990,
      "mp": 991,
      "Ġdef": 992,
      "Ġ9": 993,
      "âĢĶ": 994,
      "une": 995,
      "Ġbir": 996,
      "ived": 997,
      "Ġsong": 998,
      "ĠFran": 999,
      "ĠQ": 1000,
      "Ġdirect": 1001,
      "ines": 1002,
      "Ġsome": 1003,
      "Ġinv": 1004,
      "Ġam": 1005,
      "Ġ10": 1006,
      "iving": 1007,
      "ve": 1008,
      "Ġ&": 1009,
      "Ġfam": 1010,
      "rict": 1011,
      "ism": 1012,
      "Ġbeing": 1013,
      "ike": 1014,
      "Ġbl": 1015,
      "ments": 1016,
      "iew": 1017,
      "ĠCon": 1018,
      "els": 1019,
      "other": 1020,
      "uss": 1021,
      "Ġcall": 1022,
      "ĠPh": 1023,
      "Ġexp": 1024,
      "til": 1025,
      "ĠCan": 1026,
      "let": 1027,
      "ĠComm": 1028,
      "urch": 1029,
      "ute": 1030,
      "ĠShe": 1031,
      "uro": 1032,
      "Ġlar": 1033,
      "Ġwell": 1034,
      "ron": 1035,
      "ays": 1036,
      "ounc": 1037,
      "stit": 1038,
      "Ġfour": 1039,
      "Ġmon": 1040,
      "ths": 1041,
      "Ġph": 1042,
      "ĠBrit": 1043,
      "Ġstr": 1044,
      "ise": 1045,
      "inist": 1046,
      "Ġseries": 1047,
      "ĠYork": 1048,
      "ĠNational": 1049,
      "ull": 1050,
      "Ġdo": 1051,
      "Ġmed": 1052,
      "ax": 1053,
      "ĊĊ": 1054,
      "by": 1055,
      "Ġ193": 1056,
      "ef": 1057,
      "ty": 1058,
      "ĠOr": 1059,
      "Ġgroup": 1060,
      "Ġhigh": 1061,
      "Ġincluding": 1062,
      "Ġgr": 1063,
      "ĠMay": 1064,
      "very": 1065,
      "ternational": 1066,
      "stem": 1067,
      "Ġ15": 1068,
      "Ġlead": 1069,
      "Ġgo": 1070,
      "ĠJan": 1071,
      "Ġacc": 1072,
      "ai": 1073,
      "Ġoper": 1074,
      "ĠAt": 1075,
      "Ġbefore": 1076,
      "owever": 1077,
      "ural": 1078,
      "Ġinc": 1079,
      "Ġorig": 1080,
      "ĠWest": 1081,
      "Ġbro": 1082,
      "Ġagainst": 1083,
      "ather": 1084,
      "Ġwhile": 1085,
      "ĠPl": 1086,
      "Ġ16": 1087,
      "ired": 1088,
      "ĠPr": 1089,
      "ĠAd": 1090,
      "000": 1091,
      "ĠCounty": 1092,
      "ces": 1093,
      "amed": 1094,
      "Ġadd": 1095,
      "Ġmany": 1096,
      "ians": 1097,
      "Ġsign": 1098,
      "ne": 1099,
      "21": 1100,
      "ered": 1101,
      "201": 1102,
      "ues": 1103,
      "Ġuntil": 1104,
      "elf": 1105,
      "icip": 1106,
      "Ġown": 1107,
      "my": 1108,
      "Ġshow": 1109,
      "Ġsur": 1110,
      "Ġback": 1111,
      "arri": 1112,
      "ampions": 1113,
      "ĠSouth": 1114,
      "ives": 1115,
      "Ġcount": 1116,
      "198": 1117,
      "Ġname": 1118,
      "rist": 1119,
      "areer": 1120,
      "Ġgu": 1121,
      "ke": 1122,
      "gram": 1123,
      "eth": 1124,
      "Ġdeath": 1125,
      "Ġno": 1126,
      "ium": 1127,
      "Ġmain": 1128,
      "Ġmod": 1129,
      "born": 1130,
      "ution": 1131,
      "ys": 1132,
      "Ġ2006": 1133,
      "Ġmay": 1134,
      "Ġplayed": 1135,
      "ject": 1136,
      "Ġmusic": 1137,
      "Ġboth": 1138,
      "ĠJu": 1139,
      "ott": 1140,
      "ets": 1141,
      "ĠGerman": 1142,
      "Ġdevelop": 1143,
      "Ġnumber": 1144,
      "ĠAustral": 1145,
      "Ġformer": 1146,
      "Ġcap": 1147,
      "Ġarea": 1148,
      "Ġoffic": 1149,
      "Ġ12": 1150,
      "led": 1151,
      "ulation": 1152,
      "ger": 1153,
      "lege": 1154,
      "uth": 1155,
      "ugust": 1156,
      "ica": 1157,
      "Ġpar": 1158,
      "aid": 1159,
      "Ġsever": 1160,
      "ology": 1161,
      "ross": 1162,
      "ĠFor": 1163,
      "Ġrece": 1164,
      "Ġdr": 1165,
      "embers": 1166,
      "yl": 1167,
      "ĠWh": 1168,
      "ajor": 1169,
      "Ġem": 1170,
      "ized": 1171,
      "ĠCent": 1172,
      "ĠLeague": 1173,
      "ĠNov": 1174,
      "sp": 1175,
      "ient": 1176,
      "Ġbuild": 1177,
      "hes": 1178,
      "Ġ.": 1179,
      "imes": 1180,
      "ĠCity": 1181,
      "ually": 1182,
      "eptember": 1183,
      "Ġcre": 1184,
      "duced": 1185,
      "oman": 1186,
      "Ġopen": 1187,
      "Ġsm": 1188,
      "ĠDec": 1189,
      "Ġrep": 1190,
      "Ġfeat": 1191,
      "ĠPar": 1192,
      "ĠGe": 1193,
      "overnment": 1194,
      "Ġgame": 1195,
      "Ġreleased": 1196,
      "ared": 1197,
      "omen": 1198,
      "isc": 1199,
      "ĠBro": 1200,
      "Ġrun": 1201,
      "ior": 1202,
      "St": 1203,
      "ird": 1204,
      "ained": 1205,
      "Ġdif": 1206,
      "ved": 1207,
      "fess": 1208,
      "ove": 1209,
      "struct": 1210,
      "ĠAugust": 1211,
      "ĠNorth": 1212,
      "ĠCal": 1213,
      "au": 1214,
      "ages": 1215,
      "Ġext": 1216,
      "Ch": 1217,
      "ission": 1218,
      "Ġdesign": 1219,
      "sh": 1220,
      "ĠBritish": 1221,
      "ctober": 1222,
      "for": 1223,
      "Ġlong": 1224,
      "ery": 1225,
      "ven": 1226,
      "Ġwon": 1227,
      "osed": 1228,
      "inc": 1229,
      "Ġvar": 1230,
      "iet": 1231,
      "ĠCo": 1232,
      "ple": 1233,
      "ĠCanad": 1234,
      "197": 1235,
      "See": 1236,
      "ĠBar": 1237,
      "Ġne": 1238,
      "Ġ2007": 1239,
      "ĠBo": 1240,
      "ĠSeptember": 1241,
      "Ġstate": 1242,
      "rid": 1243,
      "ĠEd": 1244,
      "levision": 1245,
      "ret": 1246,
      "American": 1247,
      "ause": 1248,
      "Ġsystem": 1249,
      "pril": 1250,
      "ham": 1251,
      "ĠMarch": 1252,
      "ital": 1253,
      "ĠDe": 1254,
      "Ġpolit": 1255,
      "Ġreturn": 1256,
      "ĠAll": 1257,
      "ĠGu": 1258,
      "wards": 1259,
      "ris": 1260,
      "Ġann": 1261,
      "Ġ'": 1262,
      "ĠJune": 1263,
      "Ġstation": 1264,
      "Ġclub": 1265,
      "Ġair": 1266,
      "Ġcalled": 1267,
      "istor": 1268,
      "Ġseveral": 1269,
      "Ġ13": 1270,
      "Ġorgan": 1271,
      "Ġ14": 1272,
      "ilt": 1273,
      "ĠKing": 1274,
      "lished": 1275,
      "Ġoriginal": 1276,
      "ĠAss": 1277,
      "arm": 1278,
      "ĠII": 1279,
      "Ġtown": 1280,
      "ĠJanuary": 1281,
      "Ġsame": 1282,
      "ampionship": 1283,
      "vent": 1284,
      "century": 1285,
      "10": 1286,
      "ĠJuly": 1287,
      "Ġlife": 1288,
      "Ġcontin": 1289,
      "ange": 1290,
      "ĠEuro": 1291,
      "17": 1292,
      "ĠOctober": 1293,
      "bo": 1294,
      "ae": 1295,
      "Ġprogram": 1296,
      "ĠMan": 1297,
      "ĠGr": 1298,
      "Ġmat": 1299,
      "Ġsuc": 1300,
      "fl": 1301,
      "Ġdep": 1302,
      "ography": 1303,
      "ĠBe": 1304,
      "ony": 1305,
      "Ġpublic": 1306,
      "rent": 1307,
      "Ġfinal": 1308,
      "ful": 1309,
      "aking": 1310,
      "Ġfamily": 1311,
      "ring": 1312,
      "Ġob": 1313,
      "Ġearly": 1314,
      "the": 1315,
      "ility": 1316,
      "ner": 1317,
      "Ġnear": 1318,
      "Ġfollowing": 1319,
      "Ġcareer": 1320,
      "af": 1321,
      "ible": 1322,
      "ĠFl": 1323,
      "ured": 1324,
      "oint": 1325,
      "ĠApril": 1326,
      "ially": 1327,
      "Ġwill": 1328,
      "apan": 1329,
      "ĠHigh": 1330,
      "ebr": 1331,
      "reen": 1332,
      "ains": 1333,
      "ĠAm": 1334,
      "eng": 1335,
      "yn": 1336,
      "Ġstart": 1337,
      "Ġband": 1338,
      "ster": 1339,
      "ĠState": 1340,
      "ĠWill": 1341,
      "ask": 1342,
      "ĠThey": 1343,
      "On": 1344,
      "Ġpass": 1345,
      "Ġfin": 1346,
      "Ġhead": 1347,
      "ally": 1348,
      "rop": 1349,
      "Ġcur": 1350,
      "ality": 1351,
      "ĠUS": 1352,
      "Ġcommun": 1353,
      "ese": 1354,
      "Ġchild": 1355,
      "Ġdisc": 1356,
      "Ġclass": 1357,
      "ilit": 1358,
      "Ġmin": 1359,
      "amb": 1360,
      "ĠDecember": 1361,
      "ued": 1362,
      "ĠRep": 1363,
      "Ġthese": 1364,
      "ided": 1365,
      "Ġbel": 1366,
      "ung": 1367,
      "Ġ11": 1368,
      "ane": 1369,
      "ator": 1370,
      "ĠNovember": 1371,
      "ĠRe": 1372,
      "ille": 1373,
      "ĠâĢĶ": 1374,
      "ĠReg": 1375,
      "Ġbirths": 1376,
      "com": 1377,
      "orks": 1378,
      "Ġmen": 1379,
      "angu": 1380,
      "Ġtit": 1381,
      "Ġsince": 1382,
      "Ġappear": 1383,
      "ĠRo": 1384,
      "ants": 1385,
      "cept": 1386,
      "Ġgames": 1387,
      "to": 1388,
      "orts": 1389,
      "ĊĠ": 1390,
      "Ġany": 1391,
      "ling": 1392,
      "ĠHar": 1393,
      "ices": 1394,
      "ales": 1395,
      "Ġcity": 1396,
      "ĠTr": 1397,
      "Ġalong": 1398,
      "uck": 1399,
      "ised": 1400,
      "ended": 1401,
      "Ġpres": 1402,
      "ience": 1403,
      "Ã¡": 1404,
      "ĠChrist": 1405,
      "Ġestablished": 1406,
      "Ġcomple": 1407,
      "Ġuse": 1408,
      "ĠEnglish": 1409,
      "ĠPol": 1410,
      "Ġmembers": 1411,
      "echn": 1412,
      "ection": 1413,
      "ĠSw": 1414,
      "Ġbased": 1415,
      "aced": 1416,
      "22": 1417,
      "Ġnamed": 1418,
      "Ġland": 1419,
      "ically": 1420,
      "ck": 1421,
      "ebruary": 1422,
      "Ġvers": 1423,
      "eter": 1424,
      "Ġlist": 1425,
      "augh": 1426,
      "acks": 1427,
      "ĠAf": 1428,
      "Ġresp": 1429,
      "Ġbegan": 1430,
      "Ġsmall": 1431,
      "ects": 1432,
      "ival": 1433,
      "ĠAfter": 1434,
      "ĠRec": 1435,
      "ĠMc": 1436,
      "Ġlocated": 1437,
      "..": 1438,
      "ĠEurope": 1439,
      "ĠEx": 1440,
      "196": 1441,
      "ords": 1442,
      "Ġeff": 1443,
      "ĠGeor": 1444,
      "Ġsim": 1445,
      "row": 1446,
      "onom": 1447,
      "Ġwe": 1448,
      "ford": 1449,
      "|-": 1450,
      "Ġproduct": 1451,
      "iness": 1452,
      "ode": 1453,
      "ored": 1454,
      "Ġvill": 1455,
      "Ġdid": 1456,
      "ĠHis": 1457,
      "Ġfilms": 1458,
      "Ġmanag": 1459,
      "Ġprom": 1460,
      "Ġpopulation": 1461,
      "Ġocc": 1462,
      "ights": 1463,
      "Ġeng": 1464,
      "ats": 1465,
      "aving": 1466,
      "rench": 1467,
      "ino": 1468,
      "ĠAnd": 1469,
      "Ġdesc": 1470,
      "ĠEast": 1471,
      "Ġeach": 1472,
      "Ġbus": 1473,
      "Ġ2008": 1474,
      "Ġcar": 1475,
      "ards": 1476,
      "uk": 1477,
      "ĠSe": 1478,
      "ting": 1479,
      "ech": 1480,
      "Ġmajor": 1481,
      "Ġsupport": 1482,
      "He": 1483,
      "Ġ2005": 1484,
      "gest": 1485,
      "Ġcompet": 1486,
      "ĠJapan": 1487,
      "Ġcentury": 1488,
      "ĠFebruary": 1489,
      "ĠAir": 1490,
      "Ġmet": 1491,
      "rew": 1492,
      "me": 1493,
      "side": 1494,
      "ĠCollege": 1495,
      "Ġplace": 1496,
      "16": 1497,
      "adem": 1498,
      "Ġhome": 1499,
      "Ġsl": 1500,
      "ourn": 1501,
      "ract": 1502,
      "Ġimp": 1503,
      "ivision": 1504,
      "Ġlaw": 1505,
      "ĠCup": 1506,
      "15": 1507,
      "ble": 1508,
      "Ġrev": 1509,
      "aul": 1510,
      "itions": 1511,
      "lymp": 1512,
      "ondon": 1513,
      "ĠPark": 1514,
      "Ġdown": 1515,
      "Ġsingle": 1516,
      "unicip": 1517,
      "que": 1518,
      "Ġmember": 1519,
      "ĠNo": 1520,
      "Ġpo": 1521,
      "Ġperson": 1522,
      "Ġgovernment": 1523,
      "Ġnational": 1524,
      "Ġsuccess": 1525,
      "Ġtelevision": 1526,
      "ined": 1527,
      "12": 1528,
      "ĠEl": 1529,
      "Ġnow": 1530,
      "ides": 1531,
      "ĠGen": 1532,
      "aces": 1533,
      "reet": 1534,
      "ĠChar": 1535,
      "Ġlocal": 1536,
      "Ġterm": 1537,
      "ety": 1538,
      "ĠComp": 1539,
      "Ġline": 1540,
      "ata": 1541,
      "osition": 1542,
      "alth": 1543,
      "ĠAb": 1544,
      "Ġworld": 1545,
      "ociation": 1546,
      "yp": 1547,
      "ffic": 1548,
      "rol": 1549,
      "yle": 1550,
      "Ġcompany": 1551,
      "urg": 1552,
      "atic": 1553,
      "Ġaround": 1554,
      "arn": 1555,
      "Ġlast": 1556,
      "Ġ192": 1557,
      "idd": 1558,
      "adio": 1559,
      "Ġserved": 1560,
      "earch": 1561,
      "Ġbuilt": 1562,
      "Ġpublished": 1563,
      "Ġleg": 1564,
      "Ġcould": 1565,
      "Th": 1566,
      "Ġdiffer": 1567,
      "Ġtook": 1568,
      "ublic": 1569,
      "med": 1570,
      "Ġplayer": 1571,
      "Al": 1572,
      "Ġhel": 1573,
      "Ġ2004": 1574,
      "ourt": 1575,
      "Ġheld": 1576,
      "erg": 1577,
      "ĠĠĠĠ": 1578,
      "ĠHowever": 1579,
      "Ġ2010": 1580,
      "Ġold": 1581,
      "Ġrefer": 1582,
      "uthor": 1583,
      "Ġ2009": 1584,
      "ington": 1585,
      "ana": 1586,
      "Ġep": 1587,
      "ature": 1588,
      "co": 1589,
      "ĠLondon": 1590,
      "Ġleft": 1591,
      "Ġdue": 1592,
      "ĠMed": 1593,
      "ches": 1594,
      "akes": 1595,
      "ately": 1596,
      "ĠDav": 1597,
      "Ġnorth": 1598,
      "ĠWilliam": 1599,
      "Ġcr": 1600,
      "Ġjoin": 1601,
      "Ġrest": 1602,
      "ĠX": 1603,
      "acter": 1604,
      "Ġgeneral": 1605,
      "Ġ190": 1606,
      "ĠPart": 1607,
      "illion": 1608,
      "ows": 1609,
      "ently": 1610,
      "oks": 1611,
      "unct": 1612,
      "get": 1613,
      "ison": 1614,
      "ĠSy": 1615,
      "cast": 1616,
      "ĠEn": 1617,
      "ĠTe": 1618,
      "Ġshort": 1619,
      "ped": 1620,
      "ĠItal": 1621,
      "ara": 1622,
      "ilitary": 1623,
      "ink": 1624,
      "Ġprofess": 1625,
      "Ġeduc": 1626,
      "ĠAng": 1627,
      "tt": 1628,
      "ief": 1629,
      "uf": 1630,
      "Ġ2011": 1631,
      "tal": 1632,
      "Ġevent": 1633,
      "ified": 1634,
      "ps": 1635,
      "Ġcamp": 1636,
      "though": 1637,
      "aus": 1638,
      "raft": 1639,
      "âĢĻ": 1640,
      "ĠDist": 1641,
      "ideo": 1642,
      "aim": 1643,
      "iod": 1644,
      "Ġlarge": 1645,
      "195": 1646,
      "Ġhistory": 1647,
      "Ġ2000": 1648,
      "ĠAfric": 1649,
      "day": 1650,
      "int": 1651,
      "ext": 1652,
      "Ġsix": 1653,
      "ĠCor": 1654,
      "History": 1655,
      "Ġborn": 1656,
      "iforn": 1657,
      "alk": 1658,
      "iven": 1659,
      "14": 1660,
      "omin": 1661,
      "ĠFrench": 1662,
      "ration": 1663,
      "Ġpresent": 1664,
      "13": 1665,
      "ĠRuss": 1666,
      "ency": 1667,
      "sc": 1668,
      "ĠSup": 1669,
      "ĠSec": 1670,
      "Ġbecause": 1671,
      "ĠChampionship": 1672,
      "ected": 1673,
      "Ġfive": 1674,
      "Ġtri": 1675,
      "umn": 1676,
      "Ġinclude": 1677,
      "ifornia": 1678,
      "ording": 1679,
      "Ġday": 1680,
      "rick": 1681,
      "ĠPhil": 1682,
      "ummer": 1683,
      "Ġdeb": 1684,
      "ĠDr": 1685,
      "umb": 1686,
      "Ġref": 1687,
      "ĠHouse": 1688,
      "anguage": 1689,
      "Ġorder": 1690,
      "ler": 1691,
      "ody": 1692,
      "Ġ,": 1693,
      "ĠHer": 1694,
      "attle": 1695,
      "Ġdied": 1696,
      "ization": 1697,
      "ones": 1698,
      "Ġwomen": 1699,
      "arried": 1700,
      "Ġdet": 1701,
      "Ġincluded": 1702,
      "aint": 1703,
      "ouncil": 1704,
      "Ġappro": 1705,
      "Ġsk": 1706,
      "vers": 1707,
      "inning": 1708,
      "Ġreceived": 1709,
      "Ġrequ": 1710,
      "ĠRiver": 1711,
      "ene": 1712,
      "reg": 1713,
      "ĠEngland": 1714,
      "Ġpower": 1715,
      "urs": 1716,
      "par": 1717,
      "ĠGl": 1718,
      "Ġconsid": 1719,
      "ox": 1720,
      "ges": 1721,
      "ĠĊĠĊ": 1722,
      "Ġav": 1723,
      "riend": 1724,
      "ĠLa": 1725,
      "Ġwithin": 1726,
      "ald": 1727,
      "Ġ2003": 1728,
      "Ġlo": 1729,
      "ze": 1730,
      "Ġ25": 1731,
      "ĠCalifornia": 1732,
      "Ġbook": 1733,
      "Ġmark": 1734,
      "line": 1735,
      "ument": 1736,
      "oph": 1737,
      "urther": 1738,
      "eek": 1739,
      "Ġfr": 1740,
      "ĠThere": 1741,
      "iter": 1742,
      "ĠSan": 1743,
      "Ġwar": 1744,
      "tain": 1745,
      "ĠMe": 1746,
      "Ġ30": 1747,
      "Ġson": 1748,
      "ively": 1749,
      "Ġrepl": 1750,
      "Ġsouth": 1751,
      "ĠMich": 1752,
      "Ġjust": 1753,
      "ĠIndian": 1754,
      "hern": 1755,
      "itar": 1756,
      "Ġthird": 1757,
      "Ġstand": 1758,
      "ĠAustralia": 1759,
      "Ġ189": 1760,
      "Ġsaid": 1761,
      "Ġanother": 1762,
      "Ġresult": 1763,
      "Ġvillage": 1764,
      "194": 1765,
      "ste": 1766,
      ".,": 1767,
      "ett": 1768,
      "Un": 1769,
      "Ġ2001": 1770,
      "Ġtop": 1771,
      "vious": 1772,
      "Ġ2002": 1773,
      "Ġperform": 1774,
      "Ġstill": 1775,
      "ĠRes": 1776,
      "Ġchildren": 1777,
      "ged": 1778,
      "Ġaddition": 1779,
      "Ġkill": 1780,
      "hem": 1781,
      "ering": 1782,
      "na": 1783,
      "osp": 1784,
      "ĠAct": 1785,
      "Ġdem": 1786,
      "ĠAc": 1787,
      "uman": 1788,
      "Ġ2012": 1789,
      "Ġcurrent": 1790,
      "Ġdistrict": 1791,
      "ĠOlymp": 1792,
      "Ġdifferent": 1793,
      "Ġbuilding": 1794,
      "lin": 1795,
      "Ġnon": 1796,
      "omb": 1797,
      "Ġeast": 1798,
      "Ġprot": 1799,
      "Ġ$": 1800,
      "Ġnov": 1801,
      "ĠInternational": 1802,
      "Ġlike": 1803,
      "eal": 1804,
      "ness": 1805,
      "oon": 1806,
      "ours": 1807,
      "Ġfac": 1808,
      "ves": 1809,
      "Ġadv": 1810,
      "Ġcharacter": 1811,
      "Ġla": 1812,
      "Ġvery": 1813,
      "ases": 1814,
      "orthern": 1815,
      "ocial": 1816,
      "Ġmale": 1817,
      "Ġwater": 1818,
      "Ġservice": 1819,
      "Ġfield": 1820,
      "lands": 1821,
      "Ġperiod": 1822,
      "Ġwest": 1823,
      "artment": 1824,
      "ĠArt": 1825,
      "Ġstat": 1826,
      "=\"": 1827,
      "Ġadm": 1828,
      "23": 1829,
      "Ġpost": 1830,
      "Ġif": 1831,
      "Ġrepresent": 1832,
      "ops": 1833,
      "dom": 1834,
      "Ġdescrib": 1835,
      "oung": 1836,
      "ady": 1837,
      "alf": 1838,
      "Ġtrad": 1839,
      "gin": 1840,
      "Ġversion": 1841,
      "Ġiss": 1842,
      "Ġreport": 1843,
      "Ġmoved": 1844,
      "alt": 1845,
      "An": 1846,
      "Ġcor": 1847,
      "rest": 1848,
      "Ġhouse": 1849,
      "Ġsold": 1850,
      "field": 1851,
      "Ġoften": 1852,
      "oyal": 1853,
      "Ġhand": 1854,
      "Ġvis": 1855,
      "ĠMon": 1856,
      "aff": 1857,
      "ael": 1858,
      "Ġequ": 1859,
      "ÃŃ": 1860,
      "ĠDistrict": 1861,
      "Ġbusiness": 1862,
      "Ã³": 1863,
      "ining": 1864,
      "Ġincre": 1865,
      "Ã¼": 1866,
      "Ġbest": 1867,
      "Ġauthor": 1868,
      "Ġturn": 1869,
      "ĠGro": 1870,
      "ĠSch": 1871,
      "epend": 1872,
      "Ġconc": 1873,
      "Ġopp": 1874,
      "ĠAward": 1875,
      "ius": 1876,
      "ms": 1877,
      "ĠPres": 1878,
      "ĠChurch": 1879,
      "Ġconstruct": 1880,
      "ĠPer": 1881,
      "lo": 1882,
      "Ġestablish": 1883,
      "Ġcountry": 1884,
      "aster": 1885,
      "Ġweb": 1886,
      "lection": 1887,
      "11": 1888,
      "Ġside": 1889,
      "ico": 1890,
      "Ġled": 1891,
      "Ġthough": 1892,
      "Ġstudents": 1893,
      "irl": 1894,
      "Ġmunicip": 1895,
      "ecut": 1896,
      "Ġwin": 1897,
      "Ġarch": 1898,
      "Ġtitle": 1899,
      "useum": 1900,
      "ĠCanada": 1901,
      "work": 1902,
      "193": 1903,
      "ense": 1904,
      "Ġproduced": 1905,
      "uit": 1906,
      "acy": 1907,
      "ĠStreet": 1908,
      "olic": 1909,
      "uel": 1910,
      "ociety": 1911,
      "era": 1912,
      "Ġspecies": 1913,
      "right": 1914,
      "Ġlate": 1915,
      "Ġcover": 1916,
      "People": 1917,
      "hel": 1918,
      "Ġfather": 1919,
      "avy": 1920,
      "aren": 1921,
      "Ġannounc": 1922,
      "Ġ2013": 1923,
      "ush": 1924,
      "sk": 1925,
      "ories": 1926,
      "Ġ24": 1927,
      "Ar": 1928,
      "Ġeven": 1929,
      "ribut": 1930,
      "Ġpat": 1931,
      "Ġ0": 1932,
      "Ġepis": 1933,
      "ploy": 1934,
      "Ġexper": 1935,
      "Ġsite": 1936,
      "Ġmag": 1937,
      "app": 1938,
      "Ġcrit": 1939,
      "ivil": 1940,
      "omp": 1941,
      "Ġwritten": 1942,
      "ĠAg": 1943,
      "Ġaff": 1944,
      "Ġfe": 1945,
      "Ġship": 1946,
      "Ġhistor": 1947,
      "ney": 1948,
      "site": 1949,
      "ilar": 1950,
      "Ġport": 1951,
      "ama": 1952,
      "Ġchang": 1953,
      "Ġel": 1954,
      "ander": 1955,
      "otes": 1956,
      "ĠSm": 1957,
      "ched": 1958,
      "ĠAmer": 1959,
      "bert": 1960,
      "esp": 1961,
      "Ġdel": 1962,
      "Ġ188": 1963,
      "Ġec": 1964,
      "ize": 1965,
      "ĠArmy": 1966,
      "Ġthose": 1967,
      "Ġcame": 1968,
      "Ġcult": 1969,
      "Ġfore": 1970,
      "Ġlevel": 1971,
      "Ġdeaths": 1972,
      "lex": 1973,
      "of": 1974,
      "Ġspe": 1975,
      "50": 1976,
      "Ġmake": 1977,
      "Ġamong": 1978,
      "ville": 1979,
      "Ġ2014": 1980,
      "Ġposs": 1981,
      "ago": 1982,
      "Ġactiv": 1983,
      "ĠEm": 1984,
      "Ġinternational": 1985,
      "Ġrole": 1986,
      "ridge": 1987,
      "Ġvoc": 1988,
      "ĠDep": 1989,
      "Ġsw": 1990,
      "Ġinvol": 1991,
      "ote": 1992,
      "Ġallow": 1993,
      "ries": 1994,
      "thern": 1995,
      "Ġtechn": 1996,
      "rem": 1997,
      "formation": 1998,
      "ĠOne": 1999,
      "ĠRoad": 2000,
      "ania": 2001,
      "ĠRoman": 2002,
      "ape": 2003,
      "adu": 2004,
      "Ġwent": 2005,
      "Ġbre": 2006,
      "BC": 2007,
      "Ġexpl": 2008,
      "irc": 2009,
      "Ġmuch": 2010,
      "Ġengine": 2011,
      "Ġ1999": 2012,
      "Ġprevious": 2013,
      "ced": 2014,
      "ole": 2015,
      "ĠIndia": 2016,
      "off": 2017,
      "outhern": 2018,
      "ĠPort": 2019,
      "Ġcommon": 2020,
      "Ġval": 2021,
      "olution": 2022,
      "Ġfact": 2023,
      "ĠHol": 2024,
      "Ġrail": 2025,
      "ript": 2026,
      "forman": 2027,
      "ĠQu": 2028,
      "ti": 2029,
      "Ġwhat": 2030,
      "Ġimport": 2031,
      "ĠRed": 2032,
      "col": 2033,
      "ĠRober": 2034,
      "ĠPaul": 2035,
      "ades": 2036,
      "Ġgiven": 2037,
      "ĠLou": 2038,
      "Ġroad": 2039,
      "ning": 2040,
      "ĠQue": 2041,
      "Ġvol": 2042,
      "Ġalbums": 2043,
      "ĠVal": 2044,
      "ĠBel": 2045,
      "'t": 2046,
      "Ġbecome": 2047,
      "ĠMor": 2048,
      "omet": 2049,
      "Ġage": 2050,
      "Ġren": 2051,
      "de": 2052,
      "anish": 2053,
      "ister": 2054,
      "self": 2055,
      "Living": 2056,
      "ĠNor": 2057,
      "ournal": 2058,
      "Ġfre": 2059,
      "ports": 2060,
      "Ġtem": 2061,
      "ĠGeorge": 2062,
      "Ġopened": 2063,
      "Ġofficial": 2064,
      "ittle": 2065,
      "Ġaward": 2066,
      "itor": 2067,
      "Ġpopular": 2068,
      "Ġtotal": 2069,
      "Ġtw": 2070,
      "Ġcommunity": 2071,
      "ĠJames": 2072,
      "hers": 2073,
      "Ġ186": 2074,
      "ĠRecords": 2075,
      "ĠBy": 2076,
      "Ġbr": 2077,
      "bor": 2078,
      "ĠAssociation": 2079,
      "Ġ2015": 2080,
      "Ġ1990": 2081,
      "ĠParty": 2082,
      "ĠRich": 2083,
      "ĠDavid": 2084,
      "Ġworks": 2085,
      "reek": 2086,
      "urb": 2087,
      "iction": 2088,
      "ming": 2089,
      "ances": 2090,
      "ha": 2091,
      "iment": 2092,
      "ots": 2093,
      "ivid": 2094,
      "Ġintro": 2095,
      "Ġvarious": 2096,
      "ĠAustralian": 2097,
      "ĠAmerica": 2098,
      "Ġstarted": 2099,
      "ĠâĢ": 2100,
      "ached": 2101,
      "Ġinit": 2102,
      "abor": 2103,
      "Ġsit": 2104,
      "ĠFrance": 2105,
      "Ġhost": 2106,
      "Ġ21": 2107,
      "Ġhaving": 2108,
      "Ġstyle": 2109,
      "Ġnext": 2110,
      "Ġ23": 2111,
      "Ġcoach": 2112,
      "ream": 2113,
      "ston": 2114,
      "ipp": 2115,
      "esc": 2116,
      "Ġ2016": 2117,
      "Ġsongs": 2118,
      "ĠHall": 2119,
      "ĠPal": 2120,
      "iber": 2121,
      "Ġprim": 2122,
      "Ġreturned": 2123,
      "Ġspecial": 2124,
      "Ġfew": 2125,
      "Ġmillion": 2126,
      "omm": 2127,
      "ari": 2128,
      "Ġstruct": 2129,
      "Ġ1998": 2130,
      "Ġdebut": 2131,
      "ida": 2132,
      "Ġevery": 2133,
      "Ġprocess": 2134,
      "rote": 2135,
      "ĠDivision": 2136,
      "stitute": 2137,
      "west": 2138,
      "eration": 2139,
      "Ġread": 2140,
      "Ġschools": 2141,
      "Ġvideo": 2142,
      "Ġ22": 2143,
      "Ġbeg": 2144,
      "Ġusing": 2145,
      "ament": 2146,
      "Ġcreated": 2147,
      "Ġproduction": 2148,
      "Ġtake": 2149,
      "Ġstar": 2150,
      "Ġprop": 2151,
      "ean": 2152,
      "Ġproduc": 2153,
      "Ġbroad": 2154,
      "li": 2155,
      "ention": 2156,
      "Ġclaim": 2157,
      "As": 2158,
      "men": 2159,
      "lected": 2160,
      "Ġround": 2161,
      "ground": 2162,
      "aken": 2163,
      "aur": 2164,
      "Ġway": 2165,
      "oor": 2166,
      "gy": 2167,
      "raw": 2168,
      "ĠRev": 2169,
      "Ġ187": 2170,
      "eh": 2171,
      "Ġtimes": 2172,
      "Ġdevelopment": 2173,
      "itz": 2174,
      "Ġmar": 2175,
      "rain": 2176,
      "Ġet": 2177,
      "omas": 2178,
      "Ġstory": 2179,
      "iron": 2180,
      "ĠCouncil": 2181,
      "ators": 2182,
      "Ġguitar": 2183,
      "Ġhowever": 2184,
      "Ġgreat": 2185,
      "iddle": 2186,
      "Ġsent": 2187,
      "Ġpri": 2188,
      "ĠMy": 2189,
      "ĠClub": 2190,
      "ogn": 2191,
      "ĠMal": 2192,
      "iol": 2193,
      "Ã¶": 2194,
      "Ġmilitary": 2195,
      "wood": 2196,
      "lement": 2197,
      "ological": 2198,
      "ĠWhen": 2199,
      "Ġhig": 2200,
      "Ġ1980": 2201,
      "rack": 2202,
      "Ġconf": 2203,
      "After": 2204,
      "ills": 2205,
      "icle": 2206,
      "sequ": 2207,
      "arly": 2208,
      "umni": 2209,
      "ashington": 2210,
      "Ġfull": 2211,
      "Ġregion": 2212,
      "ĠStud": 2213,
      "erb": 2214,
      "Ġannounced": 2215,
      "ĠGeneral": 2216,
      "ĠCath": 2217,
      "ope": 2218,
      "asket": 2219,
      "ination": 2220,
      "Ġjoined": 2221,
      "Ġsimilar": 2222,
      "ointed": 2223,
      "ma": 2224,
      "Ġmarried": 2225,
      "Ġpe": 2226,
      "Ġprofessional": 2227,
      "ya": 2228,
      "Ġgl": 2229,
      "Ġ[": 2230,
      "ĠDuring": 2231,
      "ĠUnion": 2232,
      "ĠEuropean": 2233,
      "inister": 2234,
      "Ġsol": 2235,
      "ĠRoyal": 2236,
      "Ġsett": 2237,
      "Ġter": 2238,
      "ĠGermany": 2239,
      "Ġ26": 2240,
      "Ġconn": 2241,
      "Ġposition": 2242,
      "rab": 2243,
      "iers": 2244,
      "ĠPat": 2245,
      "ources": 2246,
      "eared": 2247,
      "Ġ2017": 2248,
      "Ġbeh": 2249,
      "flu": 2250,
      "iles": 2251,
      "view": 2252,
      "Ġfriend": 2253,
      "ocr": 2254,
      "Ġchurch": 2255,
      "ĠCompany": 2256,
      "rian": 2257,
      "Ġmult": 2258,
      "ĠVir": 2259,
      "ividual": 2260,
      "align": 2261,
      "Ġbrother": 2262,
      "Pl": 2263,
      "Ġbase": 2264,
      "Ġpract": 2265,
      "ij": 2266,
      "ĠBer": 2267,
      "Pro": 2268,
      "Ġrecorded": 2269,
      "Ġsee": 2270,
      "ĠMusic": 2271,
      "ĠBlack": 2272,
      "Ġpolitic": 2273,
      "Ġperforman": 2274,
      "ibr": 2275,
      "uff": 2276,
      "ĠThese": 2277,
      "Ġpolitical": 2278,
      "now": 2279,
      "Ġneed": 2280,
      "Ġcomb": 2281,
      "30": 2282,
      "gr": 2283,
      "ĠCanadian": 2284,
      "Ġattem": 2285,
      "Ġ27": 2286,
      "Ġ28": 2287,
      "Ġwithout": 2288,
      "Ġleague": 2289,
      "ĠTex": 2290,
      "stitut": 2291,
      "anies": 2292,
      "less": 2293,
      "Ġexamp": 2294,
      "ĠKingdom": 2295,
      "year": 2296,
      "Ġ1996": 2297,
      "atch": 2298,
      "Ġalign": 2299,
      "Ġwrote": 2300,
      "han": 2301,
      "ĠTown": 2302,
      "ĠPress": 2303,
      "Ġareas": 2304,
      "Ġ2018": 2305,
      "ells": 2306,
      "go": 2307,
      "Ġcontrol": 2308,
      "ĠMary": 2309,
      "ĠMart": 2310,
      "ĠSen": 2311,
      "Ġwebsite": 2312,
      "Ġ1997": 2313,
      "reland": 2314,
      "Ġcontinued": 2315,
      "ĠFootball": 2316,
      "Ġfem": 2317,
      "aining": 2318,
      "ule": 2319,
      "raz": 2320,
      "wh": 2321,
      "Ġfind": 2322,
      "ray": 2323,
      "Ġworked": 2324,
      "ĠMag": 2325,
      "aughter": 2326,
      "ype": 2327,
      "ona": 2328,
      "uce": 2329,
      "Ġlim": 2330,
      "Ġdest": 2331,
      "atter": 2332,
      "Ġappeared": 2333,
      "Ġtrack": 2334,
      "Ġred": 2335,
      "leg": 2336,
      "ference": 2337,
      "ways": 2338,
      "asketball": 2339,
      "Ġpoint": 2340,
      "ĠJos": 2341,
      "Ġeducation": 2342,
      "Ġinf": 2343,
      "ĠÃ": 2344,
      "ockey": 2345,
      "arl": 2346,
      "Ġright": 2347,
      "Ġgroups": 2348,
      "icular": 2349,
      "ĠLaw": 2350,
      "etwork": 2351,
      "ĠPresident": 2352,
      "ĠTV": 2353,
      "nel": 2354,
      "CA": 2355,
      "ĠSl": 2356,
      "oints": 2357,
      "ĠWashington": 2358,
      "Ġattack": 2359,
      "Ġ1970": 2360,
      "ĠTur": 2361,
      "ym": 2362,
      "Ġlost": 2363,
      "aged": 2364,
      "Ġinterest": 2365,
      "Ġdescribed": 2366,
      "Ġconsidered": 2367,
      "play": 2368,
      "Ġhon": 2369,
      "ising": 2370,
      "Ġnovel": 2371,
      "Ġbas": 2372,
      "Ġdi": 2373,
      "ĠRail": 2374,
      "Ġhalf": 2375,
      "Ġindust": 2376,
      "Ġstations": 2377,
      "ĠMo": 2378,
      "Ġmid": 2379,
      "Ġproject": 2380,
      "ishing": 2381,
      "ither": 2382,
      "Ġdirector": 2383,
      "ĠAngel": 2384,
      "val": 2385,
      "ili": 2386,
      "ĠGroup": 2387,
      "hib": 2388,
      "Ġident": 2389,
      "Ġrock": 2390,
      "ĠAcadem": 2391,
      "ĠIsland": 2392,
      "Ġ100": 2393,
      "used": 2394,
      "ĠMont": 2395,
      "Ġfounded": 2396,
      "Ġteams": 2397,
      "ĠCap": 2398,
      "ults": 2399,
      "cy": 2400,
      "Ġdays": 2401,
      "It": 2402,
      "ĠDon": 2403,
      "Ġreal": 2404,
      "Ġcompleted": 2405,
      "Ġelection": 2406,
      "thlet": 2407,
      "Ġmiss": 2408,
      "Ġevents": 2409,
      "Ġ2019": 2410,
      "berg": 2411,
      "ending": 2412,
      "Ġins": 2413,
      "Ġlive": 2414,
      "rd": 2415,
      "Ġmatch": 2416,
      "ĠArch": 2417,
      "Ġcaus": 2418,
      "ĠHen": 2419,
      "atural": 2420,
      "roy": 2421,
      "Ġsigned": 2422,
      "Ġtest": 2423,
      "Ġradio": 2424,
      "br": 2425,
      "ĠList": 2426,
      "ĠMount": 2427,
      "ĠGreat": 2428,
      "Ġcross": 2429,
      "uz": 2430,
      "Ġoffer": 2431,
      "ably": 2432,
      "ĠSk": 2433,
      "ĠFirst": 2434,
      "ĠBay": 2435,
      "ĠWith": 2436,
      "arch": 2437,
      "Ġvict": 2438,
      "Ġproper": 2439,
      "ĠCourt": 2440,
      "ĠWe": 2441,
      "Cl": 2442,
      "25": 2443,
      "burg": 2444,
      "ĠTexas": 2445,
      "ĠJew": 2446,
      "Ġpresident": 2447,
      "usical": 2448,
      "ĠNe": 2449,
      "Ġdiv": 2450,
      "rish": 2451,
      "ĠRobert": 2452,
      "Ġmy": 2453,
      "ĠServ": 2454,
      "Ġplaying": 2455,
      "aper": 2456,
      "Ġsports": 2457,
      "odes": 2458,
      "ĠCenter": 2459,
      "ĠSociety": 2460,
      "Ġpriv": 2461,
      "Ġ1995": 2462,
      "Ġtyp": 2463,
      "Film": 2464,
      "Ġsqu": 2465,
      "ĠPri": 2466,
      "ĠSing": 2467,
      "ĠLouis": 2468,
      "Ġten": 2469,
      "eck": 2470,
      "):": 2471,
      "ailed": 2472,
      "Ġhold": 2473,
      "ĠYou": 2474,
      "back": 2475,
      "Ġservices": 2476,
      "Ġdeveloped": 2477,
      "roll": 2478,
      "ĠScott": 2479,
      "Ġsurv": 2480,
      "Ġavail": 2481,
      "Ġhimself": 2482,
      "xt": 2483,
      "Ġeconom": 2484,
      "olit": 2485,
      "ĠGreen": 2486,
      "atre": 2487,
      "Ġtradition": 2488,
      "ĠSal": 2489,
      "idence": 2490,
      "Ġlanguage": 2491,
      "Ġ1994": 2492,
      "Ġenc": 2493,
      "Ġfurther": 2494,
      "Ġwife": 2495,
      "Ġgood": 2496,
      "ements": 2497,
      "Ġhelp": 2498,
      "Ġ29": 2499,
      "ĠDem": 2500,
      "asons": 2501,
      "ĠJapanese": 2502,
      "acing": 2503,
      "ensive": 2504,
      "aign": 2505,
      "Ġcast": 2506,
      "Ġinvest": 2507,
      "Ġparticip": 2508,
      "craft": 2509,
      "ccording": 2510,
      "Ġdoes": 2511,
      "ani": 2512,
      "Ġformed": 2513,
      "ĠSam": 2514,
      "ellow": 2515,
      "ĠMad": 2516,
      "ele": 2517,
      "ĠCatholic": 2518,
      "rap": 2519,
      "Ġ/": 2520,
      "ĠItalian": 2521,
      "ĠBest": 2522,
      "udd": 2523,
      "time": 2524,
      "ĠMex": 2525,
      "Ġindividual": 2526,
      "Ġimportant": 2527,
      "ĠYear": 2528,
      "Ġadminist": 2529,
      "ĠMac": 2530,
      "Ġaut": 2531,
      "Ġrelations": 2532,
      "Ġassist": 2533,
      "lic": 2534,
      "ĠMiss": 2535,
      "Ġnever": 2536,
      "ĠSim": 2537,
      "most": 2538,
      "anded": 2539,
      "ump": 2540,
      "iament": 2541,
      "Ġless": 2542,
      "estival": 2543,
      "ka": 2544,
      "cle": 2545,
      "alls": 2546,
      "Ġget": 2547,
      "Ġ1992": 2548,
      "Ġemploy": 2549,
      "Ġview": 2550,
      "olf": 2551,
      "Ġground": 2552,
      "Ġmaking": 2553,
      "ini": 2554,
      "Ġbody": 2555,
      "Ġrelease": 2556,
      "itect": 2557,
      "Ġcond": 2558,
      "here": 2559,
      "Ġ2020": 2560,
      "ĠIreland": 2561,
      "mar": 2562,
      "ertain": 2563,
      "ume": 2564,
      "Ġweek": 2565,
      "ĠCr": 2566,
      "ĠFranc": 2567,
      "pro": 2568,
      "ĠMichael": 2569,
      "Ġinflu": 2570,
      "ylv": 2571,
      "Ġmot": 2572,
      "itted": 2573,
      "anding": 2574,
      "Eng": 2575,
      "ĠTo": 2576,
      "ĠPenn": 2577,
      "ĠFlor": 2578,
      "Ġshould": 2579,
      "Ġalumni": 2580,
      "ĠChristian": 2581,
      "Ġbecom": 2582,
      "ĠUK": 2583,
      "24": 2584,
      "ying": 2585,
      "Ġtro": 2586,
      "oul": 2587,
      "ĠProv": 2588,
      "ĠVol": 2589,
      "ĠTrans": 2590,
      "ĠThomas": 2591,
      "uation": 2592,
      "ano": 2593,
      "ĠWestern": 2594,
      "bour": 2595,
      "Ġarr": 2596,
      "ĠGold": 2597,
      "yd": 2598,
      "Ġcase": 2599,
      "Ġ()": 2600,
      "Ġmeet": 2601,
      "azine": 2602,
      "Ġothers": 2603,
      "ership": 2604,
      "aker": 2605,
      "ĠChina": 2606,
      "Ġanim": 2607,
      "ĠOlympics": 2608,
      "Ġparticular": 2609,
      "apt": 2610,
      "Ġcoll": 2611,
      "ĠCong": 2612,
      "itch": 2613,
      "ada": 2614,
      "unk": 2615,
      "Ġsepar": 2616,
      "unction": 2617,
      "Ġexist": 2618,
      "Sh": 2619,
      "istic": 2620,
      "oted": 2621,
      "Ġmodern": 2622,
      "ification": 2623,
      "Ġsocial": 2624,
      "ĠGrand": 2625,
      "Ġgrow": 2626,
      "Ġmedal": 2627,
      "eph": 2628,
      "heast": 2629,
      "Ġfire": 2630,
      "Ġepisode": 2631,
      "ictor": 2632,
      "Ġvocals": 2633,
      "Ġmater": 2634,
      "liament": 2635,
      "Ġpoints": 2636,
      "ula": 2637,
      "amily": 2638,
      "Ġrul": 2639,
      "anted": 2640,
      "ecutive": 2641,
      "aries": 2642,
      "ĠTra": 2643,
      "Ġhuman": 2644,
      "ĠVirgin": 2645,
      "imately": 2646,
      "atri": 2647,
      "rey": 2648,
      "ĊĠĊ": 2649,
      "ilities": 2650,
      "ĠMet": 2651,
      "ĠChe": 2652,
      "Ġaver": 2653,
      "Ġhous": 2654,
      "sy": 2655,
      "oice": 2656,
      "Ġavailable": 2657,
      "icles": 2658,
      "atives": 2659,
      "Ġappointed": 2660,
      "Ġindepend": 2661,
      "Ġz": 2662,
      "New": 2663,
      "||": 2664,
      "ederal": 2665,
      "Ġmother": 2666,
      "be": 2667,
      "ĠCommun": 2668,
      "Ġelected": 2669,
      "ĠAlex": 2670,
      "stead": 2671,
      "Ġexample": 2672,
      "erry": 2673,
      "ĠCharles": 2674,
      "âĢĿ": 2675,
      "ittee": 2676,
      "ĠCentral": 2677,
      "duction": 2678,
      "Ġbelie": 2679,
      "ota": 2680,
      "ishop": 2681,
      "ĠWil": 2682,
      "ĠAcademy": 2683,
      "ĠBill": 2684,
      "Ġ1960": 2685,
      "Ġeffect": 2686,
      "Ġtoget": 2687,
      "Ġtogether": 2688,
      "Ġestablishments": 2689,
      "Ġresearch": 2690,
      "40": 2691,
      "Ġblack": 2692,
      "ĠBen": 2693,
      "Ġcontract": 2694,
      "Ġalthough": 2695,
      "ĠTor": 2696,
      "rael": 2697,
      "ĠMark": 2698,
      "Ġdoc": 2699,
      "hi": 2700,
      ",\"": 2701,
      "oys": 2702,
      "ĠCro": 2703,
      "utes": 2704,
      "iding": 2705,
      "itive": 2706,
      "Ġrecogn": 2707,
      "edy": 2708,
      "isl": 2709,
      "Ġcompanies": 2710,
      "ĠCont": 2711,
      "Ġ#": 2712,
      "ĠDepartment": 2713,
      "hood": 2714,
      "Ġacross": 2715,
      "Ġ1993": 2716,
      "inese": 2717,
      "Ġcle": 2718,
      "Sp": 2719,
      "Ġworking": 2720,
      "ands": 2721,
      "Ġbar": 2722,
      "ees": 2723,
      "iting": 2724,
      "center": 2725,
      "Ġaway": 2726,
      "ĠCarol": 2727,
      "atory": 2728,
      "Ġincludes": 2729,
      "ĠInter": 2730,
      "Ġonce": 2731,
      "ids": 2732,
      "ude": 2733,
      "ena": 2734,
      "aches": 2735,
      "Ġlow": 2736,
      "Ġoffice": 2737,
      "ĠZeal": 2738,
      "Ġbroadcast": 2739,
      "Ġdirected": 2740,
      "ceed": 2741,
      "Ġbi": 2742,
      "ores": 2743,
      "Ġstrong": 2744,
      "Ġ50": 2745,
      "eep": 2746,
      "Ġfree": 2747,
      "unt": 2748,
      "Or": 2749,
      "head": 2750,
      "ki": 2751,
      "Ġbooks": 2752,
      "Ġ1991": 2753,
      "Ġreview": 2754,
      "Ġconstruction": 2755,
      "Ġyoung": 2756,
      "ĠPet": 2757,
      "icago": 2758,
      "Ġsug": 2759,
      "Ġoriginally": 2760,
      "ethod": 2761,
      "ux": 2762,
      "Ġgoal": 2763,
      "Ġtaken": 2764,
      "ĠZealand": 2765,
      "Ġsuccessful": 2766,
      "Ġperformed": 2767,
      "Ġphot": 2768,
      "aves": 2769,
      "viron": 2770,
      "onn": 2771,
      "ĠMuseum": 2772,
      "ĠFrank": 2773,
      "ĠFrom": 2774,
      "Ġacqu": 2775,
      "ospital": 2776,
      "TV": 2777,
      "ĠPeter": 2778,
      "emor": 2779,
      "ĠAfrican": 2780,
      "ique": 2781,
      "Ġphys": 2782,
      "Ġfootballers": 2783,
      "Ġgradu": 2784,
      "ĠCamp": 2785,
      "Ġmunicipality": 2786,
      "ĠDel": 2787,
      "Ġdaughter": 2788,
      "Ġinformation": 2789,
      "fficial": 2790,
      "uild": 2791,
      "Ġreported": 2792,
      "Ġlab": 2793,
      "ĠInstitute": 2794,
      "Wh": 2795,
      "lor": 2796,
      "Ġinst": 2797,
      "color": 2798,
      "Ġlight": 2799,
      "Ġfund": 2800,
      "2006": 2801,
      "ought": 2802,
      "Ġsound": 2803,
      "gress": 2804,
      "ector": 2805,
      "arian": 2806,
      "err": 2807,
      "rel": 2808,
      "iff": 2809,
      "arter": 2810,
      "ship": 2811,
      "FF": 2812,
      "Jo": 2813,
      "ala": 2814,
      "ria": 2815,
      "ducation": 2816,
      "igned": 2817,
      "uter": 2818,
      "ware": 2819,
      "Ġfollowed": 2820,
      "ĠAfrica": 2821,
      "Ġpain": 2822,
      "Ġkilled": 2823,
      "Ġrelig": 2824,
      "ĠGames": 2825,
      "idents": 2826,
      "ĠMel": 2827,
      "Ġmonths": 2828,
      "ĠRock": 2829,
      "Ġcour": 2830,
      "Ġrace": 2831,
      "ece": 2832,
      "Ġdev": 2833,
      "Ġmust": 2834,
      "Ġeight": 2835,
      "writ": 2836,
      "ĠLake": 2837,
      "Sc": 2838,
      "jects": 2839,
      "ĠOrder": 2840,
      "Ġlaun": 2841,
      "ĠTom": 2842,
      "Ġhow": 2843,
      "Ġparty": 2844,
      "Ġ2021": 2845,
      "gen": 2846,
      "elling": 2847,
      "Ġliter": 2848,
      "Ġder": 2849,
      "ĠFlorida": 2850,
      "ĠRussian": 2851,
      "aps": 2852,
      "ĠDay": 2853,
      "oms": 2854,
      "annel": 2855,
      "chie": 2856,
      "ĠHill": 2857,
      "Ġmix": 2858,
      "Ġfeatures": 2859,
      "adium": 2860,
      "Ġassoci": 2861,
      "Ġfeatured": 2862,
      "anta": 2863,
      "tar": 2864,
      "acters": 2865,
      "ĠHam": 2866,
      "Ġaccess": 2867,
      "ential": 2868,
      "Ġ=": 2869,
      "ĠGod": 2870,
      "ranch": 2871,
      "ado": 2872,
      "Ġput": 2873,
      "ĠFilm": 2874,
      "erous": 2875,
      "ems": 2876,
      "Ġattempt": 2877,
      "ĠRichard": 2878,
      "FL": 2879,
      "ĠSummer": 2880,
      "Ġtour": 2881,
      "Ġregular": 2882,
      "ura": 2883,
      "aut": 2884,
      "ĠRob": 2885,
      "Ġshows": 2886,
      "ĠDan": 2887,
      "Ġfight": 2888,
      "ibrary": 2889,
      "Ġconduct": 2890,
      "ĠBut": 2891,
      "asc": 2892,
      "Ġcost": 2893,
      "Ġscored": 2894,
      "Ġagre": 2895,
      "enced": 2896,
      "Ġseen": 2897,
      "ĠWhite": 2898,
      "Ġdeg": 2899,
      "ateg": 2900,
      "27": 2901,
      "road": 2902,
      "Ġthroughout": 2903,
      "ylvania": 2904,
      "ĠSmith": 2905,
      "ĠLos": 2906,
      "ĠDo": 2907,
      "ĠRepublic": 2908,
      "ĠPe": 2909,
      "For": 2910,
      "Ġmaterial": 2911,
      "Ġmarket": 2912,
      "Ġbuildings": 2913,
      "Ġcapt": 2914,
      "merc": 2915,
      "iation": 2916,
      "Ġcampaign": 2917,
      "ĠâĢľ": 2918,
      "ĠLeg": 2919,
      "ability": 2920,
      "Ġeventually": 2921,
      "ĠMer": 2922,
      "Ġide": 2923,
      "ĠPlay": 2924,
      "26": 2925,
      "II": 2926,
      "Ġ40": 2927,
      "Ġcirc": 2928,
      "olk": 2929,
      "ios": 2930,
      "ĠKn": 2931,
      "Ġ31": 2932,
      "ta": 2933,
      "ĠCast": 2934,
      "incip": 2935,
      "rated": 2936,
      "Ġ1989": 2937,
      "ĠGo": 2938,
      "This": 2939,
      "Ġinj": 2940,
      "airs": 2941,
      "Ġlargest": 2942,
      "Ġentire": 2943,
      "aching": 2944,
      "ugby": 2945,
      "igan": 2946,
      "ĠSpanish": 2947,
      "Ġplan": 2948,
      "At": 2949,
      "hest": 2950,
      "aval": 2951,
      "ificant": 2952,
      "28": 2953,
      "Ġimpro": 2954,
      "ola": 2955,
      "Ġremained": 2956,
      "Ġseven": 2957,
      "ĠFore": 2958,
      "Ġ1988": 2959,
      "ĠScot": 2960,
      "mb": 2961,
      "ĠVictor": 2962,
      "Ġgave": 2963,
      "oviet": 2964,
      "Ġfinished": 2965,
      "aught": 2966,
      "serv": 2967,
      "Ġstri": 2968,
      "Ġviol": 2969,
      "2000": 2970,
      "Ġyou": 2971,
      "FA": 2972,
      "Ġaverage": 2973,
      "vironment": 2974,
      "overnor": 2975,
      "Ã¤": 2976,
      "Ġperformance": 2977,
      "Ġtre": 2978,
      "nder": 2979,
      "mon": 2980,
      "Ġreplaced": 2981,
      "Ġfront": 2982,
      "ĠIm": 2983,
      "Ġ(\"": 2984,
      "ĠHistory": 2985,
      "och": 2986,
      "Ġstage": 2987,
      "ĠHistor": 2988,
      "Ġkey": 2989,
      "Ġ185": 2990,
      "Ġintroduced": 2991,
      "Ġwinn": 2992,
      "Ġdam": 2993,
      "Ġmodel": 2994,
      "utch": 2995,
      "km": 2996,
      "ĠForce": 2997,
      "Ġpast": 2998,
      "ĠChicago": 2999,
      "Ġmount": 3000,
      "Ġpress": 3001,
      "ĠKore": 3002,
      "Ġill": 3003,
      "Ġsil": 3004,
      "Ġforces": 3005,
      "ĠApp": 3006,
      "ĠSecond": 3007,
      "sylvania": 3008,
      "Ġproble": 3009,
      "ĠWin": 3010,
      "cer": 3011,
      "Ġtraining": 3012,
      "ites": 3013,
      "kn": 3014,
      "Ġeither": 3015,
      "ĠIll": 3016,
      "ĠMass": 3017,
      "Ġdesigned": 3018,
      "Ġconsist": 3019,
      "Ge": 3020,
      "oma": 3021,
      "cher": 3022,
      "anks": 3023,
      "Ġfoc": 3024,
      "ufact": 3025,
      "Ġtransfer": 3026,
      "Ġgold": 3027,
      "ĠBur": 3028,
      "Ġanal": 3029,
      "Ġ2022": 3030,
      "ĠBrown": 3031,
      "English": 3032,
      "Ġchampionship": 3033,
      "Ġ1987": 3034,
      "Ġsubsequ": 3035,
      "Ġpark": 3036,
      "ĠHenry": 3037,
      "Ġ:": 3038,
      "Ġsignificant": 3039,
      ".)": 3040,
      "ĠCons": 3041,
      "List": 3042,
      "Ġtransl": 3043,
      "29": 3044,
      "ĠGeorg": 3045,
      "Ġaircraft": 3046,
      "Ġleading": 3047,
      "oo": 3048,
      "ĠIsrael": 3049,
      "Ġwid": 3050,
      "SA": 3051,
      "Ġbirth": 3052,
      "ĠVirginia": 3053,
      "ĠSuper": 3054,
      "Ġroute": 3055,
      "Ġsuggest": 3056,
      "Ġinvolved": 3057,
      "istan": 3058,
      "Ġcivil": 3059,
      "Ġusually": 3060,
      "yr": 3061,
      "vert": 3062,
      "ĠChinese": 3063,
      "Ġwhite": 3064,
      "order": 3065,
      "Ġ1986": 3066,
      "Ind": 3067,
      "ĠAngeles": 3068,
      "iro": 3069,
      "unn": 3070,
      "ĠSqu": 3071,
      "ĠMr": 3072,
      "Ġboard": 3073,
      "atin": 3074,
      "imate": 3075,
      "ĠDirect": 3076,
      "Ġabove": 3077,
      "Ġsem": 3078,
      "arth": 3079,
      "Ġsinger": 3080,
      "osing": 3081,
      "gcolor": 3082,
      "ĠSaint": 3083,
      "Ġdou": 3084,
      "Rec": 3085,
      "Ġadded": 3086,
      "Ġprivate": 3087,
      "ĠMus": 3088,
      "ĠMinister": 3089,
      "Ġable": 3090,
      "Ġcollege": 3091,
      "Ġartists": 3092,
      "Ġhom": 3093,
      "Ġrange": 3094,
      "190": 3095,
      "ĠDes": 3096,
      "uture": 3097,
      "Ġaud": 3098,
      "Ġcharacters": 3099,
      "ĠEmp": 3100,
      "Ġsen": 3101,
      "...": 3102,
      "Åį": 3103,
      "icy": 3104,
      "\")": 3105,
      "medi": 3106,
      "ĠFr": 3107,
      "Ġdram": 3108,
      "ersey": 3109,
      "Ġcourt": 3110,
      "Ġ1984": 3111,
      "razil": 3112,
      "idge": 3113,
      "za": 3114,
      "Ġwriter": 3115,
      "ulated": 3116,
      "Ġjournal": 3117,
      "Ġtreat": 3118,
      "Ġneigh": 3119,
      "ource": 3120,
      "ving": 3121,
      "60": 3122,
      "ĠItaly": 3123,
      "ĠPennsylvania": 3124,
      "atal": 3125,
      "Early": 3126,
      "Ġrank": 3127,
      "asing": 3128,
      "inct": 3129,
      "ĠMil": 3130,
      "Ġawarded": 3131,
      "mercial": 3132,
      "Ġstudy": 3133,
      "uns": 3134,
      "well": 3135,
      "Ġwriters": 3136,
      "Ġupon": 3137,
      "idae": 3138,
      "Ġclose": 3139,
      "ender": 3140,
      "Ġjud": 3141,
      "Ġnight": 3142,
      "ĠStev": 3143,
      "lam": 3144,
      "ĠParis": 3145,
      "Ġrespons": 3146,
      "Ġhealth": 3147,
      "iano": 3148,
      "Notes": 3149,
      "agon": 3150,
      "icated": 3151,
      "rought": 3152,
      "iÄ": 3153,
      "Ġbasketball": 3154,
      "ĠWales": 3155,
      "Ġpur": 3156,
      "ĠJust": 3157,
      "ĠGre": 3158,
      "Ġpos": 3159,
      "ises": 3160,
      "ĠLove": 3161,
      "ĠSwed": 3162,
      "Ġconv": 3163,
      "ires": 3164,
      "Ġchange": 3165,
      "Ġap": 3166,
      "Ġpolitician": 3167,
      "ĠCongress": 3168,
      "eated": 3169,
      "AR": 3170,
      "lim": 3171,
      "fic": 3172,
      "Ġrights": 3173,
      "Ġlearn": 3174,
      "Ġsaw": 3175,
      "ĠAtl": 3176,
      "Ġ1985": 3177,
      "ĠStar": 3178,
      "Ġste": 3179,
      "Ġser": 3180,
      "Ġarchitect": 3181,
      "Ġcompos": 3182,
      "rial": 3183,
      "sel": 3184,
      "oke": 3185,
      "hold": 3186,
      "read": 3187,
      "Ġtravel": 3188,
      "Ġactress": 3189,
      "Ġstaff": 3190,
      "aying": 3191,
      "face": 3192,
      "Ġcy": 3193,
      "Ġcop": 3194,
      "ĠOld": 3195,
      "ked": 3196,
      "min": 3197,
      "ĠOh": 3198,
      "porary": 3199,
      "ita": 3200,
      "arily": 3201,
      "Ġbgcolor": 3202,
      "ĠSome": 3203,
      "la": 3204,
      "ĠWhile": 3205,
      "Ġmedia": 3206,
      "Ġchanged": 3207,
      "ella": 3208,
      "Ġdiscover": 3209,
      "istics": 3210,
      "Ġ1950": 3211,
      "bur": 3212,
      "hire": 3213,
      "ĠMa": 3214,
      "ĠEv": 3215,
      "urity": 3216,
      "oring": 3217,
      "Ġmer": 3218,
      "Ġpoet": 3219,
      "Ġprovided": 3220,
      "Ġreached": 3221,
      "2007": 3222,
      "Ġcurrently": 3223,
      "Ġmanager": 3224,
      "uke": 3225,
      "Ġmean": 3226,
      "board": 3227,
      "Ġcentral": 3228,
      "umm": 3229,
      "ĠAnn": 3230,
      "ams": 3231,
      "Ġfemale": 3232,
      "Ġ1983": 3233,
      "Ġleast": 3234,
      "azz": 3235,
      "ds": 3236,
      "gent": 3237,
      "ĠTurk": 3238,
      "atriate": 3239,
      "den": 3240,
      "overs": 3241,
      "Ġfig": 3242,
      "Ġqual": 3243,
      "Ġgoals": 3244,
      "Ġpolice": 3245,
      "erve": 3246,
      "ĠArts": 3247,
      "oute": 3248,
      "Ġhit": 3249,
      "Ġriver": 3250,
      "ĠDemocr": 3251,
      "ĠColumb": 3252,
      "Ġcenter": 3253,
      "antic": 3254,
      "ply": 3255,
      "ĠEr": 3256,
      "people": 3257,
      "Ġrailway": 3258,
      "Ġsch": 3259,
      "Ġstates": 3260,
      "Ġ184": 3261,
      "ctor": 3262,
      "enth": 3263,
      "ĠNorthern": 3264,
      "elt": 3265,
      "ĠSir": 3266,
      "stant": 3267,
      "Bl": 3268,
      "Ġcountries": 3269,
      "ĠCommission": 3270,
      "Ġvia": 3271,
      "ĠMur": 3272,
      "Ġsection": 3273,
      "eds": 3274,
      "Ġloss": 3275,
      "Ġclosed": 3276,
      "pts": 3277,
      "ĠClass": 3278,
      "Ġmusical": 3279,
      "Gen": 3280,
      "ĠIrish": 3281,
      "ongs": 3282,
      "Ġparts": 3283,
      "inals": 3284,
      "Ġfav": 3285,
      "189": 3286,
      "Ġ1982": 3287,
      "De": 3288,
      "ĠPublic": 3289,
      "Ġ1979": 3290,
      "Ġdestroy": 3291,
      "Ġmur": 3292,
      "band": 3293,
      "Ġcompetition": 3294,
      "Ġreb": 3295,
      "NA": 3296,
      "rup": 3297,
      "ky": 3298,
      "known": 3299,
      "Ġachie": 3300,
      "Ġexpress": 3301,
      "ometimes": 3302,
      "hab": 3303,
      "Ġtype": 3304,
      "Ġche": 3305,
      "Ġsex": 3306,
      "Ġaction": 3307,
      "Ġoccup": 3308,
      "venue": 3309,
      ");": 3310,
      "BA": 3311,
      "sych": 3312,
      "Ġking": 3313,
      "Le": 3314,
      "Ġwind": 3315,
      "Ġgirl": 3316,
      "Ġproducer": 3317,
      "ultural": 3318,
      "ients": 3319,
      "shire": 3320,
      "iana": 3321,
      "Ġinstead": 3322,
      "ĠMexico": 3323,
      "Ġfourth": 3324,
      "iences": 3325,
      "Ġwinning": 3326,
      "Ġsingles": 3327,
      "Ġlower": 3328,
      "ĠSoviet": 3329,
      "Ġdecl": 3330,
      "Ġtourn": 3331,
      "rad": 3332,
      "Ġresults": 3333,
      "iqu": 3334,
      "Ġoccur": 3335,
      "80": 3336,
      "ether": 3337,
      "ends": 3338,
      "Ad": 3339,
      "like": 3340,
      "ĠMill": 3341,
      "ĠOther": 3342,
      "ength": 3343,
      "Ġsouthern": 3344,
      "ĠWood": 3345,
      "Ġdecided": 3346,
      "Ġoutside": 3347,
      "ĠIts": 3348,
      "Ġknow": 3349,
      "Ġcritic": 3350,
      "Ġspace": 3351,
      "stra": 3352,
      "Ġfall": 3353,
      "ĠCarolina": 3354,
      "ette": 3355,
      "ption": 3356,
      "ĠSur": 3357,
      "ĠJim": 3358,
      "ensus": 3359,
      "ĠRh": 3360,
      "Ġdocument": 3361,
      "ĠPre": 3362,
      "Ġruns": 3363,
      "ĠKh": 3364,
      "Ġdata": 3365,
      "ĠÂ": 3366,
      "Ġpurch": 3367,
      "Ġprimary": 3368,
      "Ġdeal": 3369,
      "ĠTwo": 3370,
      "Ġplant": 3371,
      "Ġnorthern": 3372,
      "usp": 3373,
      "Ġmanufact": 3374,
      "bl": 3375,
      "Ġrespect": 3376,
      "During": 3377,
      "Ġnetwork": 3378,
      "Ġplaced": 3379,
      "ĠOper": 3380,
      "Ġseasons": 3381,
      "Ġ1981": 3382,
      "Ġactor": 3383,
      "ca": 3384,
      "Ġartist": 3385,
      "There": 3386,
      "Ã³n": 3387,
      "Ġ1976": 3388,
      "stitution": 3389,
      "Ġbass": 3390,
      "Ġwhose": 3391,
      "ribution": 3392,
      "Ġbrought": 3393,
      "Ġcut": 3394,
      "2005": 3395,
      "ĠNavy": 3396,
      "ĠParliament": 3397,
      "Ph": 3398,
      "ero": 3399,
      "Ġmethod": 3400,
      "ĠOff": 3401,
      "Ġplaces": 3402,
      "ĠService": 3403,
      "ils": 3404,
      "Ġrelationship": 3405,
      "ĠPan": 3406,
      "Ġfrequ": 3407,
      "Ġprovide": 3408,
      "Ġrather": 3409,
      "ension": 3410,
      "Ġparen": 3411,
      "ĠCD": 3412,
      "ww": 3413,
      "orse": 3414,
      "ĠMod": 3415,
      "Ã¨": 3416,
      "ua": 3417,
      "Ġpot": 3418,
      "Ġwood": 3419,
      "ye": 3420,
      "Ġfar": 3421,
      "Ġ1972": 3422,
      "Ġnatural": 3423,
      "Ġ1974": 3424,
      "Ġmass": 3425,
      "Ġalmost": 3426,
      "ĠHon": 3427,
      "ĠJack": 3428,
      "Ġapprox": 3429,
      "Ġstated": 3430,
      "ato": 3431,
      "Ġreve": 3432,
      "ulture": 3433,
      "ĠOut": 3434,
      "Ġesc": 3435,
      "ĠRadio": 3436,
      "Ġpred": 3437,
      "Ġpreviously": 3438,
      "Ġhard": 3439,
      "Ġaccept": 3440,
      "ĠDen": 3441,
      "Ġfarm": 3442,
      "with": 3443,
      "Ġunits": 3444,
      "ati": 3445,
      "ĠPo": 3446,
      "based": 3447,
      "illa": 3448,
      "embly": 3449,
      "Ġ1978": 3450,
      "ĠValley": 3451,
      "ollowing": 3452,
      "Ġowned": 3453,
      "ecially": 3454,
      "Ġplann": 3455,
      "ĠSil": 3456,
      "ĠFestival": 3457,
      "Ġtax": 3458,
      "ĠJersey": 3459,
      "Ġarg": 3460,
      "owers": 3461,
      "Ġcoast": 3462,
      "isco": 3463,
      "cient": 3464,
      "ned": 3465,
      "ĠFort": 3466,
      "Ġpers": 3467,
      "Ġcreat": 3468,
      "ulty": 3469,
      "Person": 3470,
      "Ġattended": 3471,
      "Ġstudio": 3472,
      "reme": 3473,
      "Ġesp": 3474,
      "Ġmultip": 3475,
      "ider": 3476,
      "ĠĠĠĠĠĠĠĠ": 3477,
      "Ġoperations": 3478,
      "John": 3479,
      "Ġcou": 3480,
      "ĠEmpire": 3481,
      "unior": 3482,
      "ened": 3483,
      "ription": 3484,
      "Ġimm": 3485,
      "ĠSeries": 3486,
      "uments": 3487,
      "Ġbank": 3488,
      "Ġmeas": 3489,
      "ests": 3490,
      "ĠTechn": 3491,
      "Ġedition": 3492,
      "Ġfif": 3493,
      "ĠOl": 3494,
      "Ġball": 3495,
      "Ġcontribut": 3496,
      "ĠArab": 3497,
      "ingu": 3498,
      "ergy": 3499,
      "ĠScience": 3500,
      "ĠStr": 3501,
      "Ġmagazine": 3502,
      "Ġsystems": 3503,
      "inent": 3504,
      "ums": 3505,
      "Ġdefeated": 3506,
      "35": 3507,
      "ĠJoseph": 3508,
      "ĠRos": 3509,
      "Ġcred": 3510,
      "Ġstop": 3511,
      "Ġculture": 3512,
      "elled": 3513,
      "ao": 3514,
      "Ġitself": 3515,
      "Ġgrand": 3516,
      "orpor": 3517,
      "Mar": 3518,
      "Ġveh": 3519,
      "Ġsyn": 3520,
      "Ġprison": 3521,
      "Ġminor": 3522,
      "ror": 3523,
      "ĠChampionships": 3524,
      "gl": 3525,
      "Ġbehind": 3526,
      "Ġforce": 3527,
      "ĠOhio": 3528,
      "ien": 3529,
      "Films": 3530,
      "lements": 3531,
      "change": 3532,
      "wer": 3533,
      "Ġnewsp": 3534,
      "Ġpossible": 3535,
      "ĠTimes": 3536,
      "alled": 3537,
      "Ġisland": 3538,
      "Ġtransport": 3539,
      "eff": 3540,
      "ĠMos": 3541,
      "Ġant": 3542,
      "andid": 3543,
      "Ġdivision": 3544,
      "clus": 3545,
      "Ġlik": 3546,
      "Ġever": 3547,
      "ĠBob": 3548,
      "Ġcollect": 3549,
      "ĠHow": 3550,
      "ĠBrazil": 3551,
      "Ġcapital": 3552,
      "Ġ1977": 3553,
      "Ġcare": 3554,
      "Ġterrit": 3555,
      "urt": 3556,
      "CC": 3557,
      "ĠHot": 3558,
      "mond": 3559,
      "Ġbeginning": 3560,
      "Ġscience": 3561,
      "ĠTour": 3562,
      "Can": 3563,
      "ĠFound": 3564,
      "Ġsoon": 3565,
      "2004": 3566,
      "inois": 3567,
      "Ġallowed": 3568,
      "Ġprem": 3569,
      "ĠAccording": 3570,
      "Ġprincip": 3571,
      "ĠOf": 3572,
      "ĠGar": 3573,
      "Ġended": 3574,
      "Ġdefeat": 3575,
      "ĠBattle": 3576,
      "Ġhockey": 3577,
      "ift": 3578,
      "ricket": 3579,
      "imb": 3580,
      "ĠMartin": 3581,
      "Ġsummer": 3582,
      "ĠTro": 3583,
      "ĠGovernment": 3584,
      "Ġorganiz": 3585,
      "Ġregard": 3586,
      "iography": 3587,
      "Ġclos": 3588,
      "Ġactive": 3589,
      "Ġwhom": 3590,
      "Ġdegree": 3591,
      "Ġ1975": 3592,
      "Ġcollection": 3593,
      "Ġhigher": 3594,
      "ĠEducation": 3595,
      "Ġlisted": 3596,
      "alc": 3597,
      "ĠMost": 3598,
      "Ġsuper": 3599,
      "ĠAv": 3600,
      "ounter": 3601,
      "Ġmovement": 3602,
      "awa": 3603,
      "ulations": 3604,
      "uty": 3605,
      "bury": 3606,
      "Ġliving": 3607,
      "Äģ": 3608,
      "Ġneg": 3609,
      "Other": 3610,
      "Ġreading": 3611,
      "Ġadditional": 3612,
      "Ġ1968": 3613,
      "Ġbattle": 3614,
      "ros": 3615,
      "Ġbox": 3616,
      "iety": 3617,
      "anced": 3618,
      "Ġcommercial": 3619,
      "ĠBus": 3620,
      "lying": 3621,
      "ĠDi": 3622,
      "iÄĩ": 3623,
      "ĠLine": 3624,
      "ĠLife": 3625,
      "Ġcele": 3626,
      "Ġ1973": 3627,
      "Ġcomplet": 3628,
      "ampion": 3629,
      "ĠHaw": 3630,
      "oir": 3631,
      "Ġleader": 3632,
      "Ġanti": 3633,
      "itiz": 3634,
      "ĠAwards": 3635,
      "ĠCommittee": 3636,
      "ecess": 3637,
      "Col": 3638,
      "Ġorganization": 3639,
      "Con": 3640,
      "aring": 3641,
      "Ġappearance": 3642,
      "Ġben": 3643,
      "ĠLong": 3644,
      "retary": 3645,
      "inary": 3646,
      "pped": 3647,
      "Ġnews": 3648,
      "Ġlet": 3649,
      "ĠUp": 3650,
      "ĠSer": 3651,
      "isions": 3652,
      "ĠGreek": 3653,
      "Ġbreak": 3654,
      "ĠSpain": 3655,
      "70": 3656,
      "Ġindustry": 3657,
      "lier": 3658,
      "Ġexcept": 3659,
      "Ġshot": 3660,
      "ecial": 3661,
      "ĠKent": 3662,
      "Ġstudent": 3663,
      "ĠBig": 3664,
      "All": 3665,
      "rown": 3666,
      "Ġindependent": 3667,
      "ĠFre": 3668,
      "Ġtoo": 3669,
      "Ġnames": 3670,
      "ĠĊĊ": 3671,
      "ĠNews": 3672,
      "uffer": 3673,
      "Ġwriting": 3674,
      "ĠPac": 3675,
      "Ġstructure": 3676,
      "Te": 3677,
      "Ġacadem": 3678,
      "Ġfood": 3679,
      "Ġspent": 3680,
      "ĠLand": 3681,
      "win": 3682,
      "Ġ1971": 3683,
      "ĠBase": 3684,
      "Ġremov": 3685,
      "Ġlittle": 3686,
      "Ġlocation": 3687,
      "aled": 3688,
      "ĠMin": 3689,
      "Ġmeans": 3690,
      "ĠInc": 3691,
      "Ġ1969": 3692,
      "Ġbur": 3693,
      "ancial": 3694,
      "Ġlook": 3695,
      "ĠDou": 3696,
      "Ġschol": 3697,
      "oston": 3698,
      "Ġscore": 3699,
      "ĠScotland": 3700,
      "Ġkeep": 3701,
      "alities": 3702,
      "ĠDev": 3703,
      "state": 3704,
      "Ġcanc": 3705,
      "Ġcome": 3706,
      "Ġespecially": 3707,
      "Ġunit": 3708,
      "ĠFred": 3709,
      "Ġtraditional": 3710,
      "Ġscient": 3711,
      "adel": 3712,
      "mark": 3713,
      "Ġinsp": 3714,
      "ĠSar": 3715,
      "Ġcontains": 3716,
      "Ġquest": 3717,
      "ĠSa": 3718,
      "ĠCarl": 3719,
      "Ġdraw": 3720,
      "ansas": 3721,
      "Ġsurround": 3722,
      "Career": 3723,
      "ĠSub": 3724,
      "Ġnomin": 3725,
      "Ġcomplex": 3726,
      "ĠIllinois": 3727,
      "ĠSouthern": 3728,
      "track": 3729,
      "Ġself": 3730,
      "Ġclubs": 3731,
      "ĠRussia": 3732,
      "Ġobserv": 3733,
      "ĠBroad": 3734,
      "Ġran": 3735,
      "Am": 3736,
      "left": 3737,
      "itors": 3738,
      "ĠDef": 3739,
      "ĠFin": 3740,
      "ĠRailway": 3741,
      "Ġinvestig": 3742,
      "Ġfuture": 3743,
      "ublican": 3744,
      "Ġmission": 3745,
      "arden": 3746,
      "wan": 3747,
      "ook": 3748,
      "ĠCross": 3749,
      "ĠBoard": 3750,
      "ĠTer": 3751,
      "etts": 3752,
      "Ġden": 3753,
      "ĠAp": 3754,
      "add": 3755,
      "Ġtowards": 3756,
      "ora": 3757,
      "ĠEc": 3758,
      "Ġpay": 3759,
      "ĠIII": 3760,
      "Ġnar": 3761,
      "Ġaccording": 3762,
      "rief": 3763,
      "igital": 3764,
      "ĠTheatre": 3765,
      "ĠAlthough": 3766,
      "ĠAre": 3767,
      "Ġtaking": 3768,
      "ĠGall": 3769,
      "ĠHel": 3770,
      "ĠBul": 3771,
      "Ġrunning": 3772,
      "rative": 3773,
      "inated": 3774,
      "Ġdu": 3775,
      "Ġsometimes": 3776,
      "echan": 3777,
      "Ġuses": 3778,
      "burgh": 3779,
      "ali": 3780,
      "Ġhighest": 3781,
      "Ġvictory": 3782,
      "ĠBritain": 3783,
      "Ġrequired": 3784,
      "ny": 3785,
      "Ġgener": 3786,
      "Ġcentre": 3787,
      "ĠLord": 3788,
      "Ġmention": 3789,
      "ĠRoute": 3790,
      "icro": 3791,
      "ready": 3792,
      "anda": 3793,
      "oid": 3794,
      "asy": 3795,
      "iginal": 3796,
      "ĠOx": 3797,
      "ĠJud": 3798,
      "ĠHa": 3799,
      "Ġprograms": 3800,
      "ĠAlb": 3801,
      "Ġpractice": 3802,
      "ĠProvince": 3803,
      "Ġopening": 3804,
      "ĠBook": 3805,
      "Ġmove": 3806,
      "2003": 3807,
      "kins": 3808,
      "Ġexhib": 3809,
      "Ġearlier": 3810,
      "Ġrate": 3811,
      "Ġ1967": 3812,
      "atform": 3813,
      "Ġgenerally": 3814,
      "Ġscreen": 3815,
      "Ġphil": 3816,
      "Ġthus": 3817,
      "ĠGeorgia": 3818,
      "ibility": 3819,
      "Ġdisp": 3820,
      "Ġoperated": 3821,
      "alle": 3822,
      "Ġstandard": 3823,
      "Ġwoman": 3824,
      "irm": 3825,
      "Ġmoney": 3826,
      "FC": 3827,
      "Ġlived": 3828,
      "gar": 3829,
      "Å¡": 3830,
      "Ġapproximately": 3831,
      "Ġassociation": 3832,
      "ĠJewish": 3833,
      "Ġsoft": 3834,
      "bon": 3835,
      "Ġdeterm": 3836,
      "Ġcertain": 3837,
      "Ġforest": 3838,
      "Ġarran": 3839,
      "Ġtrain": 3840,
      "2002": 3841,
      "down": 3842,
      "Ġconcern": 3843,
      "rav": 3844,
      "Ġrelated": 3845,
      "Ġarmy": 3846,
      "bb": 3847,
      "irit": 3848,
      "Ġsusp": 3849,
      "Ġ1964": 3850,
      "Ġactors": 3851,
      "Ġtournament": 3852,
      "ĠConn": 3853,
      "ĠMain": 3854,
      "oral": 3855,
      "yan": 3856,
      "ĠBow": 3857,
      "33": 3858,
      "NE": 3859,
      "Ġcandid": 3860,
      "uan": 3861,
      "action": 3862,
      "Ġtracks": 3863,
      "ĠMichigan": 3864,
      "Ġelev": 3865,
      "Ġappearances": 3866,
      "etic": 3867,
      "ections": 3868,
      "ĠCivil": 3869,
      "ĠSun": 3870,
      "ugg": 3871,
      "ĠJones": 3872,
      "king": 3873,
      "ĠSte": 3874,
      "Ġfamous": 3875,
      "oper": 3876,
      "Ġequip": 3877,
      "Ġ1966": 3878,
      "arriage": 3879,
      "ĠStep": 3880,
      "ĠEngine": 3881,
      "rying": 3882,
      "Ġlove": 3883,
      "Ġprior": 3884,
      "Ġattract": 3885,
      "Ġbig": 3886,
      "Ġnumerous": 3887,
      "Ġsuffer": 3888,
      "ĠMiddle": 3889,
      "acher": 3890,
      "ĠLee": 3891,
      "Ġindic": 3892,
      "Ġadop": 3893,
      "ucle": 3894,
      "ĠTri": 3895,
      "house": 3896,
      "Ġ1945": 3897,
      "ĠThat": 3898,
      "45": 3899,
      "Ġretired": 3900,
      "achus": 3901,
      "Ġissues": 3902,
      "ĠYoung": 3903,
      "org": 3904,
      "ĠSo": 3905,
      "90": 3906,
      "aters": 3907,
      "Ġge": 3908,
      "ĠOver": 3909,
      "attal": 3910,
      "ulf": 3911,
      "standing": 3912,
      "ken": 3913,
      "emporary": 3914,
      "iled": 3915,
      "Ġmurder": 3916,
      "Ġappears": 3917,
      "iform": 3918,
      "ĠWeb": 3919,
      "Ġpromot": 3920,
      "AS": 3921,
      "Ġven": 3922,
      "Ġrad": 3923,
      "Ġfootballer": 3924,
      "ĠBank": 3925,
      "Ġwestern": 3926,
      "Ġchief": 3927,
      "abb": 3928,
      "Ġcommission": 3929,
      "ĠProfess": 3930,
      "ears": 3931,
      "ĠBre": 3932,
      "ĠBlue": 3933,
      "Ġpen": 3934,
      "ĠSol": 3935,
      "ĠPrem": 3936,
      "Se": 3937,
      "Ġdiffic": 3938,
      "ify": 3939,
      "Ġinterview": 3940,
      "37": 3941,
      "ĠPak": 3942,
      "Ġmatches": 3943,
      "Ġactivities": 3944,
      "Ġ1940": 3945,
      "ĠDutch": 3946,
      "Ġnoted": 3947,
      "Ġremains": 3948,
      "Ġmonth": 3949,
      "Ġassociated": 3950,
      "ĠMah": 3951,
      "emorial": 3952,
      "oe": 3953,
      "Ġreligious": 3954,
      "ping": 3955,
      "Ġsat": 3956,
      "Ġmostly": 3957,
      "ĠAvenue": 3958,
      "2001": 3959,
      "Ġdate": 3960,
      "Ġjob": 3961,
      "ĠInt": 3962,
      "ih": 3963,
      "Ġinstr": 3964,
      "Ġabs": 3965,
      "velopment": 3966,
      "Ġprof": 3967,
      "Aust": 3968,
      "Ġcomplete": 3969,
      "ĠÐ": 3970,
      "Ġbecoming": 3971,
      "Ġsaf": 3972,
      "Ġ1965": 3973,
      "iga": 3974,
      "het": 3975,
      "Ġeditor": 3976,
      "Ġ1930": 3977,
      "Ġrecording": 3978,
      "Ġstudies": 3979,
      "ima": 3980,
      "aka": 3981,
      "Ġpi": 3982,
      "Ġbaseball": 3983,
      "eeks": 3984,
      "Ġfeature": 3985,
      "ĠCam": 3986,
      "Ġdon": 3987,
      "Ġenvironment": 3988,
      "Ġtrade": 3989,
      "ĠScottish": 3990,
      "umber": 3991,
      "2008": 3992,
      "Ġpurp": 3993,
      "Ġstatus": 3994,
      "188": 3995,
      "38": 3996,
      "Ġtrib": 3997,
      "Ġcourse": 3998,
      "isher": 3999,
      "irt": 4000,
      "ĠChief": 4001,
      "ias": 4002,
      "ĠEdward": 4003,
      "achusetts": 4004,
      "ĠSystem": 4005,
      "Ġchanges": 4006,
      "ĠCle": 4007,
      "iger": 4008,
      "ko": 4009,
      "iant": 4010,
      "Med": 4011,
      "36": 4012,
      "Ġoccas": 4013,
      "Ġemer": 4014,
      "Ġens": 4015,
      "itation": 4016,
      "Ġalready": 4017,
      "ĠMcC": 4018,
      "Ġsquad": 4019,
      "Ġlimited": 4020,
      "ĠMot": 4021,
      "Ġsubject": 4022,
      "Ġtext": 4023,
      "Ġlength": 4024,
      "ols": 4025,
      "ĠMatt": 4026,
      "airman": 4027,
      "Ġtakes": 4028,
      "ĠQueen": 4029,
      "Ġcust": 4030,
      "Ġproperty": 4031,
      "ipl": 4032,
      "Ġtowns": 4033,
      "ira": 4034,
      "ares": 4035,
      "vention": 4036,
      "Ġcaused": 4037,
      "language": 4038,
      "ĠMinn": 4039,
      "ĠNot": 4040,
      "Ġofficer": 4041,
      "34": 4042,
      "ĠTeam": 4043,
      "ĠJul": 4044,
      "Ġsister": 4045,
      "ĠBas": 4046,
      "ĠGirl": 4047,
      "Ġrecords": 4048,
      "ĠGood": 4049,
      "Ġhot": 4050,
      "ĠCamb": 4051,
      "Ġarm": 4052,
      "ĠColumbia": 4053,
      "Ġprob": 4054,
      "Ġincreased": 4055,
      "urban": 4056,
      "ading": 4057,
      "war": 4058,
      "Ġsenior": 4059,
      "ĠTim": 4060,
      "Ġthought": 4061,
      "Ã§": 4062,
      "ĠWild": 4063,
      "ĠFrancisco": 4064,
      "ru": 4065,
      "ĠLittle": 4066,
      "Ġaltern": 4067,
      "Ġinstitut": 4068,
      "Ġrepresented": 4069,
      "Ġ60": 4070,
      "ĠTime": 4071,
      "ails": 4072,
      "Ġer": 4073,
      "ective": 4074,
      "agn": 4075,
      "Ġord": 4076,
      "Ġimmedi": 4077,
      "Ġapplic": 4078,
      "Ġdise": 4079,
      "Ġmanagement": 4080,
      "Ġissue": 4081,
      "phy": 4082,
      "ĠMat": 4083,
      "RA": 4084,
      "Ġbetter": 4085,
      "Ġannual": 4086,
      "Ġfocus": 4087,
      "Ġlines": 4088,
      "Ġlaunched": 4089,
      "Ġleaving": 4090,
      "Ġsom": 4091,
      "Ġsize": 4092,
      "Ġmajority": 4093,
      "aya": 4094,
      "ĠMid": 4095,
      "ĠSat": 4096,
      "2010": 4097,
      "ĠRepresent": 4098,
      "Ġkm": 4099,
      "\"|": 4100,
      "Ġhum": 4101,
      "ĠPrince": 4102,
      "Ġcounty": 4103,
      "IS": 4104,
      "Ġexc": 4105,
      "ennis": 4106,
      "ĠCoast": 4107,
      "ĠInf": 4108,
      "Ġded": 4109,
      "Brit": 4110,
      "Ġcommand": 4111,
      "ĠPortug": 4112,
      "ĠMP": 4113,
      "1990": 4114,
      "arters": 4115,
      "ela": 4116,
      "occer": 4117,
      "Ġforced": 4118,
      "antry": 4119,
      "Ġdom": 4120,
      "39": 4121,
      "ĠCreek": 4122,
      "Ġquarter": 4123,
      "Ġinitially": 4124,
      "Ġterms": 4125,
      "ĠBet": 4126,
      "illy": 4127,
      "ĠWomen": 4128,
      "ĠAdm": 4129,
      "ĠEastern": 4130,
      "Ġlegal": 4131,
      "Ġword": 4132,
      "Ġserving": 4133,
      "tained": 4134,
      "Ġtar": 4135,
      "uge": 4136,
      "aded": 4137,
      "ĠLiber": 4138,
      "ĠTem": 4139,
      "ĠOk": 4140,
      "Ġgive": 4141,
      "Ġsequ": 4142,
      "Men": 4143,
      "Ġhistorical": 4144,
      "Ġselected": 4145,
      "isation": 4146,
      "ĠBoston": 4147,
      "ĠSince": 4148,
      "espite": 4149,
      "Ġsu": 4150,
      "ervation": 4151,
      "ĠDar": 4152,
      "ĠMen": 4153,
      "ĠGal": 4154,
      "Ġ2023": 4155,
      "Ġshown": 4156,
      "Comp": 4157,
      "ĠWilliams": 4158,
      "Ġcases": 4159,
      "ĠMassachusetts": 4160,
      "Ġice": 4161,
      "Ġplays": 4162,
      "Ġnine": 4163,
      "Ġstructures": 4164,
      "iy": 4165,
      "Ġentered": 4166,
      "Ġbridge": 4167,
      "ication": 4168,
      "Ġdecision": 4169,
      "Ġuniversity": 4170,
      "aily": 4171,
      "Ġlonger": 4172,
      "een": 4173,
      "Ġwide": 4174,
      "ĠWind": 4175,
      "ja": 4176,
      "Sports": 4177,
      "Ġfederal": 4178,
      "United": 4179,
      "onse": 4180,
      "Ġpersonal": 4181,
      "Ġbelow": 4182,
      "erem": 4183,
      "ĠCard": 4184,
      "adelph": 4185,
      "Ġlic": 4186,
      "Ġremain": 4187,
      "nes": 4188,
      "Ġlack": 4189,
      "raf": 4190,
      "wa": 4191,
      "isk": 4192,
      "BS": 4193,
      "Ġpil": 4194,
      "ĠIslam": 4195,
      "ĠStation": 4196,
      "ĠResearch": 4197,
      "va": 4198,
      "ortun": 4199,
      "Music": 4200,
      "rants": 4201,
      "Ġmultiple": 4202,
      "Ġcolon": 4203,
      "Ġreferred": 4204,
      "Ġgoing": 4205,
      "iance": 4206,
      "press": 4207,
      "Ġ1920": 4208,
      "ysis": 4209,
      "ĠLab": 4210,
      "ĠHung": 4211,
      "ĠLuc": 4212,
      "Char": 4213,
      "ĠAsia": 4214,
      "Ġpassed": 4215,
      "ĠConference": 4216,
      "Ġtoday": 4217,
      "Trans": 4218,
      "inem": 4219,
      "Ġdesp": 4220,
      "rich": 4221,
      "1999": 4222,
      "ession": 4223,
      "ii": 4224,
      "adelphia": 4225,
      "iring": 4226,
      "rac": 4227,
      "ĠEll": 4228,
      "Ġroom": 4229,
      "75": 4230,
      "ĠWay": 4231,
      "Ġsubsequently": 4232,
      "2009": 4233,
      "edd": 4234,
      "ĠCentre": 4235,
      "ĠBern": 4236,
      "plement": 4237,
      "AA": 4238,
      "ĠNight": 4239,
      "ĠUnder": 4240,
      "Ġcell": 4241,
      "mm": 4242,
      "ĠJr": 4243,
      "ĠWal": 4244,
      "Ġ1963": 4245,
      "ĠDie": 4246,
      "rim": 4247,
      "town": 4248,
      "Ġquick": 4249,
      "ĠTheir": 4250,
      "Ġunion": 4251,
      "ĠLibrary": 4252,
      "dis": 4253,
      "ĠOxford": 4254,
      "ĠDet": 4255,
      "unc": 4256,
      "Ġevidence": 4257,
      "ĠPacific": 4258,
      "uts": 4259,
      "ĠElect": 4260,
      "poration": 4261,
      "apers": 4262,
      "Ġseparate": 4263,
      "ĠTw": 4264,
      "ĠOfficial": 4265,
      "Ġweeks": 4266,
      "Ġthreat": 4267,
      "uries": 4268,
      "obal": 4269,
      "ĠBC": 4270,
      "Ġlarger": 4271,
      "illed": 4272,
      "tario": 4273,
      "Ġfle": 4274,
      "bers": 4275,
      "Ġeastern": 4276,
      "ĠSocial": 4277,
      "ĠShow": 4278,
      "ucky": 4279,
      "ĠTre": 4280,
      "Ġbrief": 4281,
      "Ġforeign": 4282,
      "Not": 4283,
      "ayer": 4284,
      "Ġchart": 4285,
      "Ġacquired": 4286,
      "struction": 4287,
      "Ġoffered": 4288,
      "Ġmiddle": 4289,
      "uis": 4290,
      "Ġnorm": 4291,
      "ager": 4292,
      "riz": 4293,
      "Ġformat": 4294,
      "ĠAlbert": 4295,
      "ications": 4296,
      "Ġplatform": 4297,
      "ĠBBC": 4298,
      "onto": 4299,
      "Ġofficers": 4300,
      "Ġaccount": 4301,
      "encies": 4302,
      "fect": 4303,
      "Ġmovie": 4304,
      "ĠMore": 4305,
      "chestra": 4306,
      "ĠStan": 4307,
      "ĠHighway": 4308,
      "Ġbound": 4309,
      "uated": 4310,
      "ĠMajor": 4311,
      "Ġships": 4312,
      "uten": 4313,
      "ĠAssembly": 4314,
      "aven": 4315,
      "ips": 4316,
      "ĠArgent": 4317,
      "ĠDis": 4318,
      "ging": 4319,
      "ĠTop": 4320,
      "osoph": 4321,
      "She": 4322,
      "British": 4323,
      "ĠSyd": 4324,
      "ĠOlympic": 4325,
      "Ġpersonnel": 4326,
      "inet": 4327,
      "Ġ1962": 4328,
      "nam": 4329,
      "ĠBoy": 4330,
      "ricts": 4331,
      "ĠDirector": 4332,
      "Ġepisodes": 4333,
      "anguages": 4334,
      "Ġeconomic": 4335,
      "rect": 4336,
      "Ġcreate": 4337,
      "ĠBand": 4338,
      "ĠFar": 4339,
      "Ġcomedy": 4340,
      "With": 4341,
      "ĠBor": 4342,
      "peror": 4343,
      "Ġ35": 4344,
      "Ġdrama": 4345,
      "ĠNY": 4346,
      "ĠHealth": 4347,
      "ĠBh": 4348,
      "abeth": 4349,
      "ĠPhilipp": 4350,
      "//": 4351,
      "ĠSports": 4352,
      "Ġhelped": 4353,
      "Ġlabel": 4354,
      "emet": 4355,
      "outheast": 4356,
      "ĠUr": 4357,
      "ĠIran": 4358,
      "ĠUSA": 4359,
      "duce": 4360,
      "31": 4361,
      "ĠHome": 4362,
      "Ġmainly": 4363,
      "Ġstep": 4364,
      "selves": 4365,
      "National": 4366,
      "hester": 4367,
      "Ġmach": 4368,
      "Ġthemselves": 4369,
      "enty": 4370,
      "Ġdiscuss": 4371,
      "stein": 4372,
      "hol": 4373,
      "Ġ1944": 4374,
      "ackson": 4375,
      "icks": 4376,
      "ocal": 4377,
      "gypt": 4378,
      "Ġbomb": 4379,
      "Ġhours": 4380,
      "ĠRam": 4381,
      "ĠWater": 4382,
      "onic": 4383,
      "ila": 4384,
      "Ġbelieved": 4385,
      "rance": 4386,
      "Ġclaimed": 4387,
      "inger": 4388,
      "ilies": 4389,
      "ault": 4390,
      "Ġmuseum": 4391,
      "Ġhere": 4392,
      "Ġcitiz": 4393,
      "Ġpresented": 4394,
      "Ġmedical": 4395,
      "Ġop": 4396,
      "cel": 4397,
      "Ġparticularly": 4398,
      "HL": 4399,
      "Ġopt": 4400,
      "ĠLatin": 4401,
      "Ġ)": 4402,
      "32": 4403,
      "ĠField": 4404,
      "Is": 4405,
      "izing": 4406,
      "Ġgot": 4407,
      "ĠEnd": 4408,
      "ĠVer": 4409,
      "From": 4410,
      "chen": 4411,
      "Ġhouses": 4412,
      "Ġfoot": 4413,
      "Ġarrest": 4414,
      "itzer": 4415,
      "ĠJohnson": 4416,
      "Ġdescent": 4417,
      "ĠTam": 4418,
      "Ġminutes": 4419,
      "ĠSund": 4420,
      "Ã±": 4421,
      "ĠSand": 4422,
      "ĠJournal": 4423,
      "ava": 4424,
      "itting": 4425,
      "Ġseat": 4426,
      "Ġremaining": 4427,
      "ĠVen": 4428,
      "Ġvariety": 4429,
      "resp": 4430,
      "Ġpercent": 4431,
      "Ġtroops": 4432,
      "ĠLi": 4433,
      "ĠChild": 4434,
      "oz": 4435,
      "Comm": 4436,
      "ĠEarth": 4437,
      "ras": 4438,
      "Ġparents": 4439,
      "oses": 4440,
      "adian": 4441,
      "Ġfort": 4442,
      "ĠJac": 4443,
      "Ġmeaning": 4444,
      "Ġforms": 4445,
      "ĠVan": 4446,
      "Ġalways": 4447,
      "Ġspl": 4448,
      "urrent": 4449,
      "teen": 4450,
      "ĠLater": 4451,
      "ĠOpen": 4452,
      "ĠKar": 4453,
      "ĠKong": 4454,
      "Ġstarting": 4455,
      "Ġenergy": 4456,
      "Ġassistant": 4457,
      "ĠSea": 4458,
      "ĠOntario": 4459,
      "Ġcouncil": 4460,
      "ĠPeople": 4461,
      "rice": 4462,
      "Ġcrew": 4463,
      "akers": 4464,
      "AT": 4465,
      "ĠCorps": 4466,
      "osa": 4467,
      "Ġmissing": 4468,
      "ador": 4469,
      "imum": 4470,
      "ental": 4471,
      "ĠSydney": 4472,
      "Ġstudied": 4473,
      "Ġfailed": 4474,
      "hew": 4475,
      "Ġlatter": 4476,
      "ortheast": 4477,
      "Ġturned": 4478,
      "vement": 4479,
      "amm": 4480,
      "ĠSpecial": 4481,
      "Ġtheory": 4482,
      "ledge": 4483,
      "Ġheavy": 4484,
      "Track": 4485,
      "ograp": 4486,
      "ĠCat": 4487,
      "Ġtechnology": 4488,
      "Ġhospital": 4489,
      "Ġmeeting": 4490,
      "Ġmakes": 4491,
      "Ġlog": 4492,
      "more": 4493,
      "Ġspecific": 4494,
      "Ġpit": 4495,
      "ĠOb": 4496,
      "Ġorganizations": 4497,
      "attalion": 4498,
      "When": 4499,
      "US": 4500,
      "stone": 4501,
      "thur": 4502,
      "Ġoverall": 4503,
      "Ġyoun": 4504,
      "Ġprovides": 4505,
      "Ġcommunities": 4506,
      "Ġcities": 4507,
      "Ġdro": 4508,
      "Ġadj": 4509,
      "Ġpath": 4510,
      "Ġver": 4511,
      "ĠCorn": 4512,
      "Ð°": 4513,
      "=#": 4514,
      "Ġfinally": 4515,
      "://": 4516,
      "Ġcann": 4517,
      "Ġcomment": 4518,
      "Ġnearby": 4519,
      "Ġearned": 4520,
      "Ġsea": 4521,
      "atively": 4522,
      "2011": 4523,
      "no": 4524,
      "ĠGame": 4525,
      "ĠMu": 4526,
      "ĠFoundation": 4527,
      "range": 4528,
      "ĠKenn": 4529,
      "Ġpaint": 4530,
      "ĠEnter": 4531,
      "Ġsurface": 4532,
      "ĠMany": 4533,
      "ĠWall": 4534,
      "West": 4535,
      "Ġcarried": 4536,
      "%)": 4537,
      "ĠFour": 4538,
      "ĠOs": 4539,
      "1998": 4540,
      "ĠPolish": 4541,
      "onia": 4542,
      "Ġess": 4543,
      "yric": 4544,
      "Ġdistinct": 4545,
      "gu": 4546,
      "Ġcollabor": 4547,
      "olis": 4548,
      "ĠPost": 4549,
      "Ġprin": 4550,
      "bre": 4551,
      "yt": 4552,
      "stitu": 4553,
      "Ġblock": 4554,
      "estab": 4555,
      "itage": 4556,
      "Ġgovern": 4557,
      "Ġsupported": 4558,
      "ĠIf": 4559,
      "Ġfunction": 4560,
      "Ġneighbor": 4561,
      "Ġraised": 4562,
      "alm": 4563,
      "ĠRepublican": 4564,
      "eld": 4565,
      "Ġexpatriate": 4566,
      "Ġcovered": 4567,
      "Ġ1961": 4568,
      "ĠFC": 4569,
      "ĠRay": 4570,
      "Ġprovince": 4571,
      "Ġinters": 4572,
      "eder": 4573,
      "Ġmem": 4574,
      "Ġarticle": 4575,
      "ĠJoe": 4576,
      "Ġrequire": 4577,
      "Ġfinancial": 4578,
      "Ġrenamed": 4579,
      "ĠHistoric": 4580,
      "Ġinteg": 4581,
      "aging": 4582,
      "bec": 4583,
      "ronic": 4584,
      "ĠMuslim": 4585,
      "Ġextended": 4586,
      "Ġlegisl": 4587,
      "ĠKe": 4588,
      "rovers": 4589,
      "agement": 4590,
      "inus": 4591,
      "ĠAndrew": 4592,
      "Ġcomposed": 4593,
      "Ġmusicians": 4594,
      "Ġincrease": 4595,
      "Ġpage": 4596,
      "ogue": 4597,
      "48": 4598,
      "Ġsource": 4599,
      "47": 4600,
      "Ġpeak": 4601,
      "Ġmarriage": 4602,
      "Ġstories": 4603,
      "bourne": 4604,
      "ties": 4605,
      "Further": 4606,
      "Ġinn": 4607,
      "oh": 4608,
      "Ġshoot": 4609,
      "usband": 4610,
      "Ġcat": 4611,
      "mas": 4612,
      "Ġi": 4613,
      "ĠUl": 4614,
      "Members": 4615,
      "ables": 4616,
      "Ġdepart": 4617,
      "Ġlisting": 4618,
      "Ġoperation": 4619,
      "ĠÂ£": 4620,
      "ĠVictoria": 4621,
      "ĠPop": 4622,
      "Sw": 4623,
      "Ġancient": 4624,
      "Ġpsych": 4625,
      "Ġ1948": 4626,
      "ously": 4627,
      "ried": 4628,
      "esota": 4629,
      "55": 4630,
      "Ġ1959": 4631,
      "Ġresidents": 4632,
      "ĠAz": 4633,
      "ĠGra": 4634,
      "andon": 4635,
      "ads": 4636,
      "ocks": 4637,
      "Ġcelebr": 4638,
      "Ġnative": 4639,
      "Ġrecent": 4640,
      "Olymp": 4641,
      "orning": 4642,
      "ĠBab": 4643,
      "ĠBir": 4644,
      "AC": 4645,
      "Ġdone": 4646,
      "Ġobject": 4647,
      "1997": 4648,
      "imated": 4649,
      "07": 4650,
      "zech": 4651,
      "Ġconsists": 4652,
      "ederation": 4653,
      "Ġdouble": 4654,
      "Ġfeaturing": 4655,
      "ĠÅ": 4656,
      "ĠMax": 4657,
      "ully": 4658,
      "ĠGovernor": 4659,
      "ibli": 4660,
      "Ġcapac": 4661,
      "ĠProt": 4662,
      "umed": 4663,
      "ĠUk": 4664,
      "Ġnearly": 4665,
      "Ġresponse": 4666,
      "Ġprevent": 4667,
      "Ġsecondary": 4668,
      "ishes": 4669,
      "ieuten": 4670,
      "Ġproposed": 4671,
      "Ġ1956": 4672,
      "Ġsucceed": 4673,
      "yth": 4674,
      "Ġpolicy": 4675,
      "Ġemb": 4676,
      "Ġpick": 4677,
      "Ġchall": 4678,
      "Ġplans": 4679,
      "ĠOtt": 4680,
      "Ġproblems": 4681,
      "06": 4682,
      "Ġdifficult": 4683,
      "ĠBrig": 4684,
      "Ġorigin": 4685,
      "class": 4686,
      "Ġpoor": 4687,
      "Ġdespite": 4688,
      "Ġhighway": 4689,
      "Ġnewspaper": 4690,
      "ĠJeff": 4691,
      "mann": 4692,
      "ĠAlexander": 4693,
      "Ġfail": 4694,
      "ĠRegiment": 4695,
      "Ġbring": 4696,
      "Ġleave": 4697,
      "Ġdiss": 4698,
      "ĠPhiladelphia": 4699,
      "uing": 4700,
      "ĠBelg": 4701,
      "ĠArm": 4702,
      "ĠGh": 4703,
      "ĠBa": 4704,
      "sen": 4705,
      "ĠĠĊ": 4706,
      "Family": 4707,
      "ounts": 4708,
      "Ġstay": 4709,
      "Ġwords": 4710,
      "Ġ1958": 4711,
      "inistry": 4712,
      "Man": 4713,
      "itude": 4714,
      "ione": 4715,
      "vis": 4716,
      "atus": 4717,
      "yer": 4718,
      "ĠOffice": 4719,
      "ĠUnivers": 4720,
      "ims": 4721,
      "ĠMike": 4722,
      "ellig": 4723,
      "una": 4724,
      "Ġmight": 4725,
      "Ġconditions": 4726,
      "Ġtemper": 4727,
      "ĠBridge": 4728,
      "49": 4729,
      "Don": 4730,
      "usc": 4731,
      "enger": 4732,
      "ĠAirport": 4733,
      "Ġsilver": 4734,
      "ĠSong": 4735,
      "Ġoil": 4736,
      "lav": 4737,
      "wide": 4738,
      "ĠLight": 4739,
      "ancy": 4740,
      "rif": 4741,
      "Ġvoice": 4742,
      "ĠBell": 4743,
      "ĠFinal": 4744,
      "ĠRel": 4745,
      "ĠCub": 4746,
      "emetery": 4747,
      "icted": 4748,
      "Ġmanaged": 4749,
      "ĠDown": 4750,
      "ĠWinter": 4751,
      "Austral": 4752,
      "Ġawards": 4753,
      "ĠMedal": 4754,
      "ologist": 4755,
      "Ġbecomes": 4756,
      "Ã¡n": 4757,
      "ulpt": 4758,
      "Ġdead": 4759,
      "Ġspeed": 4760,
      "light": 4761,
      "Ġnovels": 4762,
      "ĠJackson": 4763,
      "Ġ1942": 4764,
      "ighter": 4765,
      "ID": 4766,
      "Ġborder": 4767,
      "08": 4768,
      "ĠHind": 4769,
      "ĠAnton": 4770,
      "Ġmechan": 4771,
      "Ġprimarily": 4772,
      "186": 4773,
      "Dem": 4774,
      "rupt": 4775,
      "Ġmentioned": 4776,
      "Ġathlet": 4777,
      "ĠBaron": 4778,
      "akh": 4779,
      "1980": 4780,
      "Ġ1957": 4781,
      "Ġchem": 4782,
      "ĠColl": 4783,
      "Ġtold": 4784,
      "Ġindividuals": 4785,
      "Ġserve": 4786,
      "ĠRaj": 4787,
      "Ġresponsible": 4788,
      "Ġunivers": 4789,
      "Ġparish": 4790,
      "ĠMov": 4791,
      "izabeth": 4792,
      "ĠBerlin": 4793,
      "Ġinhab": 4794,
      "ouri": 4795,
      "1996": 4796,
      "Ġdyn": 4797,
      "ĠEgypt": 4798,
      "obile": 4799,
      "Ġtransferred": 4800,
      "Ġelectric": 4801,
      "hens": 4802,
      "ĠRod": 4803,
      "ĠAsh": 4804,
      "Ġdeep": 4805,
      "Ġsoldiers": 4806,
      "ker": 4807,
      "rison": 4808,
      "ĠTod": 4809,
      "ĠLew": 4810,
      "orporated": 4811,
      "Ġcomputer": 4812,
      "ĠRog": 4813,
      "eman": 4814,
      "Ġdirectly": 4815,
      "Ġ1946": 4816,
      "ais": 4817,
      "Ġexperience": 4818,
      "Ġenough": 4819,
      "ested": 4820,
      "ilton": 4821,
      "Ġgun": 4822,
      "worth": 4823,
      "gers": 4824,
      "ĠSerb": 4825,
      "ĠSquad": 4826,
      "uilding": 4827,
      "text": 4828,
      "Ġ1955": 4829,
      "Ġinfluence": 4830,
      "Ġsociety": 4831,
      "Ġsched": 4832,
      "ounds": 4833,
      "Ġconstructed": 4834,
      "99": 4835,
      "ĠPubl": 4836,
      "ĠPrize": 4837,
      "ez": 4838,
      "ĠThree": 4839,
      "Ġregional": 4840,
      "ba": 4841,
      "osh": 4842,
      "05": 4843,
      "Ð¾": 4844,
      "ĠPass": 4845,
      "Ġchannel": 4846,
      "enness": 4847,
      "ĠSant": 4848,
      "46": 4849,
      "Ġfacilities": 4850,
      "Ġnumbers": 4851,
      "Ġaffili": 4852,
      "ambig": 4853,
      "Ġcensus": 4854,
      "formed": 4855,
      "ieutenant": 4856,
      "Ġcampus": 4857,
      "ji": 4858,
      "ĠAthlet": 4859,
      "mission": 4860,
      "Ġnature": 4861,
      "Ġupper": 4862,
      "Ġprofessor": 4863,
      "ĠWilson": 4864,
      "Ġdeliver": 4865,
      "ĠDemocratic": 4866,
      "Ġmotor": 4867,
      "ĠBudd": 4868,
      "ĠAk": 4869,
      "Ġagric": 4870,
      "His": 4871,
      "Ġconver": 4872,
      "Ġyouth": 4873,
      "Ġ1947": 4874,
      "writer": 4875,
      "ĠCorporation": 4876,
      "ĠVill": 4877,
      "ĠAnt": 4878,
      "ĠBal": 4879,
      "Ġasked": 4880,
      "ĠSom": 4881,
      "ĠGuard": 4882,
      "Ġcause": 4883,
      "Ġrugby": 4884,
      "Ġsolo": 4885,
      "2012": 4886,
      "Ġconcept": 4887,
      "Ġcorn": 4888,
      "ilation": 4889,
      "Ġlanguages": 4890,
      "Ġ1943": 4891,
      "ĠProgram": 4892,
      "Ġhonor": 4893,
      "ĠForest": 4894,
      "Ġissued": 4895,
      "orado": 4896,
      "aylor": 4897,
      "Ġcard": 4898,
      "Ġdrug": 4899,
      "Ġdiscovered": 4900,
      "olitan": 4901,
      "Polit": 4902,
      "VD": 4903,
      "ĠJean": 4904,
      "ĠCharl": 4905,
      "undred": 4906,
      "ĠFI": 4907,
      "ĠToronto": 4908,
      "rin": 4909,
      "Ġdomin": 4910,
      "ĠEp": 4911,
      "ĠBra": 4912,
      "Ġconsider": 4913,
      "Ġelements": 4914,
      "ictional": 4915,
      "Ġconfl": 4916,
      "Ġhusband": 4917,
      "Ġproducts": 4918,
      "etherlands": 4919,
      "ĠPen": 4920,
      "erc": 4921,
      "Ġkind": 4922,
      "iced": 4923,
      "Ġ1941": 4924,
      "Ġunc": 4925,
      "ĠKen": 4926,
      "Ġtitles": 4927,
      "ĠQueens": 4928,
      "Ġweap": 4929,
      "Ġcateg": 4930,
      "Ġmountain": 4931,
      "ĠCy": 4932,
      "Ġlives": 4933,
      "Ġmedalists": 4934,
      "wick": 4935,
      "Ġbelong": 4936,
      "ĠKorea": 4937,
      "ĠSteve": 4938,
      "Ġ1952": 4939,
      "ĠCastle": 4940,
      "Ġscene": 4941,
      "ĠSanta": 4942,
      "ambiguation": 4943,
      "ĠStadium": 4944,
      "onomy": 4945,
      "heim": 4946,
      "ĠBeach": 4947,
      "ĠLim": 4948,
      "ĠViet": 4949,
      "Ġbirds": 4950,
      "Ġwhole": 4951,
      "cean": 4952,
      "Olympic": 4953,
      "Ġbackground": 4954,
      "ĠChap": 4955,
      "ĠIslands": 4956,
      "Ġnecess": 4957,
      "ĠHead": 4958,
      "44": 4959,
      "Ġbenef": 4960,
      "Ġface": 4961,
      "ĠJustice": 4962,
      "Ġworkers": 4963,
      "quarters": 4964,
      "Ġnotable": 4965,
      "Ġlevels": 4966,
      "Ġamb": 4967,
      "Ġprogramming": 4968,
      "187": 4969,
      "Ġ1939": 4970,
      "rie": 4971,
      "orship": 4972,
      "aith": 4973,
      "Ġfriends": 4974,
      "Ġlikely": 4975,
      "Ġdivided": 4976,
      "Ġthr": 4977,
      "reng": 4978,
      "ĠRome": 4979,
      "Ac": 4980,
      "Ġonline": 4981,
      "ĠSev": 4982,
      "Ġarrived": 4983,
      "Ġfamilies": 4984,
      "Ġult": 4985,
      "German": 4986,
      "istance": 4987,
      "1995": 4988,
      "Ġang": 4989,
      "Ġexecutive": 4990,
      "arry": 4991,
      "amin": 4992,
      "ube": 4993,
      "Ed": 4994,
      "Ġera": 4995,
      "Ġcomes": 4996,
      "Ġcultural": 4997,
      "ĠMountain": 4998,
      "Ġcoaches": 4999,
      "ĠBishop": 5000,
      "astic": 5001,
      "inson": 5002,
      "09": 5003,
      "ĠBaseball": 5004,
      "Ġcars": 5005,
      "ĠFair": 5006,
      "rec": 5007,
      "ĠHospital": 5008,
      "rolled": 5009,
      "ydro": 5010,
      "anth": 5011,
      "ocated": 5012,
      "Ġnucle": 5013,
      "ĠMinnesota": 5014,
      "Ġdepartment": 5015,
      "Ġincreasing": 5016,
      "Ġrule": 5017,
      "ĠAnth": 5018,
      "ĠCop": 5019,
      "Ġgreen": 5020,
      "Ġheart": 5021,
      "Personal": 5022,
      "Be": 5023,
      "Ġappl": 5024,
      "Ġmanagers": 5025,
      "Ġwanted": 5026,
      "ĠMir": 5027,
      "Ġinitial": 5028,
      "Ġprogress": 5029,
      "Canadian": 5030,
      "Ġcontinues": 5031,
      "World": 5032,
      "ĠHong": 5033,
      "Ġchap": 5034,
      "Ġpoliticians": 5035,
      "ĠCommon": 5036,
      "mad": 5037,
      "Ġdemon": 5038,
      "disambiguation": 5039,
      "ules": 5040,
      "Nov": 5041,
      "ĠPoland": 5042,
      "Ġalongside": 5043,
      "Ġâ": 5044,
      "raq": 5045,
      "cles": 5046,
      "Ġautom": 5047,
      "Ġwinner": 5048,
      "Gr": 5049,
      "ĠCas": 5050,
      "Ġremoved": 5051,
      "ĠSupreme": 5052,
      "ĠPakistan": 5053,
      "ĠPremier": 5054,
      "oration": 5055,
      "Ġcontinue": 5056,
      "Ġpp": 5057,
      "Ġreason": 5058,
      "Ġsn": 5059,
      "Ġsources": 5060,
      "SP": 5061,
      "Ne": 5062,
      "Ġfifth": 5063,
      "Ġ500": 5064,
      "Ġcapacity": 5065,
      "ĠLady": 5066,
      "Ġfell": 5067,
      "ĠAsian": 5068,
      "aks": 5069,
      "ĠCa": 5070,
      "ĠSpe": 5071,
      "Ġ1954": 5072,
      "Ġstadium": 5073,
      "Ġpartn": 5074,
      "Ġfunct": 5075,
      "ĠHarv": 5076,
      "Ġnation": 5077,
      "Ġvon": 5078,
      "ĠDaniel": 5079,
      "Ġwinners": 5080,
      "%.": 5081,
      "ĠBoth": 5082,
      "itled": 5083,
      "ĠFire": 5084,
      "lyn": 5085,
      "Ġdrums": 5086,
      "ocese": 5087,
      "uv": 5088,
      "ĠBang": 5089,
      "Ġwhether": 5090,
      "yo": 5091,
      "Ġadministration": 5092,
      "95": 5093,
      "Ġsector": 5094,
      "ĠPower": 5095,
      "Ġdisplay": 5096,
      "Ġmetal": 5097,
      "ĠDevelopment": 5098,
      "Ġlif": 5099,
      "aped": 5100,
      "Pop": 5101,
      "ĠDuke": 5102,
      "One": 5103,
      "real": 5104,
      "wing": 5105,
      "amber": 5106,
      "Ġpromoted": 5107,
      "Ġvalue": 5108,
      "Ġofficially": 5109,
      "Ġdedicated": 5110,
      "Ġ1953": 5111,
      "Ġletter": 5112,
      "ĠChris": 5113,
      "Ġequipment": 5114,
      "Ġhighly": 5115,
      "thing": 5116,
      "utt": 5117,
      "respond": 5118,
      "lementary": 5119,
      "anga": 5120,
      "oren": 5121,
      "Ġ80": 5122,
      "perial": 5123,
      "Ġpurchased": 5124,
      "oto": 5125,
      "Ġbranch": 5126,
      "Ġdestroyed": 5127,
      "Ġsal": 5128,
      "ĠIndepend": 5129,
      "Ġrules": 5130,
      "Ġstore": 5131,
      "Ġgraduated": 5132,
      "ĠIndiana": 5133,
      "athan": 5134,
      "ĠDer": 5135,
      "SC": 5136,
      "ĠElizabeth": 5137,
      "omer": 5138,
      "Ġacademic": 5139,
      "2013": 5140,
      "icine": 5141,
      "edom": 5142,
      "Ġrat": 5143,
      "Ġquickly": 5144,
      "ĠJes": 5145,
      "1994": 5146,
      "rig": 5147,
      "Ġinside": 5148,
      "University": 5149,
      "Ġeffects": 5150,
      "ĠAdd": 5151,
      "Ġ1951": 5152,
      "ĠRegion": 5153,
      "Ġour": 5154,
      "Ġuns": 5155,
      "ĠWork": 5156,
      "Ġconducted": 5157,
      "itter": 5158,
      "Ġliterature": 5159,
      "arp": 5160,
      "Will": 5161,
      "ĠAut": 5162,
      "aud": 5163,
      "Ġattend": 5164,
      "ecting": 5165,
      "ĠLo": 5166,
      "Ġbegins": 5167,
      "aska": 5168,
      "Ġsmaller": 5169,
      "ĠSecretary": 5170,
      "Ġgre": 5171,
      "ĠNetherlands": 5172,
      "ressed": 5173,
      "Ġshare": 5174,
      "Ġdirection": 5175,
      "ĠSher": 5176,
      "vin": 5177,
      "Ġut": 5178,
      "alo": 5179,
      "Ġ1949": 5180,
      "Ġrevealed": 5181,
      "2014": 5182,
      "ĠPolice": 5183,
      "500": 5184,
      "izes": 5185,
      "ĠBad": 5186,
      "Ġsport": 5187,
      "Ġsemi": 5188,
      "Ġbasis": 5189,
      "Ġ+": 5190,
      "ennessee": 5191,
      "ĠBrother": 5192,
      "By": 5193,
      "ĠRevolution": 5194,
      "Ġimmediately": 5195,
      "Ġfiction": 5196,
      "Ġability": 5197,
      "enge": 5198,
      "ifying": 5199,
      "Ġenem": 5200,
      "Year": 5201,
      "aga": 5202,
      "Ġfollows": 5203,
      "da": 5204,
      "ovak": 5205,
      "Ġperman": 5206,
      "Ã¸": 5207,
      "Ġhosted": 5208,
      "EC": 5209,
      "inity": 5210,
      "rog": 5211,
      "Ġcontrovers": 5212,
      "Ġolder": 5213,
      "Ġlaws": 5214,
      "regon": 5215,
      "Biography": 5216,
      "Ġcricket": 5217,
      "Ä±": 5218,
      "Ġbeat": 5219,
      "ributed": 5220,
      "Ġproduce": 5221,
      "ĠHay": 5222,
      "Ġinstitutions": 5223,
      "ropolitan": 5224,
      "According": 5225,
      "ĠNetwork": 5226,
      "ĠBu": 5227,
      "water": 5228,
      "ighth": 5229,
      "Ġtypes": 5230,
      "58": 5231,
      "Ġstreet": 5232,
      "Ġplanned": 5233,
      "ĠRet": 5234,
      "International": 5235,
      "ĠCambridge": 5236,
      "Ġlyric": 5237,
      "ounded": 5238,
      "ĠLes": 5239,
      "Ġquestion": 5240,
      "enes": 5241,
      "Ġversions": 5242,
      "Ġwalk": 5243,
      "Ġintended": 5244,
      "andy": 5245,
      "Ġillust": 5246,
      "01": 5247,
      "ĠFederal": 5248,
      "Ġassigned": 5249,
      "ĠSenate": 5250,
      "Ġsymb": 5251,
      "ĠFame": 5252,
      "Ã£": 5253,
      "Ġovers": 5254,
      "ĠAtt": 5255,
      "Ġblood": 5256,
      "part": 5257,
      "Ġengineer": 5258,
      "ĠClark": 5259,
      "agh": 5260,
      "Ġidea": 5261,
      "Ġoperating": 5262,
      "owa": 5263,
      "ĠFox": 5264,
      "Ġpan": 5265,
      "Ġprojects": 5266,
      "hemat": 5267,
      "Ġparties": 5268,
      "Ġcitizens": 5269,
      "imal": 5270,
      "Ġserves": 5271,
      "ibliography": 5272,
      "ĠNations": 5273,
      "Ġ36": 5274,
      "ternet": 5275,
      "Ġsettlement": 5276,
      "ĠCommunity": 5277,
      "56": 5278,
      "ns": 5279,
      "ographic": 5280,
      "Ġresident": 5281,
      "Ġleaders": 5282,
      "ĠHuman": 5283,
      "ĠMedia": 5284,
      "book": 5285,
      "Ġscoring": 5286,
      "Ġamount": 5287,
      "Ġdance": 5288,
      "Ġcommonly": 5289,
      "Ġdistricts": 5290,
      "ĠLive": 5291,
      "ĠBooks": 5292,
      "Ġrap": 5293,
      "Ġsaying": 5294,
      "weight": 5295,
      "ĠFe": 5296,
      "Ġgas": 5297,
      "Ġyet": 5298,
      "And": 5299,
      "Ġpra": 5300,
      "MS": 5301,
      "Ġterritory": 5302,
      "ĠRem": 5303,
      "Ġvan": 5304,
      "ĠCirc": 5305,
      "ĠGolden": 5306,
      "Ġsites": 5307,
      "gely": 5308,
      "onsin": 5309,
      "iary": 5310,
      "bs": 5311,
      "Ð¸": 5312,
      "',": 5313,
      "ĠConf": 5314,
      "Ġgrowth": 5315,
      "Ġtable": 5316,
      "Ġflight": 5317,
      "ĠKir": 5318,
      "odies": 5319,
      "Ġtouch": 5320,
      "isconsin": 5321,
      "Ġprominent": 5322,
      "Ġleaves": 5323,
      "ĠBarb": 5324,
      "Ġtypically": 5325,
      "Ġtreatment": 5326,
      "igen": 5327,
      "Ġoffers": 5328,
      "ression": 5329,
      "Ġgrew": 5330,
      "former": 5331,
      "ansion": 5332,
      "1992": 5333,
      "ĠBall": 5334,
      "ĊĊĠ": 5335,
      "Ġtal": 5336,
      "rical": 5337,
      "Ġclear": 5338,
      "Ġdark": 5339,
      "iated": 5340,
      "opher": 5341,
      "Ġopportun": 5342,
      "Pr": 5343,
      "isted": 5344,
      "Ġvote": 5345,
      "ĠTok": 5346,
      "greg": 5347,
      "Ġblue": 5348,
      "Ġrepe": 5349,
      "Ġsecurity": 5350,
      "ĠLt": 5351,
      "Ġcombined": 5352,
      "Ġrecover": 5353,
      "Ġreach": 5354,
      "ĠTony": 5355,
      "put": 5356,
      "esh": 5357,
      "ĠHockey": 5358,
      "itional": 5359,
      "ĠJews": 5360,
      "Ġelections": 5361,
      "Notable": 5362,
      "ĠNFL": 5363,
      "1970": 5364,
      "Ġpiano": 5365,
      "Ġprote": 5366,
      "Ġpurs": 5367,
      "Ġlay": 5368,
      "ĠJunior": 5369,
      "ĠFollowing": 5370,
      "OS": 5371,
      "ĠRom": 5372,
      "Ġstra": 5373,
      "Ġhab": 5374,
      "itzerland": 5375,
      "ĠFle": 5376,
      "ova": 5377,
      "Ġowner": 5378,
      "ĠPers": 5379,
      "ader": 5380,
      "Ġsoftware": 5381,
      "ĠHun": 5382,
      "MA": 5383,
      "Ġchampion": 5384,
      "ĠDespite": 5385,
      "ĠCE": 5386,
      "ĠTechnology": 5387,
      "Ġunknown": 5388,
      "ello": 5389,
      "ĠHal": 5390,
      "ĊĠĊĠĊ": 5391,
      "oud": 5392,
      "Ġmoving": 5393,
      "Ġmodels": 5394,
      "weg": 5395,
      "portation": 5396,
      "arent": 5397,
      "lers": 5398,
      "cest": 5399,
      "ĠSwedish": 5400,
      "Ġscholars": 5401,
      "ĠJon": 5402,
      "Ġcharge": 5403,
      "Ġcompeted": 5404,
      "Ġboy": 5405,
      "rence": 5406,
      "Ġsculpt": 5407,
      "2015": 5408,
      "oln": 5409,
      "Ġcolor": 5410,
      "ĠHy": 5411,
      "ĠAff": 5412,
      "ĠRepresentatives": 5413,
      "resh": 5414,
      "yard": 5415,
      "ĠKel": 5416,
      "Ġurban": 5417,
      "Ġpaper": 5418,
      "Ġordered": 5419,
      "ori": 5420,
      "ensis": 5421,
      "1993": 5422,
      "ronze": 5423,
      "oles": 5424,
      "ĠEarl": 5425,
      "Ġwa": 5426,
      "Ġretire": 5427,
      "Ġfeel": 5428,
      "itness": 5429,
      "ĠBat": 5430,
      "ui": 5431,
      "ĠKentucky": 5432,
      "ĠSweden": 5433,
      "Ġ45": 5434,
      "Ġtraffic": 5435,
      "Ġtrains": 5436,
      "Ġactivity": 5437,
      "Ġrecently": 5438,
      "Ġmerg": 5439,
      "04": 5440,
      "ĠAbb": 5441,
      "oli": 5442,
      "bro": 5443,
      "Ġestate": 5444,
      "ĠBrook": 5445,
      "Ġpet": 5446,
      "ĠSimon": 5447,
      "ĠMarc": 5448,
      "Ġplants": 5449,
      "asty": 5450,
      "ĠTaylor": 5451,
      "vest": 5452,
      "Ġphysical": 5453,
      "which": 5454,
      "Ġstreng": 5455,
      "gn": 5456,
      "Ġsuffered": 5457,
      "ogs": 5458,
      "ĠLy": 5459,
      "ĠMemorial": 5460,
      "ĠPit": 5461,
      "El": 5462,
      "LA": 5463,
      "achel": 5464,
      "Ġcounter": 5465,
      "Ġbehav": 5466,
      "present": 5467,
      "No": 5468,
      "ĠMun": 5469,
      "ĠSpring": 5470,
      "98": 5471,
      "ĠEst": 5472,
      "Ġconstitu": 5473,
      "Ġimplement": 5474,
      "yal": 5475,
      "ĠMarine": 5476,
      "ĠEs": 5477,
      "Ġtells": 5478,
      "ĠArthur": 5479,
      "Ġdisease": 5480,
      "met": 5481,
      "Ġfirm": 5482,
      "Ġhop": 5483,
      "ĠCountry": 5484,
      "bit": 5485,
      "ami": 5486,
      "bed": 5487,
      "ĠIraq": 5488,
      "Ġmixed": 5489,
      "Ġwithd": 5490,
      "ĠPrim": 5491,
      "Ġbad": 5492,
      "ĠGreg": 5493,
      "Ġneeded": 5494,
      "Ġmax": 5495,
      "ĠTennessee": 5496,
      "ixed": 5497,
      "ĠStudies": 5498,
      "ĠSus": 5499,
      "Ãº": 5500,
      "orph": 5501,
      "tra": 5502,
      "rizona": 5503,
      "Ġagreed": 5504,
      "Ġ32": 5505,
      "We": 5506,
      "ĠCzech": 5507,
      "Ġgiving": 5508,
      "Ġinterp": 5509,
      "SR": 5510,
      "pper": 5511,
      "03": 5512,
      "ĠMaster": 5513,
      "Ġproblem": 5514,
      "ĠAlso": 5515,
      "Ġefforts": 5516,
      "ĠKorean": 5517,
      "ĠArmen": 5518,
      "lah": 5519,
      "Football": 5520,
      "ĠForm": 5521,
      "enna": 5522,
      "Ġconcert": 5523,
      "aki": 5524,
      "Ġfigure": 5525,
      "ĠOrgan": 5526,
      "Ġdigital": 5527,
      "ivity": 5528,
      "Ġtarget": 5529,
      "ĠStephen": 5530,
      "Ġdistribution": 5531,
      "ĠSquadron": 5532,
      "Ġtree": 5533,
      "olid": 5534,
      "Ġtheatre": 5535,
      "41": 5536,
      "Ġfavor": 5537,
      "anna": 5538,
      "ĠReview": 5539,
      "Ġinstrument": 5540,
      "Ġdemonstr": 5541,
      "ething": 5542,
      "ĠColorado": 5543,
      "Ġadopted": 5544,
      "aints": 5545,
      "South": 5546,
      "Ġlies": 5547,
      "Ġdisestab": 5548,
      "57": 5549,
      "Ġcomposer": 5550,
      "Ġethn": 5551,
      "Ġpotential": 5552,
      "aret": 5553,
      "Ġasp": 5554,
      "42": 5555,
      "Ġpresence": 5556,
      "ening": 5557,
      "ĠAh": 5558,
      "Ġforward": 5559,
      "Ġsituated": 5560,
      "Ġindustrial": 5561,
      "Ġdistance": 5562,
      "Ġ1936": 5563,
      "Ġthink": 5564,
      "stic": 5565,
      "Sources": 5566,
      "Ġrare": 5567,
      "ĠOregon": 5568,
      "Ġfish": 5569,
      "igrants": 5570,
      "ĠWisconsin": 5571,
      "eather": 5572,
      "Ġcoming": 5573,
      "Death": 5574,
      "ĠMarsh": 5575,
      "1991": 5576,
      "kin": 5577,
      "room": 5578,
      "ĠSwiss": 5579,
      "96": 5580,
      "Ġenter": 5581,
      "Ġhor": 5582,
      "Ġlargely": 5583,
      "Ġprec": 5584,
      "ĠIndust": 5585,
      "zo": 5586,
      "ĠSab": 5587,
      "Ġcontemporary": 5588,
      "Co": 5589,
      "onym": 5590,
      "Ġexpanded": 5591,
      "Ġprobably": 5592,
      "uls": 5593,
      "ĠProject": 5594,
      "Ġrespectively": 5595,
      "Ġrecon": 5596,
      "aine": 5597,
      "Ġcaptured": 5598,
      "Ġactually": 5599,
      "ĠMelbourne": 5600,
      "ĠLewis": 5601,
      "Ġwins": 5602,
      "Ġcorrespond": 5603,
      "ĠPrime": 5604,
      "Äį": 5605,
      "ĠKansas": 5606,
      "Television": 5607,
      "Ġwidely": 5608,
      "Ġformerly": 5609,
      "inner": 5610,
      "ĠWalk": 5611,
      "Ġroles": 5612,
      "ĠCaptain": 5613,
      "sex": 5614,
      "eller": 5615,
      "hedral": 5616,
      "ĠDam": 5617,
      "Ġ70": 5618,
      "Ġcode": 5619,
      "acement": 5620,
      "ĠIv": 5621,
      "ga": 5622,
      "ervative": 5623,
      "CD": 5624,
      "ĠAlf": 5625,
      "Ġ1938": 5626,
      "Ġsens": 5627,
      "Ġquality": 5628,
      "ibly": 5629,
      "uction": 5630,
      "onents": 5631,
      "incial": 5632,
      "acc": 5633,
      "Back": 5634,
      "law": 5635,
      "Ġarts": 5636,
      "Ġinjury": 5637,
      "ĠSwitzerland": 5638,
      "Ġportion": 5639,
      "Ġcolle": 5640,
      "Ġcrime": 5641,
      "Ġcerem": 5642,
      "Ġpeace": 5643,
      "Ġgenus": 5644,
      "Ðµ": 5645,
      "Ġtrial": 5646,
      "Ġnortheast": 5647,
      "Ġabandon": 5648,
      "aro": 5649,
      "Ġspirit": 5650,
      "cluding": 5651,
      "ÅĤ": 5652,
      "edia": 5653,
      "Ġexecut": 5654,
      "ĠProfessor": 5655,
      "Ġtwice": 5656,
      "bums": 5657,
      "Art": 5658,
      "Ġconcent": 5659,
      "Ġprep": 5660,
      "ĠDavis": 5661,
      "Ġcandidate": 5662,
      "kes": 5663,
      "ĠRang": 5664,
      "orney": 5665,
      "Ġtaught": 5666,
      "lar": 5667,
      "ĠRoss": 5668,
      "Ġfounder": 5669,
      "ĠNaz": 5670,
      "Ġshop": 5671,
      "chers": 5672,
      "usion": 5673,
      "ĠUt": 5674,
      "orge": 5675,
      "88": 5676,
      "Ġvocal": 5677,
      "also": 5678,
      "ĠFamily": 5679,
      "olved": 5680,
      "Ġfellow": 5681,
      "ĠWars": 5682,
      "ĠBol": 5683,
      "ĠBusiness": 5684,
      "Ġsecret": 5685,
      "Ġhundred": 5686,
      "ĠRegister": 5687,
      "iders": 5688,
      "Ġclasses": 5689,
      "100": 5690,
      "2016": 5691,
      "Ġtherefore": 5692,
      "iate": 5693,
      "Geography": 5694,
      "ĠTa": 5695,
      "ĠEP": 5696,
      "Ġfaculty": 5697,
      "ĠColon": 5698,
      "Ġsales": 5699,
      "Ġnewly": 5700,
      "Ġengineering": 5701,
      "ĠId": 5702,
      "Ġdra": 5703,
      "ante": 5704,
      "Ġagreement": 5705,
      "Ġpict": 5706,
      "Ġgives": 5707,
      "Ġfloor": 5708,
      "Ġarms": 5709,
      "Ġsurrounding": 5710,
      "Ġmiles": 5711,
      "Ġclassical": 5712,
      "Ġtemple": 5713,
      "Disc": 5714,
      "Ġspons": 5715,
      "unte": 5716,
      "roit": 5717,
      "TA": 5718,
      "Ġperformances": 5719,
      "Ġaccepted": 5720,
      "anton": 5721,
      "Ġresulted": 5722,
      "apore": 5723,
      "ĠSav": 5724,
      "Ġgoes": 5725,
      "Ġjoint": 5726,
      "ĠMaryland": 5727,
      "ito": 5728,
      "urd": 5729,
      "ĠMaria": 5730,
      "ionally": 5731,
      "Ġsplit": 5732,
      "ĠChristmas": 5733,
      "43": 5734,
      "aug": 5735,
      "osis": 5736,
      "Ġspring": 5737,
      "Ġemployed": 5738,
      "Ġregist": 5739,
      "sey": 5740,
      "osen": 5741,
      "Ġ90": 5742,
      "ĠSciences": 5743,
      "Ġgained": 5744,
      "97": 5745,
      "Ġapproach": 5746,
      "Ġvillages": 5747,
      "Ġbronze": 5748,
      "iral": 5749,
      "Ġgranted": 5750,
      "ingham": 5751,
      "ĠMissouri": 5752,
      "ancing": 5753,
      "Ġdeclared": 5754,
      "ika": 5755,
      "ĠHou": 5756,
      "Ġsearch": 5757,
      "Ġracing": 5758,
      "Ġtitled": 5759,
      "osophy": 5760,
      "restling": 5761,
      "ĠArea": 5762,
      "ĠLind": 5763,
      "elligence": 5764,
      "ester": 5765,
      "Ġyards": 5766,
      "Ġcoin": 5767,
      "ivals": 5768,
      "Ġanalysis": 5769,
      "Ġestimated": 5770,
      "Ã£o": 5771,
      "estic": 5772,
      "ois": 5773,
      "Ġteacher": 5774,
      "ĠBalt": 5775,
      "Ġfast": 5776,
      "uther": 5777,
      "Ġhousehold": 5778,
      "Ġmaster": 5779,
      "omot": 5780,
      "ĠBrad": 5781,
      "ĠEmperor": 5782,
      "ĠBi": 5783,
      "Ġsubs": 5784,
      "Ġfacility": 5785,
      "Ġwild": 5786,
      "Ġstone": 5787,
      "ĠNorway": 5788,
      "Ġgraph": 5789,
      "Gu": 5790,
      "Ġsays": 5791,
      "ĠDiv": 5792,
      "Ġcompared": 5793,
      "anchester": 5794,
      "ĠHart": 5795,
      "Ġcells": 5796,
      "works": 5797,
      "urches": 5798,
      "Ġattention": 5799,
      "French": 5800,
      "Ġparticipated": 5801,
      "Ġdesignated": 5802,
      "ĠMunicip": 5803,
      "ĠAnother": 5804,
      "Australian": 5805,
      "sky": 5806,
      "ĠHamp": 5807,
      "orders": 5808,
      "rell": 5809,
      "bell": 5810,
      "Ġtrue": 5811,
      "ĠAtlantic": 5812,
      "Ġarchitecture": 5813,
      "eding": 5814,
      "66": 5815,
      "Ġrecognized": 5816,
      "emic": 5817,
      "Ġtalk": 5818,
      "mes": 5819,
      "ĠTownship": 5820,
      "Ġwing": 5821,
      "ĠTal": 5822,
      "iling": 5823,
      "tainment": 5824,
      "02": 5825,
      "ĠHoly": 5826,
      "mitted": 5827,
      "Ġsexual": 5828,
      "Ġpal": 5829,
      "lahoma": 5830,
      "Ġreduced": 5831,
      "Ã¢": 5832,
      "Ġpressure": 5833,
      "pool": 5834,
      "Ġresulting": 5835,
      "ĠAdminist": 5836,
      "gs": 5837,
      "En": 5838,
      "Ġcolumn": 5839,
      "Ġconnected": 5840,
      "ĠGreece": 5841,
      "Ġspread": 5842,
      "Ġetc": 5843,
      "Ġrestaur": 5844,
      "mph": 5845,
      "Ġvehicles": 5846,
      "Ġcaptain": 5847,
      "ĠCur": 5848,
      "ĠDun": 5849,
      "died": 5850,
      "oster": 5851,
      "1989": 5852,
      "erick": 5853,
      "ĠĠĠ": 5854,
      "Ġaccomp": 5855,
      "incoln": 5856,
      "à¤": 5857,
      "urer": 5858,
      "ĠHo": 5859,
      "Ġroll": 5860,
      "ĠWat": 5861,
      "Ġkept": 5862,
      "Ã©e": 5863,
      "outs": 5864,
      "Ġswim": 5865,
      "ĠTurkey": 5866,
      "ĠBattalion": 5867,
      "Ġstars": 5868,
      "AF": 5869,
      "ĠSR": 5870,
      "Ġairport": 5871,
      "mouth": 5872,
      "ĠMarg": 5873,
      "Japan": 5874,
      "lan": 5875,
      "ĠÎ": 5876,
      "uese": 5877,
      "Ġcannot": 5878,
      "Def": 5879,
      "Res": 5880,
      "Ġnet": 5881,
      "Ġpack": 5882,
      "ectic": 5883,
      "ooth": 5884,
      "Ġ1937": 5885,
      "Ã¼r": 5886,
      "Ġoccurred": 5887,
      "52": 5888,
      "Ġpattern": 5889,
      ")\"": 5890,
      "Songs": 5891,
      "Ġpositive": 5892,
      "adesh": 5893,
      "ĠMilitary": 5894,
      "General": 5895,
      "olished": 5896,
      "yes": 5897,
      "aling": 5898,
      "ĠYour": 5899,
      "Ġlosing": 5900,
      "Hon": 5901,
      "erto": 5902,
      "Ġcarri": 5903,
      "ER": 5904,
      "umes": 5905,
      "La": 5906,
      "ĠHan": 5907,
      "Ġbott": 5908,
      "Ġmess": 5909,
      "Ġdial": 5910,
      "ĠConc": 5911,
      "Awards": 5912,
      "ateur": 5913,
      "cow": 5914,
      "Ġchairman": 5915,
      "ĠStock": 5916,
      "Ġcontent": 5917,
      "Ġpositions": 5918,
      "Ġhar": 5919,
      "Ġcharts": 5920,
      "Ġdocumentary": 5921,
      "ĠPrin": 5922,
      "elle": 5923,
      "eline": 5924,
      "May": 5925,
      "Ġacting": 5926,
      "zy": 5927,
      "Ġsuit": 5928,
      "under": 5929,
      "aria": 5930,
      "Ġflag": 5931,
      "ĠFrancis": 5932,
      "76": 5933,
      "onent": 5934,
      "ecause": 5935,
      "Ġbatt": 5936,
      "Ġpasses": 5937,
      "59": 5938,
      "Ġlabor": 5939,
      "Ġcam": 5940,
      "Ġorganized": 5941,
      "Ġminister": 5942,
      "Ġ1918": 5943,
      "wegian": 5944,
      "SS": 5945,
      "UK": 5946,
      "Ġaccident": 5947,
      "IA": 5948,
      "ĠLeon": 5949,
      "Ġcastle": 5950,
      "Ġeducated": 5951,
      "Ġneighborhood": 5952,
      "Fran": 5953,
      "Ġdamage": 5954,
      "Ġrural": 5955,
      "ĠLev": 5956,
      "iminal": 5957,
      "Ġadapt": 5958,
      "irmed": 5959,
      "Ġsuppl": 5960,
      "life": 5961,
      "Ġwall": 5962,
      "Ġheav": 5963,
      "Ġproviding": 5964,
      "86": 5965,
      "iants": 5966,
      "Ġofficials": 5967,
      "Ġyounger": 5968,
      "pur": 5969,
      "tr": 5970,
      "1988": 5971,
      "Ġrecomm": 5972,
      "Ġlake": 5973,
      "ordin": 5974,
      "uildings": 5975,
      "ĠCO": 5976,
      "Com": 5977,
      "Ġencour": 5978,
      "Ġstrugg": 5979,
      "Par": 5980,
      "ĠBrian": 5981,
      "Ġburn": 5982,
      "Ġknowledge": 5983,
      "Ġrac": 5984,
      "Ġserious": 5985,
      "iller": 5986,
      "uous": 5987,
      "Ġtheme": 5988,
      "ĠWrit": 5989,
      "Ġsumm": 5990,
      "Ġcouple": 5991,
      "Ġidentified": 5992,
      "2017": 5993,
      "Ġclaims": 5994,
      "Ġmunicipalities": 5995,
      "ĠGil": 5996,
      "ĠSem": 5997,
      "IC": 5998,
      "ĠEth": 5999,
      "ĠChampions": 6000,
      "Ġfeet": 6001,
      "Ġallows": 6002,
      "Ġbacking": 6003,
      "Ġhands": 6004,
      "ĠTrust": 6005,
      "ĠEngineering": 6006,
      "ĠMinistry": 6007,
      "ĠTemple": 6008,
      "Ġattacks": 6009,
      "Ġlibrary": 6010,
      "ĠChannel": 6011,
      "ĠArizona": 6012,
      "Ġsevent": 6013,
      "ĠRad": 6014,
      "iques": 6015,
      "Ġjournalist": 6016,
      "Ġgreater": 6017,
      "ĠUs": 6018,
      "Ġhall": 6019,
      "ashion": 6020,
      "Bibliography": 6021,
      "ĠDVD": 6022,
      "Ġcreation": 6023,
      "ĠPhilip": 6024,
      "Ġhistoric": 6025,
      "ĠCommand": 6026,
      "Ġcontest": 6027,
      "Ġfair": 6028,
      "elsh": 6029,
      "Ġelim": 6030,
      "agan": 6031,
      "ĠWeek": 6032,
      "ĠTar": 6033,
      "Ġranked": 6034,
      "eces": 6035,
      "ĠMic": 6036,
      "1987": 6037,
      "Ġthous": 6038,
      "illery": 6039,
      "ĠBillboard": 6040,
      "ĠRoy": 6041,
      "claim": 6042,
      "51": 6043,
      "Ġrom": 6044,
      "Ġgovernor": 6045,
      "Ġnorthwest": 6046,
      "'.": 6047,
      "can": 6048,
      "Ġx": 6049,
      "Ġhap": 6050,
      "ordon": 6051,
      "erald": 6052,
      "mun": 6053,
      "ĠKim": 6054,
      "con": 6055,
      "ĠMalays": 6056,
      "hips": 6057,
      "kh": 6058,
      "Ġfully": 6059,
      "keep": 6060,
      "ĠBurn": 6061,
      "Ġnotes": 6062,
      "Ġopera": 6063,
      "54": 6064,
      "Ġregions": 6065,
      "Ġadministrative": 6066,
      "ublin": 6067,
      "anning": 6068,
      "ĠHarry": 6069,
      "Ġsamp": 6070,
      "ifications": 6071,
      "Ġmarked": 6072,
      "Ġslight": 6073,
      "Ġ1935": 6074,
      "Ġir": 6075,
      "Ġoldest": 6076,
      "enny": 6077,
      "Ġslow": 6078,
      "ĠQuebec": 6079,
      "Ġcompletely": 6080,
      "Ġweight": 6081,
      "ician": 6082,
      "key": 6083,
      "ĠHor": 6084,
      "asters": 6085,
      "ĠAustria": 6086,
      "pet": 6087,
      "53": 6088,
      "wich": 6089,
      "ĠPu": 6090,
      "ĠSix": 6091,
      "see": 6092,
      "asion": 6093,
      "Ġlyrics": 6094,
      "aron": 6095,
      "Rail": 6096,
      "inch": 6097,
      "ĠGi": 6098,
      "77": 6099,
      "ĠCemetery": 6100,
      "Ġvess": 6101,
      "igration": 6102,
      "ĠPier": 6103,
      "Ġburied": 6104,
      "ĠHu": 6105,
      "Ġfestival": 6106,
      "Ġsoutheast": 6107,
      "ymn": 6108,
      "iat": 6109,
      "ĠHur": 6110,
      "ĠTurn": 6111,
      "1986": 6112,
      "ecticut": 6113,
      "aph": 6114,
      "anes": 6115,
      "Ġtele": 6116,
      "Ġreference": 6117,
      "Ġconflict": 6118,
      "ĠFederation": 6119,
      "Ġleadership": 6120,
      "Ġstre": 6121,
      "1984": 6122,
      "Ġloan": 6123,
      "Ġhousing": 6124,
      "Ġcancer": 6125,
      "Ġimpact": 6126,
      "ĠRen": 6127,
      "Ġ38": 6128,
      "ĠVi": 6129,
      "ibb": 6130,
      "Ġdoub": 6131,
      "Ġcondition": 6132,
      "Ġ...": 6133,
      "ĠBos": 6134,
      "ĠHard": 6135,
      "ĠSound": 6136,
      "Ġvs": 6137,
      "ĠJer": 6138,
      "Ġgirls": 6139,
      "Ġmut": 6140,
      "Ġsimply": 6141,
      "Ġcontact": 6142,
      "Ġfans": 6143,
      "Ġgra": 6144,
      "ĠPolit": 6145,
      "Ġprincipal": 6146,
      "Ġfelt": 6147,
      "ãĥ": 6148,
      "Ġauthorities": 6149,
      "ĠInfantry": 6150,
      "Ġportray": 6151,
      "Ġpaid": 6152,
      "ropical": 6153,
      "aver": 6154,
      "ĠNic": 6155,
      "Ġsafety": 6156,
      "lywood": 6157,
      "Ġreports": 6158,
      "Ġpurpose": 6159,
      "ĠMiller": 6160,
      "Ġdraft": 6161,
      "Ġthings": 6162,
      "Ġplayoff": 6163,
      "Ġtower": 6164,
      "Ġinhabit": 6165,
      "ĠFM": 6166,
      "Ġjourn": 6167,
      "raine": 6168,
      "acts": 6169,
      "Ġeas": 6170,
      "rator": 6171,
      "Ġce": 6172,
      "Ġtried": 6173,
      "ĠKal": 6174,
      "ĠTen": 6175,
      "Ġmaintain": 6176,
      "miss": 6177,
      "ĠPhilippines": 6178,
      "Ġcombat": 6179,
      "FM": 6180,
      "ĠTest": 6181,
      "Ġformation": 6182,
      "Ġhy": 6183,
      "Ġexpected": 6184,
      "Ġreceive": 6185,
      "Ġgrowing": 6186,
      "ĠEntertainment": 6187,
      "Ġvehicle": 6188,
      "Dav": 6189,
      "iny": 6190,
      "wealth": 6191,
      "Ġsettled": 6192,
      "Ġcritical": 6193,
      "ĠBack": 6194,
      "Ġends": 6195,
      "Euro": 6196,
      "Ġhorse": 6197,
      "Ġallowing": 6198,
      "econd": 6199,
      "Ġsucceeded": 6200,
      "ĠHeart": 6201,
      "Ġbrothers": 6202,
      "Ġtwenty": 6203,
      "1983": 6204,
      "Ġ33": 6205,
      "Ġfinish": 6206,
      "Ġreform": 6207,
      "Ġexperiment": 6208,
      "ĠKhan": 6209,
      "Ġenj": 6210,
      "ĠMedical": 6211,
      "Ital": 6212,
      "ĠManchester": 6213,
      "Ġcovers": 6214,
      "Ġunique": 6215,
      "Act": 6216,
      "2018": 6217,
      "Ġbow": 6218,
      "Ġspot": 6219,
      "dale": 6220,
      "rate": 6221,
      "Ġfighting": 6222,
      "unch": 6223,
      "ĠShort": 6224,
      "redited": 6225,
      "PS": 6226,
      "evin": 6227,
      "Ġfolk": 6228,
      "tters": 6229,
      "Ġcart": 6230,
      "ĠFree": 6231,
      "Ġpolitics": 6232,
      "Ġanimals": 6233,
      "Ġbought": 6234,
      "ĠAnderson": 6235,
      "Ġ1928": 6236,
      "inth": 6237,
      "Ġpoll": 6238,
      "78": 6239,
      "ĠNap": 6240,
      "odox": 6241,
      "ĠVietnam": 6242,
      "Ġsuggested": 6243,
      "ĠStory": 6244,
      "rum": 6245,
      "abama": 6246,
      "Ġeffort": 6247,
      "leased": 6248,
      "from": 6249,
      "Exp": 6250,
      "roup": 6251,
      "ĠHamilton": 6252,
      "bra": 6253,
      "ĠDiego": 6254,
      "ĠPlaces": 6255,
      "uj": 6256,
      "ĠFord": 6257,
      "Ġexisting": 6258,
      "\"),": 6259,
      "apolis": 6260,
      "Ġcycl": 6261,
      "Ġmap": 6262,
      "William": 6263,
      "Black": 6264,
      "ĠHonor": 6265,
      "oen": 6266,
      "1985": 6267,
      "Ġvolume": 6268,
      "ĠBon": 6269,
      "uled": 6270,
      "aste": 6271,
      "ban": 6272,
      "ĠTelevision": 6273,
      "Ġ1919": 6274,
      "Ġheadquarters": 6275,
      "Ġimage": 6276,
      "Ġrecip": 6277,
      "ulate": 6278,
      "Ġtrees": 6279,
      "Ġpair": 6280,
      "Ġsupply": 6281,
      "cluded": 6282,
      "ÃŃa": 6283,
      "otic": 6284,
      "organ": 6285,
      "ĠAcc": 6286,
      "ĠIr": 6287,
      "iÃ³n": 6288,
      "Ġmusician": 6289,
      "leep": 6290,
      "oured": 6291,
      "Ġaired": 6292,
      "ĠMexican": 6293,
      "ĠLI": 6294,
      "allery": 6295,
      "Ġ1929": 6296,
      "ĠEconom": 6297,
      "Ġonto": 6298,
      "Ġagent": 6299,
      "Äĥ": 6300,
      "Ġexpansion": 6301,
      "ques": 6302,
      "ĠSingapore": 6303,
      "Ġreviews": 6304,
      "ĠBowl": 6305,
      "Ġteaching": 6306,
      "Ġ1933": 6307,
      "ĠRon": 6308,
      "ĠOrchestra": 6309,
      "erved": 6310,
      "ĠMoscow": 6311,
      "Ġwear": 6312,
      "Ġarticles": 6313,
      "iami": 6314,
      "Cast": 6315,
      "Ġreturning": 6316,
      "Ġvisit": 6317,
      "Ġtim": 6318,
      "orf": 6319,
      "ials": 6320,
      "Ġshowed": 6321,
      "achers": 6322,
      "Ð½": 6323,
      "Ġhero": 6324,
      "ĠSoc": 6325,
      "ĠOklahoma": 6326,
      "Å«": 6327,
      "Ġmill": 6328,
      "Ġpromotion": 6329,
      "ĠFer": 6330,
      "Ġsingers": 6331,
      "GB": 6332,
      "Ġattempts": 6333,
      "ĠConnecticut": 6334,
      "Dec": 6335,
      "Bo": 6336,
      "oven": 6337,
      "ttp": 6338,
      "ĠSunday": 6339,
      "iva": 6340,
      "www": 6341,
      "ĠLincoln": 6342,
      "Ġ1914": 6343,
      "1979": 6344,
      "ĠSpace": 6345,
      "ĠStand": 6346,
      "1960": 6347,
      "Ġconference": 6348,
      "Ġaddress": 6349,
      "Ġauthority": 6350,
      "iplom": 6351,
      "Christ": 6352,
      "Ġmom": 6353,
      "rast": 6354,
      "Ġsons": 6355,
      "Ġexchange": 6356,
      "ĠBoys": 6357,
      "ĠDesign": 6358,
      "agu": 6359,
      "Ġfigures": 6360,
      "ski": 6361,
      "2019": 6362,
      "ĠDream": 6363,
      "ĠIV": 6364,
      "everal": 6365,
      "Ġvalley": 6366,
      "ĠAM": 6367,
      "uccess": 6368,
      "ĠIndones": 6369,
      "uh": 6370,
      "irty": 6371,
      "Ġ1912": 6372,
      "Ġsides": 6373,
      "ĠOd": 6374,
      "Ġrob": 6375,
      "Â°": 6376,
      "oes": 6377,
      "Ġroyal": 6378,
      "ĠPoint": 6379,
      "Ġsportspeople": 6380,
      "Ġstream": 6381,
      "ĠNev": 6382,
      "ĠEric": 6383,
      "ikh": 6384,
      "Ġguest": 6385,
      "ĠIowa": 6386,
      "Ġ1934": 6387,
      "elve": 6388,
      "Ġhabit": 6389,
      "cont": 6390,
      "1982": 6391,
      "Ġmeant": 6392,
      "Ġfrequently": 6393,
      "ĠHoward": 6394,
      "Since": 6395,
      "Ġgod": 6396,
      "ĠDisc": 6397,
      "Ġ37": 6398,
      "ĠOt": 6399,
      "Ġmorning": 6400,
      "inder": 6401,
      "uses": 6402,
      "Ġcab": 6403,
      "Ġretirement": 6404,
      "ĠAud": 6405,
      "IT": 6406,
      "ĠTs": 6407,
      "Ġlot": 6408,
      "Ġcert": 6409,
      "Ġsurn": 6410,
      "Cont": 6411,
      "tsburgh": 6412,
      "ĠZh": 6413,
      "ĠModern": 6414,
      "Ġ1932": 6415,
      "ĠNick": 6416,
      "AM": 6417,
      "Ġseem": 6418,
      "Ġraces": 6419,
      "Ġcompilation": 6420,
      "net": 6421,
      "Ġadvert": 6422,
      "Ġoccupied": 6423,
      "endment": 6424,
      "Ġstock": 6425,
      "irds": 6426,
      "Ġnominated": 6427,
      "ĠArgentina": 6428,
      "bar": 6429,
      "glas": 6430,
      "ĠDoctor": 6431,
      "Ġmaterials": 6432,
      "Ġcontain": 6433,
      "Ġyellow": 6434,
      "Ġmeasure": 6435,
      "veland": 6436,
      "Ġpublication": 6437,
      "ĠAD": 6438,
      "Ġtrust": 6439,
      "ogen": 6440,
      "ĠAmericans": 6441,
      "ĠCroat": 6442,
      "ĠStone": 6443,
      "Ġcoal": 6444,
      "Ġsets": 6445,
      "ĠMoon": 6446,
      "ĠDark": 6447,
      "Ġcustom": 6448,
      "ĠDor": 6449,
      "ĠMas": 6450,
      "Order": 6451,
      "ĠSenior": 6452,
      "ieval": 6453,
      "Ġpowerful": 6454,
      "Ġstarring": 6455,
      "ĠWolf": 6456,
      "Ġbeaut": 6457,
      "Ġentry": 6458,
      "Ġsquare": 6459,
      "season": 6460,
      "North": 6461,
      "imore": 6462,
      "car": 6463,
      "Ġrelatively": 6464,
      "Ġending": 6465,
      "aming": 6466,
      "Ġseg": 6467,
      "Ġsituation": 6468,
      "Ġdropped": 6469,
      "1981": 6470,
      "Ġ1924": 6471,
      "Rep": 6472,
      "Ġsubsequent": 6473,
      "ĠPlan": 6474,
      "Ġcommander": 6475,
      "Ġdaily": 6476,
      "ĠAdvent": 6477,
      "Ġbrand": 6478,
      "isa": 6479,
      "ĠTai": 6480,
      "Ġapplied": 6481,
      "related": 6482,
      "urance": 6483,
      "aly": 6484,
      "FFFF": 6485,
      "ĠHand": 6486,
      "ogy": 6487,
      "Ġarrested": 6488,
      "Ġvot": 6489,
      "ĠTit": 6490,
      "Ġholds": 6491,
      "Ġflow": 6492,
      "ĠLike": 6493,
      "ĠBrigade": 6494,
      "Ġrefused": 6495,
      "ĠLabor": 6496,
      "Born": 6497,
      "ĠEach": 6498,
      "Ġdrive": 6499,
      "ĠQueensland": 6500,
      "ĠOp": 6501,
      "ĠBron": 6502,
      "Ġcompl": 6503,
      "Ġconverted": 6504,
      "Ġfinds": 6505,
      "Ġpartner": 6506,
      "ĠWhit": 6507,
      "92": 6508,
      "Ġletters": 6509,
      "ĠRoll": 6510,
      "ÑĢ": 6511,
      "ĠTurkish": 6512,
      "Ġ(),": 6513,
      "iable": 6514,
      "Ġresc": 6515,
      "Public": 6516,
      "rees": 6517,
      "Ġsac": 6518,
      "weet": 6519,
      "ĠRose": 6520,
      "Ġrot": 6521,
      "Ġinspired": 6522,
      "ĠServices": 6523,
      "Ġchosen": 6524,
      "ĠOak": 6525,
      "Ġjudge": 6526,
      "ĠGallery": 6527,
      "Ġachieved": 6528,
      "ĠStat": 6529,
      "awn": 6530,
      "ĠMember": 6531,
      "Ġextra": 6532,
      "ĠMagazine": 6533,
      "ographer": 6534,
      "thodox": 6535,
      "ĠJane": 6536,
      "Ġmunicipal": 6537,
      "ĠAlabama": 6538,
      "Ġadult": 6539,
      "Ġlit": 6540,
      "Br": 6541,
      "ĠCape": 6542,
      "ĠLow": 6543,
      "Ġalle": 6544,
      "Ġsouthwest": 6545,
      "Ġ1927": 6546,
      "Ġrow": 6547,
      "Ġrapid": 6548,
      "ĠDave": 6549,
      "Ġ1900": 6550,
      "Ġmachine": 6551,
      "Ġmerged": 6552,
      "ĠOffic": 6553,
      "ĠRegional": 6554,
      "Ġdefined": 6555,
      "Ġpassing": 6556,
      "Ġmetres": 6557,
      "Following": 6558,
      "Ġmulti": 6559,
      "Ġconvers": 6560,
      "Af": 6561,
      "Ġflood": 6562,
      "Ġ1931": 6563,
      "ĠManagement": 6564,
      "Ġproceed": 6565,
      "ĠPict": 6566,
      "inguished": 6567,
      "imens": 6568,
      "Official": 6569,
      "olas": 6570,
      "ĠAuthor": 6571,
      "je": 6572,
      "Ġwant": 6573,
      "Former": 6574,
      "Ġunable": 6575,
      "uties": 6576,
      "94": 6577,
      "Ġ1917": 6578,
      "Ġwinter": 6579,
      "PA": 6580,
      "ĠHouston": 6581,
      "Sing": 6582,
      "ented": 6583,
      "eption": 6584,
      "ĠWho": 6585,
      "ĠSilver": 6586,
      "allas": 6587,
      "di": 6588,
      "zen": 6589,
      "Ġlaunch": 6590,
      "Ġmel": 6591,
      "ĠFront": 6592,
      "Ġpainter": 6593,
      "pa": 6594,
      "ĠForces": 6595,
      "Ġdefin": 6596,
      "Ġvenues": 6597,
      "agues": 6598,
      "jan": 6599,
      "While": 6600,
      "Ġethnic": 6601,
      "Ġnormal": 6602,
      "93": 6603,
      "Ġreject": 6604,
      "Ġperforming": 6605,
      "iley": 6606,
      "Ġcommittee": 6607,
      "Ġexam": 6608,
      "Ġjazz": 6609,
      "ĠAllen": 6610,
      "Ġapart": 6611,
      "iti": 6612,
      "Ġalternative": 6613,
      "Ġeffective": 6614,
      "Car": 6615,
      "ĠLegisl": 6616,
      "Ġcompetitions": 6617,
      "Ġsixth": 6618,
      "Ġcopies": 6619,
      "burn": 6620,
      "Ġpilot": 6621,
      "wise": 6622,
      "Ġmis": 6623,
      "ĠDetroit": 6624,
      "ĠRecord": 6625,
      "esign": 6626,
      "antasy": 6627,
      "ĠCre": 6628,
      "box": 6629,
      "Ġresources": 6630,
      "Ġbul": 6631,
      "ĠDublin": 6632,
      "Ġmicro": 6633,
      "uly": 6634,
      "Ġvotes": 6635,
      "ĠChile": 6636,
      "Ġarrang": 6637,
      "Ġrang": 6638,
      "Ġbroke": 6639,
      "Ġnecessary": 6640,
      "Ġadvanced": 6641,
      "ega": 6642,
      "ĠWalter": 6643,
      "Ġseats": 6644,
      "Ġfields": 6645,
      "ĠTy": 6646,
      "Ġcontaining": 6647,
      "Ġnarrow": 6648,
      "Ġstraight": 6649,
      "ĠRun": 6650,
      "Ġaudience": 6651,
      "lines": 6652,
      "ĠAdam": 6653,
      "die": 6654,
      "don": 6655,
      "Ġdefend": 6656,
      "Ġ34": 6657,
      "To": 6658,
      "64": 6659,
      "ĠTrib": 6660,
      "style": 6661,
      "Ġextensive": 6662,
      "Ġsum": 6663,
      "ĠPatrick": 6664,
      "ĠNow": 6665,
      "ĠAlan": 6666,
      "Ġobtained": 6667,
      "iversary": 6668,
      "Ġaim": 6669,
      "Ġcenturies": 6670,
      "iang": 6671,
      "ĠEag": 6672,
      "Ġrain": 6673,
      "lets": 6674,
      "har": 6675,
      "Ġadap": 6676,
      "oly": 6677,
      "Ġapproved": 6678,
      "Ġparliament": 6679,
      "Ġscientific": 6680,
      "fit": 6681,
      "Ġrh": 6682,
      "Video": 6683,
      "engers": 6684,
      "Plot": 6685,
      "ĠLat": 6686,
      "char": 6687,
      "85": 6688,
      "Ġfought": 6689,
      "Ġentitled": 6690,
      "oslav": 6691,
      "Ġactions": 6692,
      "Ġenemy": 6693,
      "ĠComics": 6694,
      "Ġsimple": 6695,
      "ĠKey": 6696,
      "Ġattempted": 6697,
      "Ġspect": 6698,
      "ĠBeng": 6699,
      "Ġactresses": 6700,
      "ardo": 6701,
      "atab": 6702,
      "adow": 6703,
      "Ġprotection": 6704,
      "Ġmethods": 6705,
      "Ġ1922": 6706,
      "ugu": 6707,
      "illing": 6708,
      "Ġcomic": 6709,
      "ĠSri": 6710,
      "isters": 6711,
      "oking": 6712,
      "Ġearth": 6713,
      "Ġmemory": 6714,
      "Ġhistorian": 6715,
      "orro": 6716,
      "Ġrival": 6717,
      "ĠJacob": 6718,
      "1978": 6719,
      "Ġ1910": 6720,
      "Military": 6721,
      "Ġsomething": 6722,
      "rant": 6723,
      "ĠAge": 6724,
      "Ġcal": 6725,
      "Some": 6726,
      "Ġharm": 6727,
      "ĠRa": 6728,
      "ifically": 6729,
      "ST": 6730,
      "Ġrecordings": 6731,
      "icians": 6732,
      "Ġcalls": 6733,
      "Ġexclus": 6734,
      "Sub": 6735,
      "Ġ1926": 6736,
      "Ġguard": 6737,
      "ipe": 6738,
      "uilt": 6739,
      "stream": 6740,
      "aby": 6741,
      "Ġnob": 6742,
      "Ġsay": 6743,
      "Ġconfirmed": 6744,
      "Ġinhabitants": 6745,
      "ĠÄ": 6746,
      "Ġkil": 6747,
      "Ġbal": 6748,
      "Ġhappen": 6749,
      "Ġlocations": 6750,
      "Ġsurvey": 6751,
      "Ġdriver": 6752,
      "ĠChildren": 6753,
      "eway": 6754,
      "ĠDick": 6755,
      "iful": 6756,
      "Qu": 6757,
      "Ġunderst": 6758,
      "Ġbat": 6759,
      "istry": 6760,
      "inema": 6761,
      "iamond": 6762,
      "ĠLtd": 6763,
      "Ġhotel": 6764,
      "night": 6765,
      "Ass": 6766,
      "ĠPortuguese": 6767,
      "ĠTig": 6768,
      "''": 6769,
      "Phil": 6770,
      "ĠLeb": 6771,
      "Ġpiece": 6772,
      "ĠMit": 6773,
      "ĠBou": 6774,
      "ĠAffairs": 6775,
      "Ġconsum": 6776,
      "Ġcreating": 6777,
      "thes": 6778,
      "Ġincident": 6779,
      "ĠIslamic": 6780,
      "ĠReb": 6781,
      "ĠGard": 6782,
      "2020": 6783,
      "Ġopposition": 6784,
      "Ġapparent": 6785,
      "Har": 6786,
      "orter": 6787,
      "89": 6788,
      "Ġprepar": 6789,
      "ĠMPs": 6790,
      "low": 6791,
      "ĠBah": 6792,
      "Ġnuclear": 6793,
      "Ġfounding": 6794,
      "ĠSon": 6795,
      "Ã©s": 6796,
      "olo": 6797,
      "Ġ1921": 6798,
      "Ġimpr": 6799,
      "Ġjur": 6800,
      "ĠLouisiana": 6801,
      "Ġpermanent": 6802,
      "adi": 6803,
      "prise": 6804,
      "ĠBuddh": 6805,
      "boards": 6806,
      "jo": 6807,
      "ĠCow": 6808,
      "ĠKat": 6809,
      "Ġshortly": 6810,
      "enez": 6811,
      "Ġsoccer": 6812,
      "ĠCab": 6813,
      "Ġ1923": 6814,
      "Ġdirectors": 6815,
      "ĠHills": 6816,
      "Sup": 6817,
      "aved": 6818,
      "Ġ49": 6819,
      "ropri": 6820,
      "fort": 6821,
      "Ġcho": 6822,
      "Ġcalc": 6823,
      "ĠDomin": 6824,
      "Ġlands": 6825,
      "Ġlearning": 6826,
      "ĠJesus": 6827,
      "elli": 6828,
      "Ġconsecutive": 6829,
      "Ġdoctor": 6830,
      "ĠCost": 6831,
      "Ġring": 6832,
      "1974": 6833,
      "ĠNar": 6834,
      "Ġsand": 6835,
      "ĠForeign": 6836,
      "acent": 6837,
      "Ġdefense": 6838,
      "Ġple": 6839,
      "ĠDu": 6840,
      "ista": 6841,
      "Ġreligion": 6842,
      "ĠAbd": 6843,
      "Ġenjoy": 6844,
      "Ġpros": 6845,
      "Ġvirt": 6846,
      "ĠSu": 6847,
      "onder": 6848,
      "azines": 6849,
      "ĠStaff": 6850,
      "olec": 6851,
      "ĠNich": 6852,
      "ĠRugby": 6853,
      "lections": 6854,
      "iki": 6855,
      "ĠSchools": 6856,
      "ĠStudios": 6857,
      "Ġshared": 6858,
      "Ġconsisted": 6859,
      "fficient": 6860,
      "Ġattacked": 6861,
      "ek": 6862,
      "Ġultimately": 6863,
      "Ġ1925": 6864,
      "Ġacts": 6865,
      "ĠReal": 6866,
      "ĠAnthony": 6867,
      "appy": 6868,
      "Ġrefers": 6869,
      "TC": 6870,
      "Life": 6871,
      "Ġvent": 6872,
      "Ġcompris": 6873,
      "hammad": 6874,
      "Jan": 6875,
      "ĠPope": 6876,
      "oa": 6877,
      "aser": 6878,
      "ĠBan": 6879,
      "East": 6880,
      "fall": 6881,
      "issance": 6882,
      "Ġopposed": 6883,
      "ippi": 6884,
      "Ġbegin": 6885,
      "Ġproperties": 6886,
      "ĠMach": 6887,
      "ĠGordon": 6888,
      "1976": 6889,
      "Ġfuel": 6890,
      "ĠTokyo": 6891,
      "Ġpoetry": 6892,
      "hing": 6893,
      "ourses": 6894,
      "ĠJam": 6895,
      "stan": 6896,
      "ĠMoore": 6897,
      "Ġmind": 6898,
      "orough": 6899,
      "ĠAC": 6900,
      "ussian": 6901,
      "Ġhyp": 6902,
      "ĠLiter": 6903,
      "ĠStew": 6904,
      "opter": 6905,
      "posed": 6906,
      "ĠGram": 6907,
      "ghan": 6908,
      "Ġoffices": 6909,
      "oming": 6910,
      "porter": 6911,
      "Ġvac": 6912,
      "ĠBuilding": 6913,
      "oyd": 6914,
      "ĠLabour": 6915,
      "ĠVar": 6916,
      "Ġbey": 6917,
      "aux": 6918,
      "ryst": 6919,
      "Ġliber": 6920,
      "ĠLu": 6921,
      "Ġ1908": 6922,
      "87": 6923,
      "Ġimpl": 6924,
      "phas": 6925,
      "Ġpainting": 6926,
      "erts": 6927,
      "Ġpun": 6928,
      "ĠBroadcast": 6929,
      "\").": 6930,
      "allel": 6931,
      "Ñģ": 6932,
      "Ġsetting": 6933,
      "Women": 6934,
      "Ġboys": 6935,
      "ĠDur": 6936,
      "Ġgar": 6937,
      "borough": 6938,
      "Ġderived": 6939,
      "Ġroads": 6940,
      "Ġsense": 6941,
      "riff": 6942,
      "Ġchampions": 6943,
      "ĠSel": 6944,
      "ĠPhill": 6945,
      "wen": 6946,
      "Ġrisk": 6947,
      "Ġeducational": 6948,
      "Ġweapons": 6949,
      "hat": 6950,
      "agen": 6951,
      "1977": 6952,
      "place": 6953,
      "Ġtun": 6954,
      "Ġstatistics": 6955,
      "ĠSin": 6956,
      "Ġstorm": 6957,
      "Ġprofile": 6958,
      "arks": 6959,
      "structure": 6960,
      "Education": 6961,
      "Ġvisited": 6962,
      "ĠArk": 6963,
      "ordan": 6964,
      "Major": 6965,
      "ĠWell": 6966,
      "Ġbeyond": 6967,
      "Ġ(;": 6968,
      "Reg": 6969,
      "Ġsignal": 6970,
      "Expatriate": 6971,
      "Ġscript": 6972,
      "ussion": 6973,
      "Background": 6974,
      "Ġhomes": 6975,
      "Ġcommissioned": 6976,
      "Ġ300": 6977,
      "ĠKam": 6978,
      "Ġdeploy": 6979,
      "ĠHans": 6980,
      "Ġapplication": 6981,
      "Ġabandoned": 6982,
      "uted": 6983,
      "ĠĊĠĊĠĊĠĊ": 6984,
      "ĠFinn": 6985,
      "Ġheard": 6986,
      "Ġbishop": 6987,
      "iments": 6988,
      "orage": 6989,
      "mit": 6990,
      "anger": 6991,
      "Ġneeds": 6992,
      "Ġkilling": 6993,
      "ĠNag": 6994,
      "background": 6995,
      "tic": 6996,
      "Ġinstruct": 6997,
      "Ġhydro": 6998,
      "Ġescape": 6999,
      "ĠDouglas": 7000,
      "ront": 7001,
      "Ġham": 7002,
      "Ġcritics": 7003,
      "ĠDead": 7004,
      "Ġrear": 7005,
      "ivate": 7006,
      "Mon": 7007,
      "School": 7008,
      "ĠTel": 7009,
      "Ġfunctions": 7010,
      "Ġbusinesses": 7011,
      "Ġidentity": 7012,
      "ĠTan": 7013,
      "Ġsteel": 7014,
      "Ġox": 7015,
      "Ġpassenger": 7016,
      "Ġheight": 7017,
      "Ġbands": 7018,
      "igation": 7019,
      "Ġmedium": 7020,
      "Ġrough": 7021,
      "ĠSecurity": 7022,
      "friend": 7023,
      "Ġhired": 7024,
      "Ġinternal": 7025,
      "Ġrespond": 7026,
      "Ġnick": 7027,
      "Ġtechnical": 7028,
      "Ġeconomy": 7029,
      "ĠPot": 7030,
      "OR": 7031,
      "ĠSquare": 7032,
      "Ġcorrect": 7033,
      "ĠBuck": 7034,
      "ĠMiami": 7035,
      "ĠFriend": 7036,
      "Ġyour": 7037,
      "High": 7038,
      "CAA": 7039,
      "Ġglass": 7040,
      "orus": 7041,
      "1975": 7042,
      "Ġauth": 7043,
      "Ġaged": 7044,
      "ĠAli": 7045,
      "Ġ48": 7046,
      "cha": 7047,
      "ĠElementary": 7048,
      "Ġcontrast": 7049,
      "Ġagricultural": 7050,
      "ici": 7051,
      "uma": 7052,
      "Although": 7053,
      "Ġplanning": 7054,
      "67": 7055,
      "Ġbasic": 7056,
      "Ġprogramme": 7057,
      "actions": 7058,
      "'m": 7059,
      "Ġtry": 7060,
      "ĠMand": 7061,
      "iformes": 7062,
      "active": 7063,
      "ographical": 7064,
      "dam": 7065,
      "while": 7066,
      "Ġpowers": 7067,
      "ĠToday": 7068,
      "istol": 7069,
      "ĠExpress": 7070,
      "mith": 7071,
      "Ġconnection": 7072,
      "ridges": 7073,
      "SI": 7074,
      "Ġ1915": 7075,
      "ĠNaval": 7076,
      "ĠNorwegian": 7077,
      "gency": 7078,
      "ĠGarden": 7079,
      "olph": 7080,
      "rama": 7081,
      "set": 7082,
      "Ġacid": 7083,
      "Ġslightly": 7084,
      "iot": 7085,
      "ĠKa": 7086,
      "angel": 7087,
      "First": 7088,
      "Ġiron": 7089,
      "Ġcompar": 7090,
      "GA": 7091,
      "emble": 7092,
      "Ġherself": 7093,
      "Ġheavily": 7094,
      "Ġreceiving": 7095,
      "Ġchalleng": 7096,
      "Ġkick": 7097,
      "Per": 7098,
      "stitutional": 7099,
      "pass": 7100,
      "ĠOcean": 7101,
      "Ġmatter": 7102,
      "Ġavoid": 7103,
      "My": 7104,
      "1972": 7105,
      "lem": 7106,
      "ĠPA": 7107,
      "1973": 7108,
      "Ġfun": 7109,
      "igious": 7110,
      "65": 7111,
      "91": 7112,
      "EA": 7113,
      "Ġpup": 7114,
      "ecution": 7115,
      "Ġstarts": 7116,
      "oni": 7117,
      "ĠNik": 7118,
      "Europe": 7119,
      "EFA": 7120,
      "Sportspeople": 7121,
      "Ġtouchdown": 7122,
      "issippi": 7123,
      "Ġpriest": 7124,
      "Ġentrance": 7125,
      "Ste": 7126,
      "Ġspok": 7127,
      "ĠLyn": 7128,
      "ĠMrs": 7129,
      "ho": 7130,
      "ĠCommonwealth": 7131,
      "uri": 7132,
      "ĠGirls": 7133,
      "ples": 7134,
      "iginally": 7135,
      "ĠWelsh": 7136,
      "ĠVis": 7137,
      "ĠJoh": 7138,
      "Tr": 7139,
      "ĠAmong": 7140,
      "Ġturns": 7141,
      "Ġrenov": 7142,
      "Indian": 7143,
      "Ġhits": 7144,
      "Dr": 7145,
      "Albums": 7146,
      "ĠBelgium": 7147,
      "nold": 7148,
      "Ġtend": 7149,
      "Ġfly": 7150,
      "othing": 7151,
      "Ġnegot": 7152,
      "Ġrecognition": 7153,
      "68": 7154,
      "iations": 7155,
      "ĠLast": 7156,
      "ĠDeath": 7157,
      "Ġmaximum": 7158,
      "ĠCour": 7159,
      "where": 7160,
      "Ġorders": 7161,
      "ĠAdv": 7162,
      "ĠFarm": 7163,
      "ĠBrothers": 7164,
      "fe": 7165,
      "ĠVin": 7166,
      "ĠBefore": 7167,
      "ĠSpr": 7168,
      ":#": 7169,
      "Academ": 7170,
      "Ġvo": 7171,
      "Ġpages": 7172,
      "anny": 7173,
      "ĠInformation": 7174,
      "David": 7175,
      "rait": 7176,
      "elson": 7177,
      "Ġholding": 7178,
      "Ġglobal": 7179,
      "rep": 7180,
      "ĠFIFA": 7181,
      "ensity": 7182,
      "ĠMontreal": 7183,
      "Ġcas": 7184,
      "ocation": 7185,
      "Ġpossess": 7186,
      "Ġdetermined": 7187,
      "ĠSocorro": 7188,
      "udget": 7189,
      "Roman": 7190,
      "Ġtoward": 7191,
      "Ġ(,": 7192,
      "riev": 7193,
      "ser": 7194,
      "rome": 7195,
      "ĠKings": 7196,
      "Ġsail": 7197,
      "Ġfailure": 7198,
      "ĠKl": 7199,
      "Ġcontributed": 7200,
      "ĠAntonio": 7201,
      "aza": 7202,
      "Ġmart": 7203,
      "otte": 7204,
      "rett": 7205,
      "Ġspeech": 7206,
      "gal": 7207,
      "Ġliterary": 7208,
      "Buildings": 7209,
      "Ab": 7210,
      "Leg": 7211,
      "ologists": 7212,
      "Ġbriefly": 7213,
      "ĠVillage": 7214,
      "star": 7215,
      "enh": 7216,
      "ĠBeat": 7217,
      "Ġ42": 7218,
      "iner": 7219,
      "ĠOrthodox": 7220,
      "Ġways": 7221,
      "HS": 7222,
      "ĠPortugal": 7223,
      "ĠImp": 7224,
      "ĠSport": 7225,
      "ocked": 7226,
      "scape": 7227,
      "Ġdecades": 7228,
      "Ġconstant": 7229,
      "risis": 7230,
      "Ġ75": 7231,
      "ĠWorks": 7232,
      "Ġlicens": 7233,
      "icide": 7234,
      "ĠThird": 7235,
      "Ġrein": 7236,
      "vements": 7237,
      "ĠRoberts": 7238,
      "ache": 7239,
      "1950": 7240,
      "Ġanth": 7241,
      "Ġalleged": 7242,
      "gor": 7243,
      "po": 7244,
      "ovakia": 7245,
      "Ġexistence": 7246,
      "Ġreflect": 7247,
      "Ġwrite": 7248,
      "Ġinstall": 7249,
      "ÅŁ": 7250,
      "ĠLINE": 7251,
      "Scott": 7252,
      "idden": 7253,
      "Ġ1916": 7254,
      "Ġadvent": 7255,
      "Ġprotect": 7256,
      "Ġcontained": 7257,
      "ĠDa": 7258,
      "ampton": 7259,
      "Ġadapted": 7260,
      "Most": 7261,
      "ĠOnly": 7262,
      "ĠThrough": 7263,
      "Ġplot": 7264,
      "ĠHarris": 7265,
      "ouses": 7266,
      "ivalent": 7267,
      "Ġpropos": 7268,
      "Ġsan": 7269,
      "uda": 7270,
      "rane": 7271,
      "Ġroutes": 7272,
      "Ġreasons": 7273,
      "ishops": 7274,
      "Ġextrem": 7275,
      "Ġadvant": 7276,
      "Ġpieces": 7277,
      "Ġgrade": 7278,
      "Ġcausing": 7279,
      "vo": 7280,
      "ĠBry": 7281,
      "oviÄĩ": 7282,
      "rine": 7283,
      "Ġwalls": 7284,
      "igenous": 7285,
      "Ġenvironmental": 7286,
      "liest": 7287,
      "ĠIndependent": 7288,
      "ĠPap": 7289,
      "eland": 7290,
      "Ġstandards": 7291,
      "Ġbodies": 7292,
      "Ġstores": 7293,
      "Ġdecor": 7294,
      "inners": 7295,
      "come": 7296,
      "ĠLINEAR": 7297,
      "ucks": 7298,
      "Ġdoing": 7299,
      "Ġgeneration": 7300,
      "isms": 7301,
      "ĠPrix": 7302,
      "ĠSingh": 7303,
      "ĠErn": 7304,
      "Ġhill": 7305,
      "ĠPittsburgh": 7306,
      "1968": 7307,
      "Ġdecre": 7308,
      "Ġcrow": 7309,
      "Best": 7310,
      "found": 7311,
      "Ġ400": 7312,
      "Ġbillion": 7313,
      "Ġreaching": 7314,
      "Ġpolic": 7315,
      "Ġextension": 7316,
      "Play": 7317,
      "ĠGab": 7318,
      "ĠCall": 7319,
      "ĠLang": 7320,
      "Ġmaintained": 7321,
      "ĠRick": 7322,
      "inburgh": 7323,
      "ĠJay": 7324,
      "fully": 7325,
      "Ġindependence": 7326,
      "Ġdisapp": 7327,
      "Ġsought": 7328,
      "grade": 7329,
      "ĠâĢĺ": 7330,
      "Ġcollected": 7331,
      "Ġpremier": 7332,
      "Ġans": 7333,
      "arsh": 7334,
      "ĠIsraeli": 7335,
      "Ġbill": 7336,
      "ige": 7337,
      "Ġconsult": 7338,
      "Mich": 7339,
      "ĠInn": 7340,
      "ĠGuide": 7341,
      "chell": 7342,
      "DA": 7343,
      "Japanese": 7344,
      "amo": 7345,
      "Ġdomestic": 7346,
      "icts": 7347,
      "ĠBaltimore": 7348,
      "Ġguns": 7349,
      "lease": 7350,
      "ĠColomb": 7351,
      "Railway": 7352,
      "lad": 7353,
      "Ġmayor": 7354,
      "ĠAnne": 7355,
      "Ġtemperature": 7356,
      "Ġintroduction": 7357,
      "Ġphase": 7358,
      "sch": 7359,
      "Ġ1911": 7360,
      "achelor": 7361,
      "Ġshape": 7362,
      "ĠBecause": 7363,
      "aked": 7364,
      "uration": 7365,
      "Ġlocomot": 7366,
      "ÃŃn": 7367,
      "Rober": 7368,
      "including": 7369,
      "1971": 7370,
      "Ġsolid": 7371,
      "forc": 7372,
      "Ġlect": 7373,
      "Ġfashion": 7374,
      "ĠDC": 7375,
      "owned": 7376,
      "Ġcorner": 7377,
      "ĠLanc": 7378,
      "Ġtrying": 7379,
      "Ġ1913": 7380,
      "oria": 7381,
      "ayan": 7382,
      "enz": 7383,
      "urday": 7384,
      "Ġcarry": 7385,
      "ĠRailroad": 7386,
      "Ġsuburb": 7387,
      "term": 7388,
      "point": 7389,
      "pan": 7390,
      "anned": 7391,
      "osite": 7392,
      "father": 7393,
      "Ġreign": 7394,
      "Ġoperate": 7395,
      "Ġpull": 7396,
      "Ġdynasty": 7397,
      "Ġfinishing": 7398,
      "ĠHotel": 7399,
      "ouver": 7400,
      "Ġchurches": 7401,
      "Ġinvasion": 7402,
      "Medal": 7403,
      "Ġdiplom": 7404,
      "Ġclimate": 7405,
      "Ġsupporting": 7406,
      "ĠAst": 7407,
      "Over": 7408,
      "aduate": 7409,
      "Ġanimal": 7410,
      "ogan": 7411,
      "ĠTamil": 7412,
      "LC": 7413,
      "Ġconce": 7414,
      "Star": 7415,
      "ĠRegulations": 7416,
      "ĠIl": 7417,
      "olly": 7418,
      "Writ": 7419,
      "Ġwealth": 7420,
      "tery": 7421,
      "Club": 7422,
      "ando": 7423,
      "ni": 7424,
      "Ec": 7425,
      "Ġtranslation": 7426,
      "Ġsale": 7427,
      "Ġdefensive": 7428,
      "apes": 7429,
      "ĠMatthew": 7430,
      "Ġpatients": 7431,
      "spe": 7432,
      "ĠWy": 7433,
      "Ġvice": 7434,
      "ĠWhat": 7435,
      "Ġmand": 7436,
      "bound": 7437,
      "Ġhair": 7438,
      "after": 7439,
      "ĠVo": 7440,
      "run": 7441,
      "ologies": 7442,
      "Ġoccurs": 7443,
      "ĠImperial": 7444,
      "Ġinaug": 7445,
      "ĠCleveland": 7446,
      "ĠPublishing": 7447,
      "ĠBuff": 7448,
      "Ġscenes": 7449,
      "IN": 7450,
      "Ġappoint": 7451,
      "Rel": 7452,
      "inking": 7453,
      "Ġthrow": 7454,
      "haps": 7455,
      "Ġquite": 7456,
      "Ġrepresenting": 7457,
      "hard": 7458,
      "usal": 7459,
      "ĠFall": 7460,
      "Ġengaged": 7461,
      "Ġinstalled": 7462,
      "Ġanimated": 7463,
      "Ġemphas": 7464,
      "Ġjunior": 7465,
      "Ġhun": 7466,
      "You": 7467,
      "ĠKnight": 7468,
      "Ġfranch": 7469,
      "Ġworldwide": 7470,
      "ugoslav": 7471,
      "Ġconsisting": 7472,
      "Ġregarding": 7473,
      "ĠUN": 7474,
      "iop": 7475,
      "Ġlawyer": 7476,
      "ĠEarly": 7477,
      "ĠAdministration": 7478,
      "ĠIron": 7479,
      "72": 7480,
      "Ġestablishment": 7481,
      "ĠRoger": 7482,
      "ompson": 7483,
      "Ġgrad": 7484,
      "Ġsuccessfully": 7485,
      "song": 7486,
      "iac": 7487,
      "Ġbelieve": 7488,
      "Ġequal": 7489,
      "Ġrepresentative": 7490,
      "ĠSn": 7491,
      "Ġaid": 7492,
      "Ġtrav": 7493,
      "ĠJuan": 7494,
      "Ġrise": 7495,
      "Ġheads": 7496,
      "ĠSky": 7497,
      "ĠLin": 7498,
      "Ġboat": 7499,
      "Ġstrike": 7500,
      "ĠKevin": 7501,
      "aire": 7502,
      "ĠLieutenant": 7503,
      "Ġtwelve": 7504,
      "etry": 7505,
      "asure": 7506,
      "ĠPhys": 7507,
      "ĠBilly": 7508,
      "Ġresigned": 7509,
      "Ġeg": 7510,
      "ythm": 7511,
      "utation": 7512,
      "Ġscale": 7513,
      "ĊĊĠĊ": 7514,
      "1969": 7515,
      "San": 7516,
      "ĠABC": 7517,
      "ĠThen": 7518,
      "ĠAfghan": 7519,
      "yst": 7520,
      "Ġban": 7521,
      "rete": 7522,
      "ĠHug": 7523,
      "emen": 7524,
      "Ġentirely": 7525,
      "long": 7526,
      "ĠMcK": 7527,
      "yers": 7528,
      "Ġreserv": 7529,
      "Reception": 7530,
      "Ġalone": 7531,
      "Ġcauses": 7532,
      "hematics": 7533,
      "Ġerr": 7534,
      "Ġproved": 7535,
      "Ġinvolving": 7536,
      "ĠKaz": 7537,
      "Ġincorporated": 7538,
      "Ġclosely": 7539,
      "ĠInternet": 7540,
      "ĠNa": 7541,
      "ĠGer": 7542,
      "ĠLar": 7543,
      "obe": 7544,
      "uster": 7545,
      "Ġ64": 7546,
      "ĠKy": 7547,
      "Ġintersection": 7548,
      "Ġmagn": 7549,
      "ĠMetropolitan": 7550,
      "Ġislands": 7551,
      "Ġappeal": 7552,
      "mingham": 7553,
      "Ġgreatest": 7554,
      "Bar": 7555,
      "rainian": 7556,
      "Ġpartnership": 7557,
      "Ġobserved": 7558,
      "62": 7559,
      "ĠStewart": 7560,
      "Ġcommit": 7561,
      "Cent": 7562,
      "Ġdrivers": 7563,
      "Ġchampionships": 7564,
      "Personnel": 7565,
      "bishop": 7566,
      "ĠAthletic": 7567,
      "ĠFac": 7568,
      "III": 7569,
      "ĠRain": 7570,
      "ĠUkraine": 7571,
      "isf": 7572,
      "Ġinvestigation": 7573,
      "Ġemp": 7574,
      "Red": 7575,
      "Ġneighbour": 7576,
      "Ġinjured": 7577,
      "Genus": 7578,
      "ĠMicro": 7579,
      "Ġlaid": 7580,
      "ĠHop": 7581,
      "Ġtranslated": 7582,
      "ĠKarl": 7583,
      "ĠBull": 7584,
      "Ġsubsid": 7585,
      "oba": 7586,
      "Ġshall": 7587,
      "istant": 7588,
      "Histor": 7589,
      "eget": 7590,
      "ĠMem": 7591,
      "rÃ©": 7592,
      "Ġcriminal": 7593,
      "Ġdates": 7594,
      "Ġstrength": 7595,
      "ĠHollywood": 7596,
      "Ġadjacent": 7597,
      "74": 7598,
      "ĠBroadway": 7599,
      "itionally": 7600,
      "ĠMississippi": 7601,
      "ĠMcG": 7602,
      "Ġrequest": 7603,
      "ĠOttoman": 7604,
      "ĠDeb": 7605,
      "osm": 7606,
      "Ġincome": 7607,
      "nergy": 7608,
      "83": 7609,
      "ÑĤ": 7610,
      "Ġuncle": 7611,
      "omy": 7612,
      "ĠFrederick": 7613,
      "ĠRey": 7614,
      "Ġselection": 7615,
      "Ġresistance": 7616,
      "ĠSac": 7617,
      "orkshire": 7618,
      "ĠHistorical": 7619,
      "ĠDance": 7620,
      "ĠBruce": 7621,
      "itals": 7622,
      "ĠPalace": 7623,
      "ĠOpera": 7624,
      "Ġdeveloping": 7625,
      "ĠPlayer": 7626,
      "zi": 7627,
      "ĠMalaysia": 7628,
      "ĠLas": 7629,
      "ĠTun": 7630,
      "Ġleads": 7631,
      "Ġpassengers": 7632,
      "ĠRoc": 7633,
      "Ġwatch": 7634,
      "Ġfocused": 7635,
      "ĠEven": 7636,
      "Ġsust": 7637,
      "ĠWebsite": 7638,
      "Ġseems": 7639,
      "gery": 7640,
      "roc": 7641,
      "Ġfleet": 7642,
      "ĠLawrence": 7643,
      "ĠPear": 7644,
      "Ġmerch": 7645,
      ";\"": 7646,
      "84": 7647,
      "Ġdescription": 7648,
      "Ġcatal": 7649,
      "ĠWing": 7650,
      "ultan": 7651,
      "heel": 7652,
      "Ġcrossing": 7653,
      "ĠAtlanta": 7654,
      "astery": 7655,
      "2021": 7656,
      "ĠHungary": 7657,
      "ĠMission": 7658,
      "Ġment": 7659,
      "wall": 7660,
      "Ġfaith": 7661,
      "ĠPed": 7662,
      "Ġcomposers": 7663,
      "Ġfaced": 7664,
      "Ġwarn": 7665,
      "ĠAmb": 7666,
      "cussion": 7667,
      "ĠEdinburgh": 7668,
      "Ġchain": 7669,
      "Ġedited": 7670,
      "Ġexpressed": 7671,
      "ĠTerrit": 7672,
      "Ġformal": 7673,
      "olt": 7674,
      "ĠSamuel": 7675,
      "IV": 7676,
      "Ġ39": 7677,
      "Ġvoted": 7678,
      "Ġfemales": 7679,
      "ancouver": 7680,
      "Ġrailroad": 7681,
      "equ": 7682,
      "ĠLiver": 7683,
      "Ġchoice": 7684,
      "Ġfunding": 7685,
      "Ġruled": 7686,
      "ãģ": 7687,
      "clop": 7688,
      "Ġtor": 7689,
      "ĠHorn": 7690,
      "Ġsynd": 7691,
      "ferred": 7692,
      "ĠHig": 7693,
      "gow": 7694,
      "Ġexperi": 7695,
      "Populated": 7696,
      "Ã¥": 7697,
      "Ġinfluenced": 7698,
      "Ġregarded": 7699,
      "1967": 7700,
      "Ġsymbol": 7701,
      "iformesFamily": 7702,
      "Ġtechniques": 7703,
      "ĠPir": 7704,
      "Ġfactory": 7705,
      "living": 7706,
      "ĠDak": 7707,
      "Ġtrail": 7708,
      "ĠLaure": 7709,
      "81": 7710,
      "Ġfresh": 7711,
      "ĠAle": 7712,
      "Ġalt": 7713,
      "Ġgetting": 7714,
      "Ġpione": 7715,
      "Ġresidential": 7716,
      "Ġnickn": 7717,
      "ĠCrown": 7718,
      "Ġmist": 7719,
      "Ġjoining": 7720,
      "rik": 7721,
      "ellows": 7722,
      "Ã©t": 7723,
      "rons": 7724,
      "ĠPlace": 7725,
      "Ġvolunte": 7726,
      "Ġresear": 7727,
      "61": 7728,
      "Ġcopy": 7729,
      "Ġped": 7730,
      "ĠHere": 7731,
      "intend": 7732,
      "rastructure": 7733,
      "atabase": 7734,
      "ĠRabb": 7735,
      "Ġvisual": 7736,
      "Ġceremony": 7737,
      "ducational": 7738,
      "Ġconvent": 7739,
      "nia": 7740,
      "Ġfictional": 7741,
      "ĠYouth": 7742,
      "uy": 7743,
      "uits": 7744,
      "ĠRound": 7745,
      "Ð¾Ð": 7746,
      "ĠEver": 7747,
      "BI": 7748,
      "Ġsections": 7749,
      "Ġ44": 7750,
      "bridge": 7751,
      "Ġwaters": 7752,
      "Ġbrown": 7753,
      "ĠOri": 7754,
      "Ġlegend": 7755,
      "1964": 7756,
      "Ġscheduled": 7757,
      "ĠFA": 7758,
      "ĠPur": 7759,
      "Ġbelief": 7760,
      "ĠBrazilian": 7761,
      "Arch": 7762,
      "Ġquant": 7763,
      "ĠHawai": 7764,
      "ĠPuerto": 7765,
      "inisters": 7766,
      "Ġassess": 7767,
      "ÈĻ": 7768,
      "Ġcourses": 7769,
      "Ġinvited": 7770,
      "Ġreleg": 7771,
      "ĠReserve": 7772,
      "Ġdivisions": 7773,
      "Ġhour": 7774,
      "Ġreturns": 7775,
      "then": 7776,
      "kee": 7777,
      "Ġexped": 7778,
      "leton": 7779,
      "ĠAgain": 7780,
      "ĠDallas": 7781,
      "Ġpromote": 7782,
      "Ġfunds": 7783,
      "ommod": 7784,
      "ĠHarvard": 7785,
      "osaur": 7786,
      "Ġdescribes": 7787,
      "ĠRights": 7788,
      "Ġroof": 7789,
      "ĠSee": 7790,
      "Ġedge": 7791,
      "ĠRussell": 7792,
      "Pol": 7793,
      "James": 7794,
      "avalry": 7795,
      "oustic": 7796,
      "leans": 7797,
      "east": 7798,
      "ĠBeck": 7799,
      "Ġfram": 7800,
      "rak": 7801,
      "Ġtries": 7802,
      "Ġspecifically": 7803,
      "ĠBasketball": 7804,
      "ĠHeritage": 7805,
      "odge": 7806,
      "ushed": 7807,
      "1966": 7808,
      "Ġsomew": 7809,
      "ĠPa": 7810,
      "March": 7811,
      "Cities": 7812,
      "ĠChampion": 7813,
      "Her": 7814,
      "span": 7815,
      "79": 7816,
      "Ġpossibly": 7817,
      "71": 7818,
      "ĠHampshire": 7819,
      "Ġbroken": 7820,
      "ĠHungarian": 7821,
      "Ġtask": 7822,
      "%,": 7823,
      "Ġdivers": 7824,
      "anch": 7825,
      "ĠFern": 7826,
      "Ġsession": 7827,
      "ĠGran": 7828,
      "hr": 7829,
      "Ġrooms": 7830,
      "ĠReport": 7831,
      "82": 7832,
      "idel": 7833,
      "ĠDisney": 7834,
      "Ġactual": 7835,
      "Ġentertain": 7836,
      "ographics": 7837,
      "ĠDanish": 7838,
      "ĠBlues": 7839,
      "Ġimprove": 7840,
      "ĠDenmark": 7841,
      "Ġprice": 7842,
      "ĠHom": 7843,
      "Ġgets": 7844,
      "Ġproducing": 7845,
      "count": 7846,
      "Part": 7847,
      "ĠDean": 7848,
      "Ġearliest": 7849,
      "PC": 7850,
      "Ġimproved": 7851,
      "Bur": 7852,
      "ĠNob": 7853,
      "ĠExecutive": 7854,
      "not": 7855,
      "ĠMorgan": 7856,
      "isd": 7857,
      "ĠPas": 7858,
      "Ġcompete": 7859,
      "Ġsinging": 7860,
      "63": 7861,
      "dr": 7862,
      "Ġsell": 7863,
      "Ġsequence": 7864,
      "Ġgang": 7865,
      "ĠClin": 7866,
      "Ġgrounds": 7867,
      "uki": 7868,
      "tered": 7869,
      "ĠMargaret": 7870,
      "rat": 7871,
      "Ġvir": 7872,
      "ĠSurv": 7873,
      "ĠYears": 7874,
      "ĠPrincess": 7875,
      "zh": 7876,
      "Ġlimit": 7877,
      "Ġselect": 7878,
      "ĠRyan": 7879,
      "Ġimportance": 7880,
      "Ġlat": 7881,
      "Ġopin": 7882,
      "ĠFund": 7883,
      "final": 7884,
      "ĠYorkshire": 7885,
      "Ġstands": 7886,
      "clusion": 7887,
      "amic": 7888,
      "hop": 7889,
      "yg": 7890,
      "ĠBox": 7891,
      "Ġsuperv": 7892,
      "Ġcontrolled": 7893,
      "Ġimages": 7894,
      "annels": 7895,
      "ĠLet": 7896,
      "Ġparallel": 7897,
      "Ġgarden": 7898,
      "Ġda": 7899,
      "entially": 7900,
      "Ġguitarist": 7901,
      "Ġopportunity": 7902,
      "ĠTreat": 7903,
      "Ġexerc": 7904,
      "Ġjump": 7905,
      "ĠMountains": 7906,
      "attan": 7907,
      "Ġdoor": 7908,
      "Ġbehavior": 7909,
      "Ġfoundation": 7910,
      "Port": 7911,
      ";\"|": 7912,
      "ĠMaur": 7913,
      "ĠVic": 7914,
      "ĠAndre": 7915,
      "Ġtack": 7916,
      "ĠHell": 7917,
      "ĠGill": 7918,
      "asa": 7919,
      "Ġengines": 7920,
      "Rich": 7921,
      "ĠWard": 7922,
      "Ġemployees": 7923,
      "August": 7924,
      "ĠBomb": 7925,
      "Ġille": 7926,
      "ĠCra": 7927,
      "RC": 7928,
      "Ġ1890": 7929,
      "Ġviolence": 7930,
      "rong": 7931,
      "Ġpurposes": 7932,
      "exual": 7933,
      "atherine": 7934,
      "ĠPeters": 7935,
      "ĠNorman": 7936,
      "Ġchemical": 7937,
      "Ġ;": 7938,
      "ĠLank": 7939,
      "antly": 7940,
      "ĠFurther": 7941,
      "Ġflying": 7942,
      "ĠDefense": 7943,
      "ducing": 7944,
      "Ġeasily": 7945,
      "Ġprotein": 7946,
      "Ġtrained": 7947,
      "ĠFil": 7948,
      "ĠLiberal": 7949,
      "ĠDue": 7950,
      "ners": 7951,
      "Ġancest": 7952,
      "Paul": 7953,
      "ĠOrleans": 7954,
      "ĠJordan": 7955,
      "ĠRomania": 7956,
      "à¸": 7957,
      "ĠGa": 7958,
      "host": 7959,
      "ĠNA": 7960,
      "rm": 7961,
      "Ġexact": 7962,
      "orton": 7963,
      "ĠGlas": 7964,
      "Ġretail": 7965,
      "ĠGrant": 7966,
      "1965": 7967,
      "ĠGib": 7968,
      "ecies": 7969,
      "Ġoperates": 7970,
      "Ġreserve": 7971,
      "ĠLov": 7972,
      "Ġax": 7973,
      "ĠTaiwan": 7974,
      "ĠVik": 7975,
      "Ġpersons": 7976,
      "Ġteen": 7977,
      "Ġadvance": 7978,
      "dy": 7979,
      "ĠJohnny": 7980,
      "ilk": 7981,
      "Ġcore": 7982,
      "Ġtypical": 7983,
      "Ġviews": 7984,
      "ĠRangers": 7985,
      "aman": 7986,
      "tenance": 7987,
      "seud": 7988,
      "ĠProduct": 7989,
      "GBT": 7990,
      "Ġgain": 7991,
      "ĠFinland": 7992,
      "Ġobjects": 7993,
      "Ġexhibition": 7994,
      "ĠBerg": 7995,
      "Ġelectronic": 7996,
      "ĠAgency": 7997,
      "onian": 7998,
      "ĠWalker": 7999,
      "ĠAlexand": 8000,
      "ocratic": 8001,
      "Ġsole": 8002,
      "Ġgoods": 8003,
      "ĠLith": 8004,
      "ĠBart": 8005,
      "Ġclimb": 8006,
      "aughters": 8007,
      "Ġcategory": 8008,
      "ãĤ": 8009,
      "Ġrepeated": 8010,
      "ĠBush": 8011,
      "othes": 8012,
      "'re": 8013,
      "Ġnom": 8014,
      "Ġduty": 8015,
      "Ġ1906": 8016,
      "Ġbottom": 8017,
      "udi": 8018,
      "ĠÃī": 8019,
      "orrow": 8020,
      "ĠRow": 8021,
      "Ġnegative": 8022,
      "ĠKennedy": 8023,
      "ashi": 8024,
      "inter": 8025,
      "Ġskills": 8026,
      "Ġconqu": 8027,
      "Bel": 8028,
      "ĠLeban": 8029,
      "Athlet": 8030,
      "Ġarmed": 8031,
      "Ġaccompan": 8032,
      "orer": 8033,
      "zer": 8034,
      "ĠAlfred": 8035,
      "Ġcrown": 8036,
      "Ġnotably": 8037,
      "Ġclean": 8038,
      "73": 8039,
      "Ġtail": 8040,
      "Ġconcluded": 8041,
      "ĠKelly": 8042,
      "Ġlink": 8043,
      "ci": 8044,
      "edding": 8045,
      "Works": 8046,
      "ĠLl": 8047,
      "rops": 8048,
      "away": 8049,
      "Pres": 8050,
      "Ġsurname": 8051,
      "ellite": 8052,
      "Ġri": 8053,
      "Ġ41": 8054,
      "Ġdetails": 8055,
      "ĠTrail": 8056,
      "Ġargued": 8057,
      "ĠKo": 8058,
      "Ġhumans": 8059,
      "Ġinform": 8060,
      "orses": 8061,
      "enezuel": 8062,
      "ĠCare": 8063,
      "ĠNatural": 8064,
      "Ġterror": 8065,
      "ĠBed": 8066,
      "Ġproducers": 8067,
      "uins": 8068,
      "ĠAbout": 8069,
      "ĠVers": 8070,
      "Ġcharges": 8071,
      "Ġreplace": 8072,
      "bach": 8073,
      "Ġkid": 8074,
      "Ġapplications": 8075,
      "Ġwitness": 8076,
      "Ġsoci": 8077,
      "actor": 8078,
      "Ġaccommod": 8079,
      "Ġsubstant": 8080,
      "Gl": 8081,
      "Ġweather": 8082,
      "ĠPeace": 8083,
      "Ġterminus": 8084,
      "file": 8085,
      "Ġsurvived": 8086,
      "Ġdie": 8087,
      "Ġtheater": 8088,
      "Ġflat": 8089,
      "Ġowners": 8090,
      "ĠOfficer": 8091,
      "insula": 8092,
      "Ġinterpret": 8093,
      "Ġsave": 8094,
      "aware": 8095,
      "Jew": 8096,
      "ĠAustin": 8097,
      "agg": 8098,
      "umin": 8099,
      "Inter": 8100,
      "ĠCher": 8101,
      "ĠMorris": 8102,
      "osure": 8103,
      "ĠGon": 8104,
      "If": 8105,
      "mont": 8106,
      "ĠNord": 8107,
      "ĠEnvironment": 8108,
      "Sch": 8109,
      "million": 8110,
      "Ġinduct": 8111,
      "Ep": 8112,
      "ĠFive": 8113,
      "ĠOm": 8114,
      "Ġ1909": 8115,
      "Ġreally": 8116,
      "ĠWoman": 8117,
      "Ġaer": 8118,
      "Ġdocuments": 8119,
      "Ġrevolution": 8120,
      "Ġstrateg": 8121,
      "Mc": 8122,
      "Ġitems": 8123,
      "lon": 8124,
      "ĠHend": 8125,
      "ogether": 8126,
      "ĠCentury": 8127,
      "ĠAustrian": 8128,
      "finals": 8129,
      "Ġseparated": 8130,
      "etime": 8131,
      "Ġcombination": 8132,
      "TS": 8133,
      "do": 8134,
      "Ġzone": 8135,
      "ĠJimmy": 8136,
      "ĠMes": 8137,
      "level": 8138,
      "ĠDal": 8139,
      "ĠRub": 8140,
      "Ġagency": 8141,
      "ailand": 8142,
      "Ġmeets": 8143,
      "Afric": 8144,
      "Ġreduce": 8145,
      "Ġproced": 8146,
      "Ġcomposition": 8147,
      "ĠCampbell": 8148,
      "ĠChristopher": 8149,
      "Ã´": 8150,
      "going": 8151,
      "ĠJess": 8152,
      "Ġsteam": 8153,
      "Ġmoment": 8154,
      "Ġideas": 8155,
      "Ġpurchase": 8156,
      "ĠPC": 8157,
      "Ġones": 8158,
      "Ġregularly": 8159,
      "Ġopposite": 8160,
      "ĠThompson": 8161,
      "ĠRand": 8162,
      "ureau": 8163,
      "Ġpaintings": 8164,
      "Ġvalues": 8165,
      "Ġ43": 8166,
      "anne": 8167,
      "ĠVolume": 8168,
      "Ġregiment": 8169,
      "Defunct": 8170,
      "Ġdies": 8171,
      "ĠSeattle": 8172,
      "Ġadvis": 8173,
      "Ġuniform": 8174,
      "2022": 8175,
      "Ġvide": 8176,
      "ĠBirmingham": 8177,
      "Ġmus": 8178,
      "ĠLocal": 8179,
      "Ġadvoc": 8180,
      "ĠBrooklyn": 8181,
      "Ġconsequ": 8182,
      "Ġcorpor": 8183,
      "Production": 8184,
      "ĠCommander": 8185,
      "Ġphilosophy": 8186,
      "Ġpenal": 8187,
      "who": 8188,
      "Ġcaught": 8189,
      "Ġeye": 8190,
      "Ġadmitted": 8191,
      "Ġcredited": 8192,
      "ĠOur": 8193,
      "Ġclassic": 8194,
      "rafted": 8195,
      "Ġgraduate": 8196,
      "ĠPalest": 8197,
      "sea": 8198,
      "ĠMilan": 8199,
      "lete": 8200,
      "ĠNCAA": 8201,
      "ĠVerm": 8202,
      "ĠChen": 8203,
      "ception": 8204,
      "Ġarchae": 8205,
      "ĠShah": 8206,
      "eton": 8207,
      "ĠVice": 8208,
      "Ġtennis": 8209,
      "ĠBarry": 8210,
      "ĠLane": 8211,
      "ES": 8212,
      "ĠLiverpool": 8213,
      "Ġinterests": 8214,
      "ĠGary": 8215,
      "Ġstating": 8216,
      "MP": 8217,
      "Ġrestored": 8218,
      "ĠTrophy": 8219,
      "inian": 8220,
      "Ġstarred": 8221,
      "ĠEvans": 8222,
      "eless": 8223,
      "Vill": 8224,
      "oca": 8225,
      "ĠFather": 8226,
      "ishers": 8227,
      "ĠSi": 8228,
      "acle": 8229,
      "69": 8230,
      "Ġ1904": 8231,
      "ĠBetween": 8232,
      "Ġ51": 8233,
      "Ġreality": 8234,
      "incinn": 8235,
      "Ġ1905": 8236,
      "Ġuniversities": 8237,
      "ĠThough": 8238,
      "=\"#": 8239,
      "Ġdry": 8240,
      "icit": 8241,
      "ĠSaturday": 8242,
      "ĠWol": 8243,
      "ĠNiger": 8244,
      "Ġ52": 8245,
      "Ġiniti": 8246,
      "ĠNBA": 8247,
      "Ġcalling": 8248,
      "Two": 8249,
      "Ġbond": 8250,
      "--": 8251,
      "yles": 8252,
      "mphony": 8253,
      "DP": 8254,
      "Ġunsuccess": 8255,
      "Ġdevice": 8256,
      "Ġfan": 8257,
      "ĠSax": 8258,
      "ĠTigers": 8259,
      "cat": 8260,
      "Ġimprison": 8261,
      "ĠNav": 8262,
      "ĠBroadcasting": 8263,
      "pi": 8264,
      "power": 8265,
      "Ġfine": 8266,
      "ĠMethod": 8267,
      "ĠUpper": 8268,
      "Ġastr": 8269,
      "Ġ150": 8270,
      "Ġrich": 8271,
      "aceae": 8272,
      "ĠJosÃ©": 8273,
      "Ġequivalent": 8274,
      "incinnati": 8275,
      "ĠDyn": 8276,
      "Robert": 8277,
      "ĠDonald": 8278,
      "eas": 8279,
      "Ġfavour": 8280,
      "ĠIndians": 8281,
      "Ġreaction": 8282,
      "Å¾": 8283,
      "ĠChall": 8284,
      "Ġ1907": 8285,
      "eta": 8286,
      "ĠEvery": 8287,
      "ĠOperation": 8288,
      "Ġshowing": 8289,
      "Ġaccused": 8290,
      "ĠIndonesia": 8291,
      "ĠRap": 8292,
      "Ġaf": 8293,
      "ĠStars": 8294,
      "Ġflu": 8295,
      "Ġclin": 8296,
      "cell": 8297,
      "ĠUtah": 8298,
      "iah": 8299,
      "Ġupd": 8300,
      "Ġmine": 8301,
      "Ġanniversary": 8302,
      "Ġski": 8303,
      "Ġresidence": 8304,
      "Ġdecade": 8305,
      "ĠFranklin": 8306,
      "Ġnothing": 8307,
      "Ġexamples": 8308,
      "Ġdistributed": 8309,
      "ĠLower": 8310,
      "Ġ55": 8311,
      "ĠNelson": 8312,
      "Ġcolleges": 8313,
      "Ġdamaged": 8314,
      "ifer": 8315,
      "ĠVancouver": 8316,
      "Later": 8317,
      "ĠMetro": 8318,
      "fare": 8319,
      "Ġmolec": 8320,
      "Ġobtain": 8321,
      "Ġdisestablished": 8322,
      "ĠDerby": 8323,
      "Ġworth": 8324,
      "1945": 8325,
      "Ġcourts": 8326,
      "ĠCrit": 8327,
      "Italian": 8328,
      "Ġaffected": 8329,
      "ĠCatal": 8330,
      "Ġheat": 8331,
      "ategy": 8332,
      "ĠColonel": 8333,
      "ĠStanley": 8334,
      "Ġprint": 8335,
      "Ġstanding": 8336,
      "1940": 8337,
      "Ġcosts": 8338,
      "ht": 8339,
      "Ġseconds": 8340,
      "ĠAssoci": 8341,
      "iri": 8342,
      "chi": 8343,
      "Ġcomed": 8344,
      "Ġpool": 8345,
      "ĠCarter": 8346,
      "ĠCollection": 8347,
      "Ġtank": 8348,
      "Ġwhy": 8349,
      "ĠRobinson": 8350,
      "Crit": 8351,
      "Ġfeed": 8352,
      "Ġveter": 8353,
      "ĠGet": 8354,
      "ĠChart": 8355,
      "writers": 8356,
      "Ġadvantage": 8357,
      "ĠCooper": 8358,
      "Ġcolonial": 8359,
      "ĠVideo": 8360,
      "Ġ*": 8361,
      "Ġrivers": 8362,
      "Ġoffensive": 8363,
      "ĠConstitution": 8364,
      "ĠThus": 8365,
      "Ġteachers": 8366,
      "Ġintelligence": 8367,
      "Ġretained": 8368,
      "Demographics": 8369,
      "Ġmilit": 8370,
      "lie": 8371,
      "Ġcomput": 8372,
      "ĠLam": 8373,
      "Ġ65": 8374,
      "ĠSud": 8375,
      "ĠFel": 8376,
      "abad": 8377,
      "cious": 8378,
      "Ġdog": 8379,
      "Ġrevers": 8380,
      "Ðº": 8381,
      "lig": 8382,
      "Ġmort": 8383,
      "1962": 8384,
      "Ġutil": 8385,
      "Ġconstituency": 8386,
      "Ġpublications": 8387,
      "Ġstret": 8388,
      "Ġreception": 8389,
      "Ġdivor": 8390,
      "Ġseventh": 8391,
      "ON": 8392,
      "ĠMess": 8393,
      "rov": 8394,
      "Ġsoundtrack": 8395,
      "ĠMans": 8396,
      "Ġdesigns": 8397,
      "atures": 8398,
      "ĠWright": 8399,
      "rene": 8400,
      "Transportation": 8401,
      "Pre": 8402,
      "ĠSaf": 8403,
      "Ġdidn": 8404,
      "fish": 8405,
      "1963": 8406,
      "Ġchose": 8407,
      "escription": 8408,
      "ranean": 8409,
      "Ġfactors": 8410,
      "Ġborders": 8411,
      "Ġdeleg": 8412,
      "Ġunf": 8413,
      "ĠCass": 8414,
      "Ġduties": 8415,
      "Ġstatement": 8416,
      "Ġdowntown": 8417,
      "ancer": 8418,
      "Ġphotograph": 8419,
      "ĠYank": 8420,
      "Ġmagazines": 8421,
      "Ġtick": 8422,
      "ĠTrade": 8423,
      "ĠAuthority": 8424,
      "ĠBorough": 8425,
      "Ġmotion": 8426,
      "ĠGlobal": 8427,
      "opal": 8428,
      "mi": 8429,
      "Ġdismiss": 8430,
      "ĠUpon": 8431,
      "ĠSupport": 8432,
      "Ġlooking": 8433,
      "Ġassass": 8434,
      "rang": 8435,
      "Ġdispl": 8436,
      "Ġstorage": 8437,
      "Ġnor": 8438,
      "ĠWa": 8439,
      "Ġmyth": 8440,
      "ĠYugoslav": 8441,
      "Ġbran": 8442,
      "acon": 8443,
      "Ġattached": 8444,
      "Ġrejected": 8445,
      "Ġkilomet": 8446,
      "Ġcharged": 8447,
      "Ġcommitted": 8448,
      "fessional": 8449,
      "Ġbrig": 8450,
      "IP": 8451,
      "Ġpercussion": 8452,
      "Ġinstruments": 8453,
      "ĠNash": 8454,
      "Ġcoverage": 8455,
      "ĠAndy": 8456,
      "ĠSaints": 8457,
      "ĠOnce": 8458,
      "Discography": 8459,
      "ĠBernard": 8460,
      "Ġpraised": 8461,
      "State": 8462,
      "Ġdrawn": 8463,
      "Ġwings": 8464,
      "Ġtrip": 8465,
      "Ġreferences": 8466,
      "George": 8467,
      "ĠRacing": 8468,
      "Ġinterior": 8469,
      "ĠDaily": 8470,
      "Dist": 8471,
      "ĠMix": 8472,
      "Sim": 8473,
      "essions": 8474,
      "ibl": 8475,
      "?\"": 8476,
      "oda": 8477,
      "ĠSeveral": 8478,
      "Ġstopped": 8479,
      "June": 8480,
      "Ġbra": 8481,
      "ĠGulf": 8482,
      "Station": 8483,
      "ĠAdams": 8484,
      "Ġcoaching": 8485,
      "Ġ47": 8486,
      "ĠDom": 8487,
      "Ġsecretary": 8488,
      "Treat": 8489,
      "Ġprovincial": 8490,
      "ĠJazz": 8491,
      "ĠCole": 8492,
      "ĠMarket": 8493,
      "Ġrestaurant": 8494,
      "Ġevolution": 8495,
      "Ġcolour": 8496,
      "Ġbudget": 8497,
      "Ġappearing": 8498,
      "Ġcapture": 8499,
      "pha": 8500,
      "ĠVienna": 8501,
      "EP": 8502,
      "MC": 8503,
      "ĠBible": 8504,
      "ĠHold": 8505,
      "ĠMotor": 8506,
      "uzz": 8507,
      "inea": 8508,
      "ĠPsych": 8509,
      "Ev": 8510,
      "Ġownership": 8511,
      "ĠShip": 8512,
      "Ġcircum": 8513,
      "election": 8514,
      "Ġbed": 8515,
      "Ġbatter": 8516,
      "Donald": 8517,
      "Ġfinals": 8518,
      "Ġbit": 8519,
      "ĠConfeder": 8520,
      "Ġflo": 8521,
      "rot": 8522,
      "ĠIan": 8523,
      "ĠNative": 8524,
      "inding": 8525,
      "Ġcous": 8526,
      "Ġchance": 8527,
      "Ġhosts": 8528,
      "hattan": 8529,
      "Ġthick": 8530,
      "ĠBlood": 8531,
      "ĠGlasgow": 8532,
      "Ġgrass": 8533,
      "plete": 8534,
      "Ġnewspapers": 8535,
      "assador": 8536,
      "ĠWayne": 8537,
      "ĠSoccer": 8538,
      "Ġpublishing": 8539,
      "Ġdoct": 8540,
      "Ġdriving": 8541,
      "itable": 8542,
      "ĠTak": 8543,
      "Ġprisoners": 8544,
      "Air": 8545,
      "ĠMall": 8546,
      "Ġassumed": 8547,
      "European": 8548,
      "Mal": 8549,
      "ĠDJ": 8550,
      "ĠAlliance": 8551,
      "heme": 8552,
      "Ġ1903": 8553,
      "Ġbiggest": 8554,
      "olia": 8555,
      "Medalists": 8556,
      "ĠCulture": 8557,
      "fiction": 8558,
      "SU": 8559,
      "Ġfired": 8560,
      "ompl": 8561,
      "Ġcarbon": 8562,
      "illo": 8563,
      "ĠThailand": 8564,
      "ĠJerry": 8565,
      "Honours": 8566,
      "Ġdegrees": 8567,
      "ĠFood": 8568,
      "ĠCEO": 8569,
      "iors": 8570,
      "ĠCommunications": 8571,
      "ĠMond": 8572,
      "April": 8573,
      "Ġchannels": 8574,
      "Ġsuggests": 8575,
      "iph": 8576,
      "Northern": 8577,
      "egas": 8578,
      "Ġvary": 8579,
      "ivan": 8580,
      "alia": 8581,
      "ĠMap": 8582,
      "ĠSC": 8583,
      "Ġdoll": 8584,
      "OC": 8585,
      "Ġparticipate": 8586,
      "ĠKu": 8587,
      "icus": 8588,
      "ĠNHL": 8589,
      "Ġextremely": 8590,
      "roke": 8591,
      "Ġarranged": 8592,
      "ĠJun": 8593,
      "Ġemot": 8594,
      "Ġ1880": 8595,
      "Ġelement": 8596,
      "1961": 8597,
      "Ġdescend": 8598,
      "ĠTower": 8599,
      "Ġliteracy": 8600,
      "Ġfest": 8601,
      "ĠMunicipality": 8602,
      "Ġselling": 8603,
      "Ġcycle": 8604,
      "ĠRy": 8605,
      "Ġpitch": 8606,
      "ĠPrimary": 8607,
      "Ġmedieval": 8608,
      "Ġfreedom": 8609,
      "Ġpicture": 8610,
      "ĠJose": 8611,
      "Ġarrival": 8612,
      "Ġisol": 8613,
      "Ġ1902": 8614,
      "Ġchair": 8615,
      "ĠAqu": 8616,
      "Ġdepend": 8617,
      "Ġsynthes": 8618,
      "Ġ46": 8619,
      "Ġkingdom": 8620,
      "Ġfranchise": 8621,
      "))": 8622,
      "Cal": 8623,
      "ilst": 8624,
      "Ġresign": 8625,
      "Ġwounded": 8626,
      "ĠAlberta": 8627,
      "Ġ1901": 8628,
      "lington": 8629,
      "AN": 8630,
      "Ãł": 8631,
      "Ġcapable": 8632,
      "urers": 8633,
      "Musical": 8634,
      "Ġbrain": 8635,
      "ibbean": 8636,
      "obby": 8637,
      "ĠSecret": 8638,
      "ĪĴ": 8639,
      "ĠLuther": 8640,
      "Ġsun": 8641,
      "Fl": 8642,
      "Ġweekly": 8643,
      "ĠTraining": 8644,
      "rock": 8645,
      "ĠGray": 8646,
      "Ġjurisd": 8647,
      "Ġunus": 8648,
      "bi": 8649,
      "Ġlinked": 8650,
      "Ġpresidential": 8651,
      "Ġkeyboards": 8652,
      "Ġveget": 8653,
      "Ġreplacement": 8654,
      "profit": 8655,
      "Ġmouth": 8656,
      "Ġcontributions": 8657,
      "ĠSarah": 8658,
      "master": 8659,
      "ashed": 8660,
      "ĠFried": 8661,
      "ĠMarshall": 8662,
      "Ġpeaked": 8663,
      "Ã¶r": 8664,
      "Ġpopularity": 8665,
      "hu": 8666,
      "October": 8667,
      "rix": 8668,
      "Ġdig": 8669,
      "Ġrecept": 8670,
      "ĠMurray": 8671,
      "ĠCarn": 8672,
      "Ġorchestra": 8673,
      "Ġcarrying": 8674,
      "top": 8675,
      "Ġaudio": 8676,
      "Ro": 8677,
      "Ġotherwise": 8678,
      "Ġeyes": 8679,
      "ĠGiants": 8680,
      "ĠJason": 8681,
      "Ġregistered": 8682,
      "bat": 8683,
      "Ġadaptation": 8684,
      "Ġstood": 8685,
      "ĠGraham": 8686,
      "ĠConvention": 8687,
      "ĠChamber": 8688,
      "ĠMind": 8689,
      "Ġjourney": 8690,
      "ovo": 8691,
      "Ġcandidates": 8692,
      "Ġtur": 8693,
      "ĠPun": 8694,
      "ĠGuy": 8695,
      "icial": 8696,
      "ĠArmenian": 8697,
      "ĠLegislative": 8698,
      "Ġbanks": 8699,
      "ĠNever": 8700,
      "type": 8701,
      "Ġmanufacturing": 8702,
      "App": 8703,
      "ĠEmer": 8704,
      "Ġheaded": 8705,
      "ĠSeason": 8706,
      "1959": 8707,
      "Ġtall": 8708,
      "ĠCricket": 8709,
      "atters": 8710,
      "Ġprotest": 8711,
      "Ġassistance": 8712,
      "Ġexperienced": 8713,
      "ĠLad": 8714,
      "ĠUEFA": 8715,
      "Ġprepared": 8716,
      "Ġcoastal": 8717,
      "Ġjobs": 8718,
      "resents": 8719,
      "released": 8720,
      "ĠLib": 8721,
      "encing": 8722,
      "Ġstages": 8723,
      "vant": 8724,
      "ĠChand": 8725,
      "avan": 8726,
      "Ġinher": 8727,
      "July": 8728,
      "Ġgolf": 8729,
      "1930": 8730,
      "Ġprize": 8731,
      "Ġfalls": 8732,
      "Ġdelay": 8733,
      "ĠHindu": 8734,
      "Ġdelivered": 8735,
      "isb": 8736,
      "ĠCathedral": 8737,
      "Ang": 8738,
      "arest": 8739,
      "ĠMayor": 8740,
      "Footballers": 8741,
      "Ġpoem": 8742,
      "Ġdesigner": 8743,
      "agar": 8744,
      "ĠPad": 8745,
      "Ġqualified": 8746,
      "issue": 8747,
      "inces": 8748,
      "Ġmedicine": 8749,
      "Ġbelonged": 8750,
      "hill": 8751,
      "Ã©n": 8752,
      "Ġahead": 8753,
      "Ġmales": 8754,
      "ĠJohann": 8755,
      "ĠPatri": 8756,
      "September": 8757,
      "Current": 8758,
      "Ġcards": 8759,
      "Ġsignificantly": 8760,
      "Ġlov": 8761,
      "Ġgrant": 8762,
      "Ġlearned": 8763,
      "icate": 8764,
      "ulus": 8765,
      "Ġexecuted": 8766,
      "jamin": 8767,
      "atern": 8768,
      "Ġexpression": 8769,
      "ĠTob": 8770,
      "Ġsuccessor": 8771,
      "Ġlanding": 8772,
      "Ġanch": 8773,
      "Ġinstitution": 8774,
      "Ġmountains": 8775,
      "Ġexplos": 8776,
      "Mod": 8777,
      "Ġaccompanied": 8778,
      "ĠPage": 8779,
      "ĠDub": 8780,
      "Ġlegislation": 8781,
      "Ġstreets": 8782,
      "Ġclassified": 8783,
      "Ġentering": 8784,
      "Ġcollaboration": 8785,
      "DF": 8786,
      "bal": 8787,
      "Ġmembership": 8788,
      "Ġassault": 8789,
      "ture": 8790,
      "itars": 8791,
      "isode": 8792,
      "Ġusers": 8793,
      "ĠHas": 8794,
      "Ġtransportation": 8795,
      "door": 8796,
      "Ġ59": 8797,
      "1958": 8798,
      "ĠEnt": 8799,
      "formance": 8800,
      "amps": 8801,
      "ĠEnergy": 8802,
      "ĠAngl": 8803,
      "Ã«": 8804,
      "Ġtied": 8805,
      "!\"": 8806,
      "Ġshooting": 8807,
      "ivated": 8808,
      "ĠTheater": 8809,
      "Ġcoordin": 8810,
      "ĠMack": 8811,
      "Ġscheme": 8812,
      "Ġliqu": 8813,
      "ĠSongs": 8814,
      "Ġrunner": 8815,
      "Ġcommunication": 8816,
      "ĠGriff": 8817,
      "Ġdiagn": 8818,
      "Ġaccur": 8819,
      "ĠCollins": 8820,
      "Ġfilmed": 8821,
      "Ġprotected": 8822,
      "Ġaware": 8823,
      "ĠKnow": 8824,
      "ĠMedicine": 8825,
      "phone": 8826,
      "oked": 8827,
      "Tax": 8828,
      "osph": 8829,
      "oenix": 8830,
      "ctic": 8831,
      "ĠParish": 8832,
      "Ġjustice": 8833,
      "ĠVenezuel": 8834,
      "ĠRena": 8835,
      "ĠKan": 8836,
      "otten": 8837,
      "aptist": 8838,
      "ielder": 8839,
      "ĠCBS": 8840,
      "ĠBeg": 8841,
      "ĠFight": 8842,
      "eenth": 8843,
      "Ġphen": 8844,
      "ĠFalls": 8845,
      "Ġappropri": 8846,
      "Ġaccompl": 8847,
      "ĠInvest": 8848,
      "Ġrepresents": 8849,
      "Ġshel": 8850,
      "Ġdifference": 8851,
      "pping": 8852,
      "estyle": 8853,
      "ĠSeven": 8854,
      "Ġsevere": 8855,
      "Em": 8856,
      "anian": 8857,
      "Ġnaval": 8858,
      "ĠMeg": 8859,
      "iterranean": 8860,
      "yll": 8861,
      "abled": 8862,
      "elaide": 8863,
      "OM": 8864,
      "ducer": 8865,
      "Ġorganisation": 8866,
      "Ġspiritual": 8867,
      "riel": 8868,
      "ĠUnit": 8869,
      "Ġstring": 8870,
      "DC": 8871,
      "ĠAnna": 8872,
      "ĠAR": 8873,
      "Ġoffering": 8874,
      "iper": 8875,
      "Ġfactor": 8876,
      "Ġpreced": 8877,
      "ĠAgric": 8878,
      "Ġrequirements": 8879,
      "Ġmanga": 8880,
      "commun": 8881,
      "Ġpoets": 8882,
      "Ġcovering": 8883,
      "usalem": 8884,
      "Ġhouseholds": 8885,
      "ĠSerbia": 8886,
      "ĠHit": 8887,
      "ĠCommunist": 8888,
      "Ġrenew": 8889,
      "Michael": 8890,
      "ĠLost": 8891,
      "uru": 8892,
      "ĠCarlos": 8893,
      "ĠScient": 8894,
      "Ġmining": 8895,
      "Ġsegment": 8896,
      "Ġwine": 8897,
      "ĠAP": 8898,
      "BM": 8899,
      "Ġswimming": 8900,
      "ders": 8901,
      "Ġvert": 8902,
      "Ġcollections": 8903,
      "Ġalleg": 8904,
      "Ġstayed": 8905,
      "antine": 8906,
      "winning": 8907,
      "uin": 8908,
      "ĠArkansas": 8909,
      "Ġwave": 8910,
      "Bus": 8911,
      "ĠEss": 8912,
      "Ġplus": 8913,
      "Ġcup": 8914,
      "ĠIns": 8915,
      "Oper": 8916,
      "Ġmissions": 8917,
      "Ġspeak": 8918,
      "rehens": 8919,
      "udden": 8920,
      "ĠML": 8921,
      "ĠRobin": 8922,
      "aired": 8923,
      "ĠTol": 8924,
      "ophone": 8925,
      "Ġrestrict": 8926,
      "Ġuser": 8927,
      "din": 8928,
      "Ġterritories": 8929,
      "hus": 8930,
      "iko": 8931,
      "ĠSite": 8932,
      "ĠDakota": 8933,
      "aja": 8934,
      "Ġbroadcasting": 8935,
      "ĠBuffalo": 8936,
      "ĠRest": 8937,
      "ĠBristol": 8938,
      "Ġsoil": 8939,
      "Ġcited": 8940,
      "chang": 8941,
      "othy": 8942,
      "haw": 8943,
      "ocol": 8944,
      "Stud": 8945,
      "imm": 8946,
      "ĠProtest": 8947,
      "ulum": 8948,
      "Ġsnow": 8949,
      "ĠMitchell": 8950,
      "Alumni": 8951,
      "Ġtechnique": 8952,
      "Ġlists": 8953,
      "ubb": 8954,
      "Ġdating": 8955,
      "ĠDog": 8956,
      "Ġbusinessman": 8957,
      "ĠSoul": 8958,
      "ĠBud": 8959,
      "Ġchapter": 8960,
      "ĠRud": 8961,
      "Ġinsc": 8962,
      "ĠRichmond": 8963,
      "Ġperhaps": 8964,
      "ĠNazi": 8965,
      "Ġdemand": 8966,
      "ĠClassic": 8967,
      "ĠMuhammad": 8968,
      "Ġportrayed": 8969,
      "Ġsubjects": 8970,
      "Ġfishing": 8971,
      "ĠRio": 8972,
      "Ġcold": 8973,
      "Ġinvent": 8974,
      "1957": 8975,
      "Ġhur": 8976,
      "Ġenh": 8977,
      "Ġamateur": 8978,
      "Ġhang": 8979,
      "Ġcelebrated": 8980,
      "aments": 8981,
      "mosp": 8982,
      "Ġreplacing": 8983,
      "folk": 8984,
      "later": 8985,
      "Ġign": 8986,
      "ĠJudge": 8987,
      "Nor": 8988,
      "Radio": 8989,
      "boy": 8990,
      "Ġcatch": 8991,
      "ĠMarie": 8992,
      "Ġmedals": 8993,
      "Ġbon": 8994,
      "vi": 8995,
      "ĠNova": 8996,
      "Ġtesting": 8997,
      "1956": 8998,
      "Ġpractices": 8999,
      "lock": 9000,
      "asm": 9001,
      "ĠMother": 9002,
      "Ġdifferences": 9003,
      "ĠCook": 9004,
      "ĠSteel": 9005,
      "Political": 9006,
      "ĠNon": 9007,
      "ĠChem": 9008,
      "Ġtex": 9009,
      "Ġattorney": 9010,
      "ĠBaker": 9011,
      "Ġlicense": 9012,
      "Ġsubd": 9013,
      "Ġfruit": 9014,
      "Ġshut": 9015,
      "ags": 9016,
      "otan": 9017,
      "ĠAthletics": 9018,
      "ellect": 9019,
      "ĠRomanian": 9020,
      "ĠManhattan": 9021,
      "feld": 9022,
      "Ġcontext": 9023,
      "Ġfiled": 9024,
      "ED": 9025,
      "ĠOrange": 9026,
      "ĠHunter": 9027,
      "Ġdemolished": 9028,
      "Ġinjuries": 9029,
      "ĠBranch": 9030,
      "stances": 9031,
      "1955": 9032,
      "ĠWindows": 9033,
      "mate": 9034,
      "ĠControl": 9035,
      "ĠVel": 9036,
      "Ġinfrastructure": 9037,
      "otype": 9038,
      "Ġoccupation": 9039,
      "Ġencounter": 9040,
      "á»": 9041,
      "Ġdetermine": 9042,
      "ĠMadrid": 9043,
      "Ġpenalty": 9044,
      "War": 9045,
      "ĠProm": 9046,
      "ĠĠĠĠĠĠĠĠĠĠĠĠĠĠĠĠ": 9047,
      "Ġrequires": 9048,
      "December": 9049,
      "NC": 9050,
      "Ġweak": 9051,
      "Ġsed": 9052,
      "ĠBenn": 9053,
      ".âĢĿ": 9054,
      "iration": 9055,
      "ĠEqu": 9056,
      "Ġcriticized": 9057,
      "ĠCamer": 9058,
      "January": 9059,
      "Ġtransition": 9060,
      "Ġevening": 9061,
      "isations": 9062,
      "aders": 9063,
      "rations": 9064,
      "eed": 9065,
      "Ġfrag": 9066,
      "Ġseed": 9067,
      "hand": 9068,
      "tha": 9069,
      "ĠNi": 9070,
      "apping": 9071,
      "Ġplane": 9072,
      "Fictional": 9073,
      "ĠAy": 9074,
      "ĠHum": 9075,
      "Up": 9076,
      "Ġjudges": 9077,
      "aun": 9078,
      "Ġconcerns": 9079,
      "ĠHeb": 9080,
      "Ġwor": 9081,
      "ebraska": 9082,
      "ĠCharlie": 9083,
      "Ġplate": 9084,
      "cyclop": 9085,
      "Ġinfl": 9086,
      "ictions": 9087,
      "Jewish": 9088,
      "Ġminute": 9089,
      "ĠAld": 9090,
      "ĠSymphony": 9091,
      "Ġroughly": 9092,
      "ĠUkrainian": 9093,
      "ĠSign": 9094,
      "ĠPrefect": 9095,
      "Ġabsor": 9096,
      "hum": 9097,
      "orous": 9098,
      "ĠKr": 9099,
      "ĠHud": 9100,
      "Ġscientists": 9101,
      "White": 9102,
      "Ġensure": 9103,
      "Ġsigning": 9104,
      "Ġago": 9105,
      "Ġsupposed": 9106,
      "ĠDNA": 9107,
      "Ġreun": 9108,
      "Ġhorror": 9109,
      "asp": 9110,
      "ĠGlen": 9111,
      "stery": 9112,
      "len": 9113,
      "sters": 9114,
      "rip": 9115,
      "Ġbird": 9116,
      "ĠSingles": 9117,
      "ĠSpirit": 9118,
      "Ġjunction": 9119,
      "AP": 9120,
      "cia": 9121,
      "Ġmodified": 9122,
      "Ġbeach": 9123,
      "Ġdefeating": 9124,
      "Ġromantic": 9125,
      "ĠAlaska": 9126,
      "listed": 9127,
      "Ġunderstanding": 9128,
      "ttps": 9129,
      "mund": 9130,
      "ĠArchitect": 9131,
      "atche": 9132,
      "Ġlegs": 9133,
      "ĠChairman": 9134,
      "Ġ54": 9135,
      "ĠJenn": 9136,
      "sson": 9137,
      "uble": 9138,
      "Russian": 9139,
      "Ġdim": 9140,
      "ĠNation": 9141,
      "Post": 9142,
      "ĠCuba": 9143,
      "Mark": 9144,
      "ÃŁ": 9145,
      "marine": 9146,
      "Ġcheck": 9147,
      "castle": 9148,
      "atically": 9149,
      "Ġagencies": 9150,
      "soft": 9151,
      "athy": 9152,
      "Ġcredits": 9153,
      "ĠEdition": 9154,
      "Ġresponsibility": 9155,
      "Ġmaintenance": 9156,
      "ĠZone": 9157,
      "Ġinterested": 9158,
      "Ġ1898": 9159,
      "Ġcrowd": 9160,
      "arus": 9161,
      "Ġtemporary": 9162,
      "Ġaspects": 9163,
      "Ġcrash": 9164,
      "Spanish": 9165,
      "ĠLions": 9166,
      "ĠDrive": 9167,
      "ĠBureau": 9168,
      "Ġrating": 9169,
      "Ġexisted": 9170,
      "acht": 9171,
      "MI": 9172,
      "Ġbranches": 9173,
      "Ġaggreg": 9174,
      "claimed": 9175,
      "ĠLanguage": 9176,
      "LP": 9177,
      "ĠSpeed": 9178,
      "Ġplanet": 9179,
      "Ġpainted": 9180,
      "SW": 9181,
      "opes": 9182,
      "ĠMaj": 9183,
      "Ġvideos": 9184,
      "ĠSid": 9185,
      "Ġnote": 9186,
      "ĠPant": 9187,
      "Ġauthors": 9188,
      "anner": 9189,
      "Ġadding": 9190,
      "isition": 9191,
      "Ġrelative": 9192,
      "Ġindicate": 9193,
      "ĠLud": 9194,
      "Ġjournalists": 9195,
      "ĠLimited": 9196,
      "eoples": 9197,
      "ET": 9198,
      "ĠNeg": 9199,
      "Ġdaughters": 9200,
      "ĠConservative": 9201,
      "Ġfrequency": 9202,
      "harm": 9203,
      "nce": 9204,
      "ĠDays": 9205,
      "Ġstruck": 9206,
      "Ġalco": 9207,
      "hai": 9208,
      "Description": 9209,
      "ĠNBC": 9210,
      "Ġincorpor": 9211,
      "rena": 9212,
      "ario": 9213,
      "Ġpian": 9214,
      "Ġcontroversy": 9215,
      "ĠNevada": 9216,
      "ĠAfghanistan": 9217,
      "Ġmir": 9218,
      "resses": 9219,
      "Ġcomponents": 9220,
      "pre": 9221,
      "orne": 9222,
      "incorporated": 9223,
      "ĠCart": 9224,
      "asi": 9225,
      "African": 9226,
      "Ġscholar": 9227,
      "Ġfilled": 9228,
      "ĠKon": 9229,
      "Ġprime": 9230,
      "Ġexpert": 9231,
      "Ġmeasures": 9232,
      "Ġfixed": 9233,
      "Scottish": 9234,
      "Ġpolicies": 9235,
      "Ġsanct": 9236,
      "enson": 9237,
      "Ġquestions": 9238,
      "oret": 9239,
      "web": 9240,
      "ĠFrid": 9241,
      "efef": 9242,
      "Ġdestr": 9243,
      "Ġentertainment": 9244,
      "Count": 9245,
      "ĠPav": 9246,
      "ĠJerusalem": 9247,
      "ĠDiocese": 9248,
      "aha": 9249,
      "Ġthousands": 9250,
      "ĠGun": 9251,
      "uka": 9252,
      "Ġmonarch": 9253,
      "Ġsurre": 9254,
      "ĠNorthwest": 9255,
      "ido": 9256,
      "ĠBangl": 9257,
      "Ret": 9258,
      "ampa": 9259,
      "Ġvictims": 9260,
      "ls": 9261,
      "stown": 9262,
      "rypt": 9263,
      "Ġdevices": 9264,
      "inate": 9265,
      "SO": 9266,
      "ĠMi": 9267,
      "Ġpoems": 9268,
      "ĠMichel": 9269,
      "ĠPictures": 9270,
      "ĠAT": 9271,
      "ĠCincinnati": 9272,
      "reation": 9273,
      "Ġmac": 9274,
      "eri": 9275,
      "Cons": 9276,
      "ournament": 9277,
      "ĠPortland": 9278,
      "ĠChang": 9279,
      "ĠElectric": 9280,
      "ĠCaribbean": 9281,
      "ĠRef": 9282,
      "ribed": 9283,
      "Ġcriticism": 9284,
      "Ġvic": 9285,
      "ĠFab": 9286,
      "ĠExt": 9287,
      "ĠFitz": 9288,
      "Ġconvicted": 9289,
      "ĠPack": 9290,
      "Ġnone": 9291,
      "ĠUC": 9292,
      "Ġsuff": 9293,
      "keeper": 9294,
      "Ġanime": 9295,
      "know": 9296,
      "Second": 9297,
      "Ġlap": 9298,
      "ĠAnti": 9299,
      "Ġtropical": 9300,
      "ĠArabic": 9301,
      "acre": 9302,
      "Ġheritage": 9303,
      "ĠFull": 9304,
      "Ġ1870": 9305,
      "ĠSox": 9306,
      "ĠAdelaide": 9307,
      "Ġsquadron": 9308,
      "Ġvolumes": 9309,
      "Ġsomewhat": 9310,
      "emale": 9311,
      "ĠTele": 9312,
      "Ġcredit": 9313,
      "Ġwheel": 9314,
      "Ġ53": 9315,
      "Ġhelping": 9316,
      "ĠDefence": 9317,
      "ĠCrow": 9318,
      "ĠAer": 9319,
      "load": 9320,
      "ĠSultan": 9321,
      "operation": 9322,
      "ĠTransport": 9323,
      "itime": 9324,
      "amer": 9325,
      "ĠNep": 9326,
      "ifican": 9327,
      "ugs": 9328,
      "Ġcommemor": 9329,
      "Ġrend": 9330,
      "ushing": 9331,
      "ĠMean": 9332,
      "gate": 9333,
      "Ġflows": 9334,
      "Ġchallenge": 9335,
      "ĠLP": 9336,
      "ĠNet": 9337,
      "merce": 9338,
      "Ġsurrounded": 9339,
      "Ġsax": 9340,
      "ĠDeputy": 9341,
      "Ġexpedition": 9342,
      "family": 9343,
      "Ġmemorial": 9344,
      "Ġ1899": 9345,
      "utions": 9346,
      "Ġshore": 9347,
      "ĠObl": 9348,
      "Ġmovements": 9349,
      "ĠRav": 9350,
      "ĠLock": 9351,
      "Ġprohib": 9352,
      "Ġmanner": 9353,
      "Ġpainters": 9354,
      "ĠKit": 9355,
      "alph": 9356,
      "mates": 9357,
      "Ġvenue": 9358,
      "November": 9359,
      "ĠBass": 9360,
      "Ġinterchange": 9361,
      "Ġmile": 9362,
      "ĠMaine": 9363,
      "ourg": 9364,
      "Ġskin": 9365,
      "ificance": 9366,
      "Ġrates": 9367,
      "Ġoccasionally": 9368,
      "erk": 9369,
      "ulu": 9370,
      "atar": 9371,
      "ĠHarrison": 9372,
      "ĠModel": 9373,
      "Ġspoken": 9374,
      "lett": 9375,
      "force": 9376,
      "Ġcomics": 9377,
      "garia": 9378,
      "pent": 9379,
      "orial": 9380,
      "ĠLeeds": 9381,
      "ĠMovement": 9382,
      "rior": 9383,
      "1953": 9384,
      "Ġrose": 9385,
      "Ġgrown": 9386,
      "Ã¨re": 9387,
      "Ġwooden": 9388,
      "Male": 9389,
[...]
